{
  "version": "1.0",
  "truncation": null,
  "padding": null,
  "added_tokens": [
    {
      "id": 50256,
      "content": "<|endoftext|>",
      "single_word": false,
      "lstrip": false,
      "rstrip": false,
      "normalized": false,
      "special": true
    }
  ],
  "normalizer": null,
  "pre_tokenizer": {
    "type": "ByteLevel",
    "add_prefix_space": false,
    "trim_offsets": true,
    "use_regex": true
  },
  "post_processor": null,
  "decoder": {
    "type": "ByteLevel",
    "add_prefix_space": true,
    "trim_offsets": true,
    "use_regex": true
  },
  "model": {
    "type": "BPE",
    "dropout": null,
    "unk_token": null,
    "continuing_subword_prefix": null,
    "end_of_word_suffix": null,
    "fuse_unk": false,
    "byte_fallback": false,
    "ignore_merges": false,
    "vocab": {
      "!": 0,
      "\"": 1,
      "#": 2,
      "$": 3,
      "%": 4,
      "&": 5,
      "'": 6,
      "(": 7,
      ")": 8,
      "*": 9,
      "+": 10,
      ",": 11,
      "-": 12,
      ".": 13,
      "/": 14,
      "0": 15,
      "1": 16,
      "2": 17,
      "3": 18,
      "4": 19,
      "5": 20,
      "6": 21,
      "7": 22,
      "8": 23,
      "9": 24,
      ":": 25,
      ";": 26,
      "<": 27,
      "=": 28,
      ">": 29,
      "?": 30,
      "@": 31,
      "A": 32,
      "B": 33,
      "C": 34,
      "D": 35,
      "E": 36,
      "F": 37,
      "G": 38,
      "H": 39,
      "I": 40,
      "J": 41,
      "K": 42,
      "L": 43,
      "M": 44,
      "N": 45,
      "O": 46,
      "P": 47,
      "Q": 48,
      "R": 49,
      "S": 50,
      "T": 51,
      "U": 52,
      "V": 53,
      "W": 54,
      "X": 55,
      "Y": 56,
      "Z": 57,
      "[": 58,
      "\\": 59,
      "]": 60,
      "^": 61,
      "_": 62,
      "`": 63,
      "a": 64,
      "b": 65,
      "c": 66,
      "d": 67,
      "e": 68,
      "f": 69,
      "g": 70,
      "h": 71,
      "i": 72,
      "j": 73,
      "k": 74,
      "l": 75,
      "m": 76,
      "n": 77,
      "o": 78,
      "p": 79,
      "q": 80,
      "r": 81,
      "s": 82,
      "t": 83,
      "u": 84,
      "v": 85,
      "w": 86,
      "x": 87,
      "y": 88,
      "z": 89,
      "{": 90,
      "|": 91,
      "}": 92,
      "~": 93,
      "¡": 94,
      "¢": 95,
      "£": 96,
      "¤": 97,
      "¥": 98,
      "¦": 99,
      "§": 100,
      "¨": 101,
      "©": 102,
      "ª": 103,
      "«": 104,
      "¬": 105,
      "®": 106,
      "¯": 107,
      "°": 108,
      "±": 109,
      "²": 110,
      "³": 111,
      "´": 112,
      "µ": 113,
      "¶": 114,
      "·": 115,
      "¸": 116,
      "¹": 117,
      "º": 118,
      "»": 119,
      "¼": 120,
      "½": 121,
      "¾": 122,
      "¿": 123,
      "À": 124,
      "Á": 125,
      "Â": 126,
      "Ã": 127,
      "Ä": 128,
      "Å": 129,
      "Æ": 130,
      "Ç": 131,
      "È": 132,
      "É": 133,
      "Ê": 134,
      "Ë": 135,
      "Ì": 136,
      "Í": 137,
      "Î": 138,
      "Ï": 139,
      "Ð": 140,
      "Ñ": 141,
      "Ò": 142,
      "Ó": 143,
      "Ô": 144,
      "Õ": 145,
      "Ö": 146,
      "×": 147,
      "Ø": 148,
      "Ù": 149,
      "Ú": 150,
      "Û": 151,
      "Ü": 152,
      "Ý": 153,
      "Þ": 154,
      "ß": 155,
      "à": 156,
      "á": 157,
      "â": 158,
      "ã": 159,
      "ä": 160,
      "å": 161,
      "æ": 162,
      "ç": 163,
      "è": 164,
      "é": 165,
      "ê": 166,
      "ë": 167,
      "ì": 168,
      "í": 169,
      "î": 170,
      "ï": 171,
      "ð": 172,
      "ñ": 173,
      "ò": 174,
      "ó": 175,
      "ô": 176,
      "õ": 177,
      "ö": 178,
      "÷": 179,
      "ø": 180,
      "ù": 181,
      "ú": 182,
      "û": 183,
      "ü": 184,
      "ý": 185,
      "þ": 186,
      "ÿ": 187,
      "Ā": 188,
      "ā": 189,
      "Ă": 190,
      "ă": 191,
      "Ą": 192,
      "ą": 193,
      "Ć": 194,
      "ć": 195,
      "Ĉ": 196,
      "ĉ": 197,
      "Ċ": 198,
      "ċ": 199,
      "Č": 200,
      "č": 201,
      "Ď": 202,
      "ď": 203,
      "Đ": 204,
      "đ": 205,
      "Ē": 206,
      "ē": 207,
      "Ĕ": 208,
      "ĕ": 209,
      "Ė": 210,
      "ė": 211,
      "Ę": 212,
      "ę": 213,
      "Ě": 214,
      "ě": 215,
      "Ĝ": 216,
      "ĝ": 217,
      "Ğ": 218,
      "ğ": 219,
      "Ġ": 220,
      "ġ": 221,
      "Ģ": 222,
      "ģ": 223,
      "Ĥ": 224,
      "ĥ": 225,
      "Ħ": 226,
      "ħ": 227,
      "Ĩ": 228,
      "ĩ": 229,
      "Ī": 230,
      "ī": 231,
      "Ĭ": 232,
      "ĭ": 233,
      "Į": 234,
      "į": 235,
      "İ": 236,
      "ı": 237,
      "Ĳ": 238,
      "ĳ": 239,
      "Ĵ": 240,
      "ĵ": 241,
      "Ķ": 242,
      "ķ": 243,
      "ĸ": 244,
      "Ĺ": 245,
      "ĺ": 246,
      "Ļ": 247,
      "ļ": 248,
      "Ľ": 249,
      "ľ": 250,
      "Ŀ": 251,
      "ŀ": 252,
      "Ł": 253,
      "ł": 254,
      "Ń": 255,
      "in": 256,
      "er": 257,
      "ed": 258,
      "es": 259,
      "on": 260,
      "ti": 261,
      "ing": 262,
      "en": 263,
      "al": 264,
      "at": 265,
      "or": 266,
      "re": 267,
      "an": 268,
      "ar": 269,
      "is": 270,
      "tion": 271,
      "le": 272,
      "it": 273,
      "ic": 274,
      "as": 275,
      "ro": 276,
      "ly": 277,
      "ra": 278,
      "un": 279,
      "st": 280,
      "ent": 281,
      "ul": 282,
      "ec": 283,
      "el": 284,
      "om": 285,
      "ation": 286,
      "ac": 287,
      "ab": 288,
      "il": 289,
      "Ġc": 290,
      "Ġs": 291,
      "ers": 292,
      "ur": 293,
      "ol": 294,
      "ĠS": 295,
      "et": 296,
      "ess": 297,
      "ut": 298,
      "ĠC": 299,
      "us": 300,
      "ri": 301,
      "ch": 302,
      "Ġp": 303,
      "iz": 304,
      "lo": 305,
      "de": 306,
      "ve": 307,
      "ig": 308,
      "ad": 309,
      "ter": 310,
      "am": 311,
      "em": 312,
      "ĠP": 313,
      "In": 314,
      "ity": 315,
      "ag": 316,
      "Ġd": 317,
      "ce": 318,
      "im": 319,
      "ĠA": 320,
      "ts": 321,
      "ĠR": 322,
      "ĠD": 323,
      "ver": 324,
      "ap": 325,
      "id": 326,
      "able": 327,
      "Ġm": 328,
      "ate": 329,
      "tic": 330,
      "um": 331,
      "th": 332,
      "pl": 333,
      "ex": 334,
      "ĠM": 335,
      "op": 336,
      "ir": 337,
      "Ġre": 338,
      "up": 339,
      "Ġf": 340,
      "os": 341,
      "ated": 342,
      "est": 343,
      "ĠT": 344,
      "if": 345,
      "qu": 346,
      "od": 347,
      "ot": 348,
      "Ġb": 349,
      "ub": 350,
      "Ġt": 351,
      "ally": 352,
      "ct": 353,
      "ow": 354,
      "ion": 355,
      "ist": 356,
      "ĠE": 357,
      "con": 358,
      "Ġin": 359,
      "ĠF": 360,
      "ran": 361,
      "ĠB": 362,
      "oc": 363,
      "tive": 364,
      "og": 365,
      "omp": 366,
      "end": 367,
      "Un": 368,
      "pro": 369,
      "ff": 370,
      "ous": 371,
      "ay": 372,
      "ating": 373,
      "ted": 374,
      "Ġh": 375,
      "ased": 376,
      "ting": 377,
      "und": 378,
      "ep": 379,
      "Ġw": 380,
      "ass": 381,
      "ens": 382,
      "ain": 383,
      "orm": 384,
      "igh": 385,
      "ment": 386,
      "ip": 387,
      "ĠIn": 388,
      "ak": 389,
      "and": 390,
      "ulti": 391,
      "ru": 392,
      "res": 393,
      "ates": 394,
      "ard": 395,
      "ĠH": 396,
      "'s": 397,
      "ations": 398,
      "ies": 399,
      "iv": 400,
      "aliz": 401,
      "ors": 402,
      "ling": 403,
      "sp": 404,
      "ĠL": 405,
      "Ġg": 406,
      "ib": 407,
      "ph": 408,
      "ine": 409,
      "per": 410,
      "Ġun": 411,
      "ack": 412,
      "ĠO": 413,
      "co": 414,
      "led": 415,
      "Ġn": 416,
      "ug": 417,
      "uc": 418,
      "ef": 419,
      "ĠW": 420,
      "ant": 421,
      "av": 422,
      "eg": 423,
      "tra": 424,
      "sc": 425,
      "ew": 426,
      "ĠG": 427,
      "Ġcon": 428,
      "ear": 429,
      "based": 430,
      "ev": 431,
      "tim": 432,
      "enc": 433,
      "ok": 434,
      "ud": 435,
      "tions": 436,
      "ĠN": 437,
      "all": 438,
      "ness": 439,
      "ish": 440,
      "bo": 441,
      "iti": 442,
      "Con": 443,
      "over": 444,
      "Ġst": 445,
      "cl": 446,
      "ility": 447,
      "ang": 448,
      "ind": 449,
      "ust": 450,
      "sh": 451,
      "ress": 452,
      "out": 453,
      "ob": 454,
      "ect": 455,
      "Ġl": 456,
      "age": 457,
      "ell": 458,
      "ure": 459,
      "ĠCon": 460,
      "ful": 461,
      "rec": 462,
      "our": 463,
      "ĠUn": 464,
      "ss": 465,
      "ast": 466,
      "form": 467,
      "ks": 468,
      "ord": 469,
      "ram": 470,
      "St": 471,
      "ill": 472,
      "ry": 473,
      "les": 474,
      "ive": 475,
      "ric": 476,
      "int": 477,
      "her": 478,
      "se": 479,
      "low": 480,
      "eb": 481,
      "ence": 482,
      "po": 483,
      "ance": 484,
      "Ġv": 485,
      "alis": 486,
      "ati": 487,
      "red": 488,
      "ator": 489,
      "Ġde": 490,
      "als": 491,
      "ach": 492,
      "anc": 493,
      "king": 494,
      "ign": 495,
      "less": 496,
      "ĠI": 497,
      "omm": 498,
      "min": 499,
      "pt": 500,
      "ĠSt": 501,
      "olog": 502,
      "Ġex": 503,
      "par": 504,
      "loc": 505,
      "ron": 506,
      "ort": 507,
      "erv": 508,
      "ized": 509,
      "ge": 510,
      "ĠV": 511,
      "enti": 512,
      "he": 513,
      "Ġa": 514,
      "ative": 515,
      "ability": 516,
      "row": 517,
      "iss": 518,
      "ight": 519,
      "rac": 520,
      "to": 521,
      "ail": 522,
      "comp": 523,
      "own": 524,
      "Ġpro": 525,
      "pos": 526,
      "ash": 527,
      "ical": 528,
      "ied": 529,
      "pe": 530,
      "ped": 531,
      "ven": 532,
      "di": 533,
      "vers": 534,
      "ost": 535,
      "ise": 536,
      "Ex": 537,
      "elf": 538,
      "are": 539,
      "Pro": 540,
      "ll": 541,
      "ide": 542,
      "ary": 543,
      "ically": 544,
      "dis": 545,
      "rans": 546,
      "der": 547,
      "fer": 548,
      "ath": 549,
      "act": 550,
      "of": 551,
      "ty": 552,
      "ari": 553,
      "ality": 554,
      "rib": 555,
      "ins": 556,
      "ents": 557,
      "ele": 558,
      "cess": 559,
      "ĠEx": 560,
      "ked": 561,
      "pre": 562,
      "ext": 563,
      "atch": 564,
      "ves": 565,
      "Ġdis": 566,
      "ping": 567,
      "vi": 568,
      "aw": 569,
      "eter": 570,
      "fl": 571,
      "ble": 572,
      "art": 573,
      "yn": 574,
      "ons": 575,
      "tif": 576,
      "ne": 577,
      "ize": 578,
      "ork": 579,
      "En": 580,
      "ular": 581,
      "ĠPro": 582,
      "ial": 583,
      "vel": 584,
      "ys": 585,
      "ific": 586,
      "ings": 587,
      "ore": 588,
      "ech": 589,
      "ke": 590,
      "raph": 591,
      "ets": 592,
      "one": 593,
      "ener": 594,
      "ugh": 595,
      "ice": 596,
      "Re": 597,
      "ound": 598,
      "te": 599,
      "ree": 600,
      "ite": 601,
      "Ġch": 602,
      "ple": 603,
      "ans": 604,
      "Ch": 605,
      "rel": 606,
      "air": 607,
      "oun": 608,
      "ps": 609,
      "pec": 610,
      "ĠRe": 611,
      "stru": 612,
      "we": 613,
      "arm": 614,
      "tain": 615,
      "ions": 616,
      "ue": 617,
      "uff": 618,
      "Ġsh": 619,
      "ction": 620,
      "ying": 621,
      "ire": 622,
      "ered": 623,
      "ious": 624,
      "ities": 625,
      "Based": 626,
      "mar": 627,
      "tically": 628,
      "ross": 629,
      "for": 630,
      "ĠEn": 631,
      "inter": 632,
      "tiv": 633,
      "Multi": 634,
      "ĠMulti": 635,
      "ix": 636,
      "Ġr": 637,
      "ators": 638,
      "ong": 639,
      "ism": 640,
      "oll": 641,
      "ient": 642,
      "ution": 643,
      "plic": 644,
      "ax": 645,
      "old": 646,
      "emb": 647,
      "ning": 648,
      "por": 649,
      "icro": 650,
      "ined": 651,
      "ĠCh": 652,
      "sub": 653,
      "its": 654,
      "com": 655,
      "Ġj": 656,
      "att": 657,
      "izing": 658,
      "cre": 659,
      "ual": 660,
      "ull": 661,
      "Sh": 662,
      "ick": 663,
      "duc": 664,
      "ym": 665,
      "ering": 666,
      "Ġim": 667,
      "af": 668,
      "ures": 669,
      "ged": 670,
      "ile": 671,
      "Ġth": 672,
      "ace": 673,
      "ably": 674,
      "Ġsub": 675,
      "eness": 676,
      "ization": 677,
      "ible": 678,
      "rig": 679,
      "Qu": 680,
      "mo": 681,
      "ised": 682,
      "Dis": 683,
      "ging": 684,
      "ĠSh": 685,
      "app": 686,
      "off": 687,
      "ĠDis": 688,
      "tro": 689,
      "tit": 690,
      "ory": 691,
      "ann": 692,
      "ase": 693,
      "ments": 694,
      "An": 695,
      "inc": 696,
      "ater": 697,
      "ising": 698,
      "ĠU": 699,
      "reg": 700,
      "des": 701,
      "cal": 702,
      "ring": 703,
      "Ġsp": 704,
      "jec": 705,
      "ink": 706,
      "ake": 707,
      "val": 708,
      "Ġres": 709,
      "ĠAn": 710,
      "Ġad": 711,
      "ith": 712,
      "ration": 713,
      "under": 714,
      "ber": 715,
      "mp": 716,
      "mod": 717,
      "cri": 718,
      "ition": 719,
      "read": 720,
      "atic": 721,
      "lect": 722,
      "acc": 723,
      "ood": 724,
      "ement": 725,
      "spec": 726,
      "man": 727,
      "Ġe": 728,
      "ists": 729,
      "ency": 730,
      "du": 731,
      "me": 732,
      "rit": 733,
      "Ġcomp": 734,
      "eng": 735,
      "alized": 736,
      "Ġover": 737,
      "ee": 738,
      "ward": 739,
      "ines": 740,
      "Ġco": 741,
      "aut": 742,
      "ited": 743,
      "ics": 744,
      "ured": 745,
      "ock": 746,
      "ges": 747,
      "ier": 748,
      "ograph": 749,
      "Comp": 750,
      "eat": 751,
      "press": 752,
      "ining": 753,
      "Ad": 754,
      "ond": 755,
      "load": 756,
      "multi": 757,
      "ser": 758,
      "vol": 759,
      "reak": 760,
      "ult": 761,
      "ays": 762,
      "time": 763,
      "ade": 764,
      "pers": 765,
      "Ġpre": 766,
      "serv": 767,
      "med": 768,
      "no": 769,
      "ently": 770,
      "ĠAd": 771,
      "Ġmulti": 772,
      "line": 773,
      "yst": 774,
      "ages": 775,
      "ten": 776,
      "ĠK": 777,
      "izes": 778,
      "log": 779,
      "ously": 780,
      "vis": 781,
      "cur": 782,
      "els": 783,
      "uper": 784,
      "Res": 785,
      "comm": 786,
      "ĠComp": 787,
      "Co": 788,
      "Rec": 789,
      "now": 790,
      "ĠRec": 791,
      "dec": 792,
      "orn": 793,
      "iness": 794,
      "ush": 795,
      "Ġinter": 796,
      "alization": 797,
      "Sp": 798,
      "Th": 799,
      "non": 800,
      "Ġnon": 801,
      "ĠJ": 802,
      "Ġro": 803,
      "ata": 804,
      "anti": 805,
      "ute": 806,
      "lock": 807,
      "oth": 808,
      "ched": 809,
      "ants": 810,
      "ises": 811,
      "ild": 812,
      "lay": 813,
      "Ġsc": 814,
      "rid": 815,
      "umb": 816,
      "ead": 817,
      "gra": 818,
      "ou": 819,
      "ational": 820,
      "urn": 821,
      "ool": 822,
      "Sub": 823,
      "arg": 824,
      "ĠSub": 825,
      "ified": 826,
      "alize": 827,
      "back": 828,
      "pr": 829,
      "ĠRes": 830,
      "mon": 831,
      "org": 832,
      "ream": 833,
      "ars": 834,
      "amp": 835,
      "li": 836,
      "Ġle": 837,
      "cep": 838,
      "rand": 839,
      "alizing": 840,
      "Ar": 841,
      "net": 842,
      "pend": 843,
      "ters": 844,
      "ery": 845,
      "Inter": 846,
      "view": 847,
      "Ġqu": 848,
      "aps": 849,
      "Ac": 850,
      "Non": 851,
      "ia": 852,
      "ĠInter": 853,
      "ĠNon": 854,
      "Ġdec": 855,
      "hor": 856,
      "arch": 857,
      "be": 858,
      "nec": 859,
      "ances": 860,
      "struct": 861,
      "cor": 862,
      "tin": 863,
      "ats": 864,
      "ases": 865,
      "aster": 866,
      "rap": 867,
      "ĠSp": 868,
      "cons": 869,
      "mer": 870,
      "oot": 871,
      "ook": 872,
      "Ġen": 873,
      "ĠAc": 874,
      "bl": 875,
      "text": 876,
      "ues": 877,
      "work": 878,
      "tional": 879,
      "iter": 880,
      "rag": 881,
      "Ġcl": 882,
      "use": 883,
      "Im": 884,
      "dri": 885,
      "equ": 886,
      "yp": 887,
      "process": 888,
      "book": 889,
      "Cl": 890,
      "Ġk": 891,
      "unt": 892,
      "eld": 893,
      "wh": 894,
      "Ġal": 895,
      "eck": 896,
      "uring": 897,
      "ame": 898,
      "tively": 899,
      "dic": 900,
      "plo": 901,
      "test": 902,
      "ref": 903,
      "Ġpar": 904,
      "ĠTh": 905,
      "az": 906,
      "rup": 907,
      "ern": 908,
      "ening": 909,
      "Ġfl": 910,
      "ome": 911,
      "ĠAr": 912,
      "Par": 913,
      "ject": 914,
      "ving": 915,
      "raw": 916,
      "Ġper": 917,
      "ify": 918,
      "ension": 919,
      "down": 920,
      "eed": 921,
      "sl": 922,
      "irc": 923,
      "trac": 924,
      "eas": 925,
      "Ġap": 926,
      "ened": 927,
      "iting": 928,
      "rust": 929,
      "ology": 930,
      "ale": 931,
      "ĠCo": 932,
      "def": 933,
      "oci": 934,
      "cent": 935,
      "vent": 936,
      "Ġop": 937,
      "rain": 938,
      "Dec": 939,
      "ian": 940,
      "ware": 941,
      "yper": 942,
      "itch": 943,
      "elling": 944,
      "sec": 945,
      "oring": 946,
      "ret": 947,
      "Aut": 948,
      "io": 949,
      "pri": 950,
      "ved": 951,
      "Ġac": 952,
      "Ġaut": 953,
      "Ġob": 954,
      "ĠIm": 955,
      "eal": 956,
      "tr": 957,
      "ored": 958,
      "eless": 959,
      "used": 960,
      "ately": 961,
      "tics": 962,
      "atis": 963,
      "Over": 964,
      "Up": 965,
      "sw": 966,
      "rop": 967,
      "urs": 968,
      "Ap": 969,
      "gram": 970,
      "ming": 971,
      "atter": 972,
      "ark": 973,
      "eli": 974,
      "ĠDec": 975,
      "fully": 976,
      "Al": 977,
      "aff": 978,
      "sol": 979,
      "rect": 980,
      "lear": 981,
      "board": 982,
      "Sc": 983,
      "ever": 984,
      "web": 985,
      "Ġout": 986,
      "unction": 987,
      "ulated": 988,
      "ĠCl": 989,
      "iff": 990,
      "hip": 991,
      "ms": 992,
      "play": 993,
      "point": 994,
      "ystem": 995,
      "ĠPar": 996,
      "oss": 997,
      "ky": 998,
      "miss": 999,
      "wor": 1000,
      "Ġan": 1001,
      "ties": 1002,
      "ingly": 1003,
      "ulation": 1004,
      "urb": 1005,
      "ences": 1006,
      "rate": 1007,
      "rip": 1008,
      "ĠAl": 1009,
      "the": 1010,
      "ave": 1011,
      "do": 1012,
      "ĠAut": 1013,
      "ups": 1014,
      "iffer": 1015,
      "ending": 1016,
      "ished": 1017,
      "Pre": 1018,
      "ger": 1019,
      "Ġpl": 1020,
      "ĠOver": 1021,
      "gu": 1022,
      "met": 1023,
      "run": 1024,
      "Ġab": 1025,
      "ĠSc": 1026,
      "los": 1027,
      "ough": 1028,
      "ude": 1029,
      "ract": 1030,
      "stand": 1031,
      "abil": 1032,
      "ĠPre": 1033,
      "ose": 1034,
      "tract": 1035,
      "duct": 1036,
      "fig": 1037,
      "ole": 1038,
      "ict": 1039,
      "round": 1040,
      "ulate": 1041,
      "ural": 1042,
      "ĠAp": 1043,
      "tical": 1044,
      "ump": 1045,
      "elect": 1046,
      "ification": 1047,
      "ere": 1048,
      "ey": 1049,
      "eep": 1050,
      "lic": 1051,
      "put": 1052,
      "yth": 1053,
      "ze": 1054,
      "Ġem": 1055,
      "til": 1056,
      "ented": 1057,
      "omb": 1058,
      "Ġweb": 1059,
      "Per": 1060,
      "Ġra": 1061,
      "ding": 1062,
      "mit": 1063,
      "leg": 1064,
      "ower": 1065,
      "Pl": 1066,
      "fil": 1067,
      "ox": 1068,
      "sid": 1069,
      "Ġrec": 1070,
      "ura": 1071,
      "ones": 1072,
      "alk": 1073,
      "lex": 1074,
      "omin": 1075,
      "uses": 1076,
      "ampl": 1077,
      "cept": 1078,
      "atory": 1079,
      "mb": 1080,
      "oy": 1081,
      "rated": 1082,
      "word": 1083,
      "ĠQu": 1084,
      "ane": 1085,
      "uck": 1086,
      "Ref": 1087,
      "zed": 1088,
      "orient": 1089,
      "ote": 1090,
      "ded": 1091,
      "Ġass": 1092,
      "inn": 1093,
      "asing": 1094,
      "ends": 1095,
      "Fl": 1096,
      "rest": 1097,
      "tt": 1098,
      "ask": 1099,
      "oms": 1100,
      "char": 1101,
      "aking": 1102,
      "ively": 1103,
      "echn": 1104,
      "Op": 1105,
      "Out": 1106,
      "by": 1107,
      "ced": 1108,
      "ĠPer": 1109,
      "ips": 1110,
      "cap": 1111,
      "inst": 1112,
      "ici": 1113,
      "ĠRef": 1114,
      "irst": 1115,
      "ĠFl": 1116,
      "ruct": 1117,
      "ivers": 1118,
      "ivid": 1119,
      "righ": 1120,
      "AI": 1121,
      "Mod": 1122,
      "ites": 1123,
      "ray": 1124,
      "Ġwh": 1125,
      "pass": 1126,
      "sm": 1127,
      "trans": 1128,
      "ually": 1129,
      "way": 1130,
      "ank": 1131,
      "ision": 1132,
      "Ġsl": 1133,
      "ches": 1134,
      "ime": 1135,
      "imension": 1136,
      "umer": 1137,
      "thes": 1138,
      "oper": 1139,
      "key": 1140,
      "organ": 1141,
      "Or": 1142,
      "iew": 1143,
      "Ġup": 1144,
      "let": 1145,
      "level": 1146,
      "omet": 1147,
      "ĠPl": 1148,
      "Ġfor": 1149,
      "ield": 1150,
      "mis": 1151,
      "oid": 1152,
      "Ġar": 1153,
      "ulating": 1154,
      "uted": 1155,
      "rif": 1156,
      "ements": 1157,
      "istrib": 1158,
      "ender": 1159,
      "ense": 1160,
      "ishing": 1161,
      "class": 1162,
      "Rep": 1163,
      "Ġsw": 1164,
      "ĠOp": 1165,
      "Def": 1166,
      "fin": 1167,
      "asc": 1168,
      "chron": 1169,
      "ads": 1170,
      "amb": 1171,
      "ums": 1172,
      "ops": 1173,
      "Ġbl": 1174,
      "Ġint": 1175,
      "ns": 1176,
      "pres": 1177,
      "port": 1178,
      "self": 1179,
      "vari": 1180,
      "Ġdes": 1181,
      "ĠRep": 1182,
      "Po": 1183,
      "bs": 1184,
      "gener": 1185,
      "ior": 1186,
      "ych": 1187,
      "istic": 1188,
      "Ġmis": 1189,
      "akes": 1190,
      "ands": 1191,
      "etermin": 1192,
      "flow": 1193,
      "fact": 1194,
      "sup": 1195,
      "stit": 1196,
      "ared": 1197,
      "empl": 1198,
      "here": 1199,
      "driven": 1200,
      "pol": 1201,
      "aly": 1202,
      "ices": 1203,
      "ils": 1204,
      "Ġcomm": 1205,
      "utter": 1206,
      "dem": 1207,
      "oph": 1208,
      "ifying": 1209,
      "ransp": 1210,
      "cover": 1211,
      "ustom": 1212,
      "ector": 1213,
      "ential": 1214,
      "gor": 1215,
      "ie": 1216,
      "Ġlo": 1217,
      "estim": 1218,
      "arity": 1219,
      "uting": 1220,
      "ĠAI": 1221,
      "resp": 1222,
      "eak": 1223,
      "ily": 1224,
      "ued": 1225,
      "zing": 1226,
      "Ġev": 1227,
      "inf": 1228,
      "ination": 1229,
      "ints": 1230,
      "ries": 1231,
      "agn": 1232,
      "Ġtrans": 1233,
      "ibility": 1234,
      "ource": 1235,
      "ynchron": 1236,
      "tivity": 1237,
      "specific": 1238,
      "Ass": 1239,
      "Ph": 1240,
      "ots": 1241,
      "Ġit": 1242,
      "acy": 1243,
      "quir": 1244,
      "bit": 1245,
      "cy": 1246,
      "col": 1247,
      "itive": 1248,
      "rating": 1249,
      "sur": 1250,
      "abor": 1251,
      "ables": 1252,
      "ili": 1253,
      "usion": 1254,
      "uman": 1255,
      "ended": 1256,
      "alizes": 1257,
      "alised": 1258,
      "nowled": 1259,
      "Trans": 1260,
      "Ġph": 1261,
      "Ġreg": 1262,
      "code": 1263,
      "'t": 1264,
      "Dep": 1265,
      "Ob": 1266,
      "eh": 1267,
      "gl": 1268,
      "ren": 1269,
      "sk": 1270,
      "tig": 1271,
      "lec": 1272,
      "rom": 1273,
      "Ġref": 1274,
      "ifies": 1275,
      "order": 1276,
      "alism": 1277,
      "ological": 1278,
      "Self": 1279,
      "Tra": 1280,
      "rum": 1281,
      "top": 1282,
      "aces": 1283,
      "ĠSelf": 1284,
      "Bl": 1285,
      "High": 1286,
      "aus": 1287,
      "cod": 1288,
      "ror": 1289,
      "sing": 1290,
      "educ": 1291,
      "ene": 1292,
      "reat": 1293,
      "olution": 1294,
      "user": 1295,
      "Int": 1296,
      "Ġmin": 1297,
      "connec": 1298,
      "coun": 1299,
      "box": 1300,
      "Reg": 1301,
      "ai": 1302,
      "aun": 1303,
      "augh": 1304,
      "eam": 1305,
      "ld": 1306,
      "ests": 1307,
      "rem": 1308,
      "rew": 1309,
      "ching": 1310,
      "ĠTrans": 1311,
      "Ġtra": 1312,
      "For": 1313,
      "fit": 1314,
      "voc": 1315,
      "arn": 1316,
      "itation": 1317,
      "ulates": 1318,
      "acter": 1319,
      "chang": 1320,
      "ameter": 1321,
      "agon": 1322,
      "isting": 1323,
      "ĠBl": 1324,
      "ains": 1325,
      "resh": 1326,
      "ĠHigh": 1327,
      "acks": 1328,
      "ĠOut": 1329,
      "alls": 1330,
      "atively": 1331,
      "tific": 1332,
      "cer": 1333,
      "free": 1334,
      "oul": 1335,
      "overs": 1336,
      "pon": 1337,
      "pag": 1338,
      "prec": 1339,
      "alle": 1340,
      "requ": 1341,
      "raf": 1342,
      "ection": 1343,
      "chem": 1344,
      "ĠAss": 1345,
      "ards": 1346,
      "ours": 1347,
      "aim": 1348,
      "aling": 1349,
      "atur": 1350,
      "road": 1351,
      "unn": 1352,
      "eler": 1353,
      "eling": 1354,
      "iles": 1355,
      "illing": 1356,
      "izer": 1357,
      "ĠDef": 1358,
      "ives": 1359,
      "iber": 1360,
      "encies": 1361,
      "ishes": 1362,
      "ills": 1363,
      "alising": 1364,
      "flu": 1365,
      "bal": 1366,
      "light": 1367,
      "yl": 1368,
      "Ġred": 1369,
      "Ġunder": 1370,
      "Ġself": 1371,
      "ĠReg": 1372,
      "Ġmod": 1373,
      "que": 1374,
      "related": 1375,
      "Comm": 1376,
      "bu": 1377,
      "gress": 1378,
      "ience": 1379,
      "uous": 1380,
      "Ġent": 1381,
      "asting": 1382,
      "iled": 1383,
      "eth": 1384,
      "ows": 1385,
      "ransc": 1386,
      "ĠInt": 1387,
      "eful": 1388,
      "angu": 1389,
      "alise": 1390,
      "oft": 1391,
      "imensional": 1392,
      "day": 1393,
      "fram": 1394,
      "get": 1395,
      "hand": 1396,
      "rut": 1397,
      "Ġam": 1398,
      "aring": 1399,
      "ided": 1400,
      "ther": 1401,
      "ĠMod": 1402,
      "Spec": 1403,
      "eff": 1404,
      "go": 1405,
      "hib": 1406,
      "itions": 1407,
      "tri": 1408,
      "uit": 1409,
      "ways": 1410,
      "zer": 1411,
      "Ġy": 1412,
      "roup": 1413,
      "stra": 1414,
      "elled": 1415,
      "utes": 1416,
      "using": 1417,
      "riend": 1418,
      "ĠDep": 1419,
      "ids": 1420,
      "ogn": 1421,
      "produc": 1422,
      "iving": 1423,
      "ĠOb": 1424,
      "antly": 1425,
      "evel": 1426,
      "velop": 1427,
      "plement": 1428,
      "iously": 1429,
      "Dri": 1430,
      "On": 1431,
      "break": 1432,
      "fac": 1433,
      "ris": 1434,
      "alog": 1435,
      "rough": 1436,
      "unic": 1437,
      "loud": 1438,
      "ĠPh": 1439,
      "aging": 1440,
      "trol": 1441,
      "Rel": 1442,
      "Wh": 1443,
      "high": 1444,
      "lin": 1445,
      "Ġacc": 1446,
      "Ġcol": 1447,
      "Ġpo": 1448,
      "depend": 1449,
      "iment": 1450,
      "epar": 1451,
      "ived": 1452,
      "ĠWh": 1453,
      "uster": 1454,
      "igned": 1455,
      "ails": 1456,
      "dition": 1457,
      "Cross": 1458,
      "eigh": 1459,
      "set": 1460,
      "alf": 1461,
      "ĠCross": 1462,
      "emp": 1463,
      "aged": 1464,
      "plain": 1465,
      "ĠTra": 1466,
      "Ġai": 1467,
      "crimin": 1468,
      "other": 1469,
      "Di": 1470,
      "Man": 1471,
      "Off": 1472,
      "cing": 1473,
      "den": 1474,
      "dle": 1475,
      "list": 1476,
      "uro": 1477,
      "well": 1478,
      "zation": 1479,
      "icient": 1480,
      "uls": 1481,
      "ibly": 1482,
      "atching": 1483,
      "ces": 1484,
      "fess": 1485,
      "ik": 1486,
      "micro": 1487,
      "allow": 1488,
      "roll": 1489,
      "iling": 1490,
      "dev": 1491,
      "Ġmicro": 1492,
      "Ġins": 1493,
      "ĠOr": 1494,
      "cript": 1495,
      "Cor": 1496,
      "Col": 1497,
      "Sl": 1498,
      "jo": 1499,
      "tw": 1500,
      "tes": 1501,
      "ype": 1502,
      "Ġag": 1503,
      "inform": 1504,
      "aries": 1505,
      "une": 1506,
      "ĠComm": 1507,
      "dex": 1508,
      "Ġdi": 1509,
      "impl": 1510,
      "apt": 1511,
      "irt": 1512,
      "Ġind": 1513,
      "Ġinf": 1514,
      "ĠFor": 1515,
      "Ġhigh": 1516,
      "ugg": 1517,
      "ava": 1518,
      "udes": 1519,
      "sequ": 1520,
      "anced": 1521,
      "ashing": 1522,
      "echan": 1523,
      "mark": 1524,
      "plication": 1525,
      "oriented": 1526,
      "Rev": 1527,
      "oes": 1528,
      "rates": 1529,
      "writ": 1530,
      "oler": 1531,
      "ires": 1532,
      "pose": 1533,
      "PT": 1534,
      "atically": 1535,
      "bol": 1536,
      "cle": 1537,
      "ium": 1538,
      "sum": 1539,
      "sych": 1540,
      "uch": 1541,
      "onic": 1542,
      "atri": 1543,
      "reed": 1544,
      "eled": 1545,
      "ilt": 1546,
      "Ġcor": 1547,
      "Ġcom": 1548,
      "Ġsk": 1549,
      "ollow": 1550,
      "ĠSl": 1551,
      "tern": 1552,
      "ĠDi": 1553,
      "ides": 1554,
      "Ġmon": 1555,
      "ublic": 1556,
      "ctu": 1557,
      "ears": 1558,
      "rypt": 1559,
      "ront": 1560,
      "rows": 1561,
      "right": 1562,
      "eer": 1563,
      "ov": 1564,
      "py": 1565,
      "ras": 1566,
      "ĠY": 1567,
      "abl": 1568,
      "rim": 1569,
      "ider": 1570,
      "ody": 1571,
      "Ġdef": 1572,
      "Mis": 1573,
      "au": 1574,
      "hood": 1575,
      "tle": 1576,
      "ule": 1577,
      "zes": 1578,
      "ung": 1579,
      "Ġsm": 1580,
      "Ġsur": 1581,
      "erson": 1582,
      "ĠCol": 1583,
      "ceed": 1584,
      "ument": 1585,
      "ĠMis": 1586,
      "Ġrel": 1587,
      "oted": 1588,
      "aves": 1589,
      "earch": 1590,
      "bound": 1591,
      "aches": 1592,
      "pret": 1593,
      "struc": 1594,
      "struction": 1595,
      "irect": 1596,
      "ength": 1597,
      "volution": 1598,
      "Micro": 1599,
      "iers": 1600,
      "js": 1601,
      "sn": 1602,
      "side": 1603,
      "Ġel": 1604,
      "rep": 1605,
      "unc": 1606,
      "ĠPo": 1607,
      "ĠMicro": 1608,
      "oting": 1609,
      "prov": 1610,
      "oke": 1611,
      "head": 1612,
      "Ag": 1613,
      "mor": 1614,
      "ode": 1615,
      "vity": 1616,
      "erc": 1617,
      "erg": 1618,
      "onym": 1619,
      "tible": 1620,
      "ingle": 1621,
      "uns": 1622,
      "step": 1623,
      "ected": 1624,
      "elt": 1625,
      "tered": 1626,
      "imp": 1627,
      "ticip": 1628,
      "istor": 1629,
      "rant": 1630,
      "prox": 1631,
      "earing": 1632,
      "oken": 1633,
      "ologically": 1634,
      "ography": 1635,
      "anguage": 1636,
      "Text": 1637,
      "iable": 1638,
      "oom": 1639,
      "ypo": 1640,
      "Ġund": 1641,
      "ather": 1642,
      "reh": 1643,
      "arb": 1644,
      "Ġsn": 1645,
      "Ġsup": 1646,
      "Ġspec": 1647,
      "ĠRev": 1648,
      "posed": 1649,
      "position": 1650,
      "verse": 1651,
      "'d": 1652,
      "Gra": 1653,
      "Sk": 1654,
      "To": 1655,
      "cas": 1656,
      "ira": 1657,
      "ls": 1658,
      "mind": 1659,
      "oub": 1660,
      "ql": 1661,
      "war": 1662,
      "Ġatt": 1663,
      "reas": 1664,
      "ulations": 1665,
      "ĠSk": 1666,
      "ĠRel": 1667,
      "apping": 1668,
      "ident": 1669,
      "ples": 1670,
      "plac": 1671,
      "ired": 1672,
      "otes": 1673,
      "forming": 1674,
      "ashes": 1675,
      "tify": 1676,
      "keep": 1677,
      "axim": 1678,
      "ought": 1679,
      "Net": 1680,
      "Sw": 1681,
      "bi": 1682,
      "dig": 1683,
      "long": 1684,
      "sym": 1685,
      "enet": 1686,
      "ĠSw": 1687,
      "iding": 1688,
      "thread": 1689,
      "ested": 1690,
      "part": 1691,
      "At": 1692,
      "Min": 1693,
      "bing": 1694,
      "cat": 1695,
      "clos": 1696,
      "ds": 1697,
      "det": 1698,
      "host": 1699,
      "mers": 1700,
      "oad": 1701,
      "pet": 1702,
      "pens": 1703,
      "rush": 1704,
      "only": 1705,
      "onom": 1706,
      "tice": 1707,
      "ores": 1708,
      "itor": 1709,
      "entr": 1710,
      "olic": 1711,
      "eting": 1712,
      "uter": 1713,
      "uss": 1714,
      "lob": 1715,
      "tering": 1716,
      "emi": 1717,
      "imil": 1718,
      "ĠMin": 1719,
      "ope": 1720,
      "ife": 1721,
      "cont": 1722,
      "Ġgra": 1723,
      "enced": 1724,
      "claim": 1725,
      "aching": 1726,
      "ancy": 1727,
      "lessly": 1728,
      "entif": 1729,
      "ashed": 1730,
      "atched": 1731,
      "ynam": 1732,
      "ĠUp": 1733,
      "ouch": 1734,
      "Des": 1735,
      "Imp": 1736,
      "Time": 1737,
      "found": 1738,
      "hes": 1739,
      "ux": 1740,
      "uz": 1741,
      "inv": 1742,
      "itting": 1743,
      "unk": 1744,
      "ĠCor": 1745,
      "amed": 1746,
      "emin": 1747,
      "plan": 1748,
      "Ġback": 1749,
      "count": 1750,
      "ĠImp": 1751,
      "rack": 1752,
      "curr": 1753,
      "Ab": 1754,
      "Dem": 1755,
      "Sup": 1756,
      "cross": 1757,
      "eti": 1758,
      "lab": 1759,
      "ned": 1760,
      "path": 1761,
      "uing": 1762,
      "wise": 1763,
      "Ġir": 1764,
      "ont": 1765,
      "tives": 1766,
      "ention": 1767,
      "omes": 1768,
      "Ġcross": 1769,
      "loss": 1770,
      "ames": 1771,
      "ĠAb": 1772,
      "ĠAg": 1773,
      "ategor": 1774,
      "ott": 1775,
      "range": 1776,
      "ouse": 1777,
      "iveness": 1778,
      "Ġgl": 1779,
      "acking": 1780,
      "clus": 1781,
      "rection": 1782,
      "arily": 1783,
      "afe": 1784,
      "nov": 1785,
      "ception": 1786,
      "ifferenti": 1787,
      "Mon": 1788,
      "Ret": 1789,
      "Rem": 1790,
      "cup": 1791,
      "dist": 1792,
      "rink": 1793,
      "tot": 1794,
      "ales": 1795,
      "ature": 1796,
      "rog": 1797,
      "enter": 1798,
      "aby": 1799,
      "Inf": 1800,
      "ĠRet": 1801,
      "ĠRem": 1802,
      "ĠDes": 1803,
      "apit": 1804,
      "Ġman": 1805,
      "osition": 1806,
      "contin": 1807,
      "config": 1808,
      "ights": 1809,
      "oking": 1810,
      "peed": 1811,
      "NN": 1812,
      "Sur": 1813,
      "aul": 1814,
      "coll": 1815,
      "ean": 1816,
      "gle": 1817,
      "lar": 1818,
      "mut": 1819,
      "uation": 1820,
      "utions": 1821,
      "yber": 1822,
      "Ġer": 1823,
      "estion": 1824,
      "tis": 1825,
      "leep": 1826,
      "itable": 1827,
      "room": 1828,
      "roph": 1829,
      "lying": 1830,
      "ecting": 1831,
      "activ": 1832,
      "ĠSur": 1833,
      "Ġpri": 1834,
      "ament": 1835,
      "ager": 1836,
      "imin": 1837,
      "ĠDem": 1838,
      "ĠMan": 1839,
      "ird": 1840,
      "esting": 1841,
      "otor": 1842,
      "acked": 1843,
      "uccess": 1844,
      "aving": 1845,
      "oked": 1846,
      "ordin": 1847,
      "alises": 1848,
      "ached": 1849,
      "ancing": 1850,
      "actor": 1851,
      "arian": 1852,
      "atches": 1853,
      "tified": 1854,
      "ixed": 1855,
      "engine": 1856,
      "vision": 1857,
      "ython": 1858,
      "Data": 1859,
      "Sm": 1860,
      "een": 1861,
      "function": 1862,
      "gr": 1863,
      "ler": 1864,
      "rin": 1865,
      "ral": 1866,
      "Ġoff": 1867,
      "initi": 1868,
      "ench": 1869,
      "alling": 1870,
      "alled": 1871,
      "ĠSm": 1872,
      "uts": 1873,
      "riev": 1874,
      "lot": 1875,
      "Ġdown": 1876,
      "Ġrep": 1877,
      "oses": 1878,
      "isted": 1879,
      "conf": 1880,
      "Under": 1881,
      "asses": 1882,
      "ĠInf": 1883,
      "ĠUnder": 1884,
      "Driven": 1885,
      "Form": 1886,
      "Gener": 1887,
      "One": 1888,
      "dat": 1889,
      "del": 1890,
      "fort": 1891,
      "just": 1892,
      "mic": 1893,
      "map": 1894,
      "pi": 1895,
      "pred": 1896,
      "Ġas": 1897,
      "onal": 1898,
      "entic": 1899,
      "stream": 1900,
      "urity": 1901,
      "chain": 1902,
      "check": 1903,
      "termin": 1904,
      "amet": 1905,
      "emory": 1906,
      "Ġdel": 1907,
      "ĠAt": 1908,
      "opy": 1909,
      "owered": 1910,
      "aint": 1911,
      "mented": 1912,
      "ival": 1913,
      "scrib": 1914,
      "Ġcont": 1915,
      "inding": 1916,
      "ailing": 1917,
      "veness": 1918,
      "Ġequ": 1919,
      "like": 1920,
      "Com": 1921,
      "eet": 1922,
      "ios": 1923,
      "iance": 1924,
      "oct": 1925,
      "table": 1926,
      "Ġor": 1927,
      "arri": 1928,
      "rol": 1929,
      "stall": 1930,
      "urr": 1931,
      "Ġpres": 1932,
      "Ġdist": 1933,
      "exper": 1934,
      "ĠMon": 1935,
      "Ġtw": 1936,
      "ipped": 1937,
      "outs": 1938,
      "Ġaff": 1939,
      "airs": 1940,
      "service": 1941,
      "Auto": 1942,
      "ĠAuto": 1943,
      "proxim": 1944,
      "'ll": 1945,
      "32": 1946,
      "Am": 1947,
      "Back": 1948,
      "ders": 1949,
      "dimensional": 1950,
      "gn": 1951,
      "graph": 1952,
      "ians": 1953,
      "ma": 1954,
      "ove": 1955,
      "oice": 1956,
      "super": 1957,
      "Ġenc": 1958,
      "Ġemb": 1959,
      "Ġapp": 1960,
      "alc": 1961,
      "aled": 1962,
      "ither": 1963,
      "ects": 1964,
      "illed": 1965,
      "ĠSup": 1966,
      "ety": 1967,
      "ĠAm": 1968,
      "very": 1969,
      "Ġform": 1970,
      "assemb": 1971,
      "inear": 1972,
      "aved": 1973,
      "ĠGra": 1974,
      "encing": 1975,
      "udio": 1976,
      "forms": 1977,
      "rick": 1978,
      "ologist": 1979,
      "Ġrest": 1980,
      "Acc": 1981,
      "ploy": 1982,
      "learning": 1983,
      "nowledge": 1984,
      "Web": 1985,
      "aid": 1986,
      "gan": 1987,
      "ycl": 1988,
      "Ġat": 1989,
      "ony": 1990,
      "isu": 1991,
      "ster": 1992,
      "ĠCom": 1993,
      "ading": 1994,
      "place": 1995,
      "mental": 1996,
      "Ġge": 1997,
      "ĠWeb": 1998,
      "scale": 1999,
      "ressed": 2000,
      "cale": 2001,
      "eek": 2002,
      "'ve": 2003,
      "64": 2004,
      "El": 2005,
      "Ge": 2006,
      "Ter": 2007,
      "bed": 2008,
      "greg": 2009,
      "ias": 2010,
      "itim": 2011,
      "not": 2012,
      "pect": 2013,
      "rast": 2014,
      "system": 2015,
      "lection": 2016,
      "Ġcoll": 2017,
      "Ġsuper": 2018,
      "ĠSpec": 2019,
      "loy": 2020,
      "ades": 2021,
      "emor": 2022,
      "Ġdet": 2023,
      "vert": 2024,
      "apor": 2025,
      "tick": 2026,
      "thy": 2027,
      "exu": 2028,
      "opular": 2029,
      "osp": 2030,
      "ĠBack": 2031,
      "Ġwell": 2032,
      "ruc": 2033,
      "ĠGe": 2034,
      "fulness": 2035,
      "alistic": 2036,
      "achine": 2037,
      "rong": 2038,
      "ailed": 2039,
      "direct": 2040,
      "aws": 2041,
      "ynthes": 2042,
      "End": 2043,
      "weet": 2044,
      "compl": 2045,
      "troll": 2046,
      "ometric": 2047,
      "Down": 2048,
      "ball": 2049,
      "data": 2050,
      "eight": 2051,
      "gy": 2052,
      "gen": 2053,
      "hed": 2054,
      "oon": 2055,
      "uration": 2056,
      "vit": 2057,
      "reen": 2058,
      "lean": 2059,
      "asted": 2060,
      "aming": 2061,
      "iring": 2062,
      "aining": 2063,
      "ipping": 2064,
      "Ġconf": 2065,
      "plex": 2066,
      "ounter": 2067,
      "valid": 2068,
      "Ġleg": 2069,
      "processing": 2070,
      "books": 2071,
      "mission": 2072,
      "Lear": 2073,
      "Level": 2074,
      "dom": 2075,
      "face": 2076,
      "friend": 2077,
      "gers": 2078,
      "iest": 2079,
      "ially": 2080,
      "tun": 2081,
      "vant": 2082,
      "oned": 2083,
      "isation": 2084,
      "ective": 2085,
      "chool": 2086,
      "ams": 2087,
      "agement": 2088,
      "Ġdat": 2089,
      "apped": 2090,
      "Ġmet": 2091,
      "umps": 2092,
      "optim": 2093,
      "odes": 2094,
      "ubl": 2095,
      "owed": 2096,
      "ĠEl": 2097,
      "program": 2098,
      "Ġwork": 2099,
      "ensor": 2100,
      "ĠOn": 2101,
      "Ġno": 2102,
      "avor": 2103,
      "ego": 2104,
      "angle": 2105,
      "ells": 2106,
      "ords": 2107,
      "atives": 2108,
      "ache": 2109,
      "tifying": 2110,
      "tainer": 2111,
      "jective": 2112,
      "ographic": 2113,
      "eature": 2114,
      "beh": 2115,
      "ĠAcc": 2116,
      "Low": 2117,
      "bar": 2118,
      "flo": 2119,
      "lines": 2120,
      "sign": 2121,
      "tre": 2122,
      "uild": 2123,
      "wind": 2124,
      "Ġu": 2125,
      "inking": 2126,
      "orph": 2127,
      "olar": 2128,
      "etting": 2129,
      "develop": 2130,
      "appro": 2131,
      "osed": 2132,
      "Ġtop": 2133,
      "ĠLow": 2134,
      "ship": 2135,
      "ressing": 2136,
      "points": 2137,
      "comple": 2138,
      "forward": 2139,
      "ported": 2140,
      "++": 2141,
      "Equ": 2142,
      "Pri": 2143,
      "Red": 2144,
      "Tw": 2145,
      "The": 2146,
      "bor": 2147,
      "diss": 2148,
      "iev": 2149,
      "kn": 2150,
      "land": 2151,
      "pur": 2152,
      "sens": 2153,
      "tree": 2154,
      "vir": 2155,
      "ĠZ": 2156,
      "ert": 2157,
      "alist": 2158,
      "oriti": 2159,
      "roid": 2160,
      "ules": 2161,
      "ultic": 2162,
      "action": 2163,
      "acts": 2164,
      "abled": 2165,
      "ilit": 2166,
      "izers": 2167,
      "izations": 2168,
      "ĠPri": 2169,
      "agram": 2170,
      "Ġdiss": 2171,
      "ummar": 2172,
      "exist": 2173,
      "oping": 2174,
      "irm": 2175,
      "ĠTw": 2176,
      "ĠEqu": 2177,
      "Ġinv": 2178,
      "ĠOff": 2179,
      "uded": 2180,
      "ellig": 2181,
      "ourn": 2182,
      "illion": 2183,
      "rying": 2184,
      "post": 2185,
      "Ġdem": 2186,
      "entially": 2187,
      "racy": 2188,
      "vestig": 2189,
      "ount": 2190,
      "tains": 2191,
      "portion": 2192,
      "ulls": 2193,
      "design": 2194,
      "autom": 2195,
      "ocker": 2196,
      "pression": 2197,
      "linear": 2198,
      "rupt": 2199,
      "words": 2200,
      "ividu": 2201,
      "All": 2202,
      "LL": 2203,
      "Lo": 2204,
      "Loc": 2205,
      "Met": 2206,
      "Top": 2207,
      "hol": 2208,
      "ml": 2209,
      "mas": 2210,
      "pic": 2211,
      "sess": 2212,
      "squ": 2213,
      "Ġloc": 2214,
      "inning": 2215,
      "orts": 2216,
      "arp": 2217,
      "aracter": 2218,
      "Ġcur": 2219,
      "Ġsym": 2220,
      "ample": 2221,
      "ĠMet": 2222,
      "ĠText": 2223,
      "oding": 2224,
      "control": 2225,
      "prot": 2226,
      "aked": 2227,
      "resent": 2228,
      "aths": 2229,
      "ifications": 2230,
      "ounds": 2231,
      "weight": 2232,
      "author": 2233,
      "respond": 2234,
      "Att": 2235,
      "Bo": 2236,
      "Coll": 2237,
      "Dist": 2238,
      "GPT": 2239,
      "No": 2240,
      "Super": 2241,
      "Wor": 2242,
      "ault": 2243,
      "dens": 2244,
      "ials": 2245,
      "lig": 2246,
      "liter": 2247,
      "so": 2248,
      "yle": 2249,
      "Ġon": 2250,
      "Ġav": 2251,
      "atform": 2252,
      "istically": 2253,
      "storm": 2254,
      "stanti": 2255,
      "ĠSuper": 2256,
      "ĠColl": 2257,
      "usiness": 2258,
      "deb": 2259,
      "term": 2260,
      "ems": 2261,
      "ematic": 2262,
      "ĠRed": 2263,
      "ĠDist": 2264,
      "aph": 2265,
      "aper": 2266,
      "umin": 2267,
      "opol": 2268,
      "ĠTer": 2269,
      "ift": 2270,
      "ifier": 2271,
      "query": 2272,
      "oder": 2273,
      "ĠForm": 2274,
      "Ġgu": 2275,
      "Ġgener": 2276,
      "antas": 2277,
      "ework": 2278,
      "Ġcons": 2279,
      "eart": 2280,
      "uding": 2281,
      "ĠNo": 2282,
      "Cont": 2283,
      "ĠCont": 2284,
      "alisation": 2285,
      "loaded": 2286,
      "medi": 2287,
      "tification": 2288,
      "atrix": 2289,
      "uzz": 2290,
      "Det": 2291,
      "Free": 2292,
      "Hand": 2293,
      "Rest": 2294,
      "Serv": 2295,
      "Val": 2296,
      "Work": 2297,
      "aug": 2298,
      "can": 2299,
      "case": 2300,
      "eor": 2301,
      "gru": 2302,
      "iqu": 2303,
      "mig": 2304,
      "norm": 2305,
      "Ġo": 2306,
      "erb": 2307,
      "ital": 2308,
      "start": 2309,
      "empt": 2310,
      "ĠRest": 2311,
      "idity": 2312,
      "Ġmo": 2313,
      "Ġmed": 2314,
      "ume": 2315,
      "proc": 2316,
      "Ġhand": 2317,
      "ained": 2318,
      "Ġne": 2319,
      "full": 2320,
      "regular": 2321,
      "Gu": 2322,
      "Hyper": 2323,
      "IP": 2324,
      "Med": 2325,
      "Pass": 2326,
      "Well": 2327,
      "aver": 2328,
      "crib": 2329,
      "core": 2330,
      "foc": 2331,
      "gg": 2332,
      "ike": 2333,
      "lass": 2334,
      "new": 2335,
      "och": 2336,
      "tech": 2337,
      "turn": 2338,
      "Ġver": 2339,
      "oning": 2340,
      "orch": 2341,
      "ories": 2342,
      "arant": 2343,
      "ister": 2344,
      "ulator": 2345,
      "econd": 2346,
      "ationally": 2347,
      "eted": 2348,
      "ether": 2349,
      "utr": 2350,
      "Ġpred": 2351,
      "vex": 2352,
      "oped": 2353,
      "osc": 2354,
      "rang": 2355,
      "rants": 2356,
      "enders": 2357,
      "prove": 2358,
      "ighting": 2359,
      "ĠHyper": 2360,
      "orship": 2361,
      "Ġgo": 2362,
      "ugging": 2363,
      "ĠWell": 2364,
      "scal": 2365,
      "ĠGener": 2366,
      "times": 2367,
      "ryp": 2368,
      "integ": 2369,
      "pool": 2370,
      "lessness": 2371,
      "ologies": 2372,
      "ologists": 2373,
      "parameter": 2374,
      "rowd": 2375,
      "armed": 2376,
      "tained": 2377,
      "Ġimp": 2378,
      "random": 2379,
      "ircum": 2380,
      "ampling": 2381,
      "present": 2382,
      "ypothes": 2383,
      "Aff": 2384,
      "Dev": 2385,
      "Ev": 2386,
      "Long": 2387,
      "Ne": 2388,
      "OS": 2389,
      "ees": 2390,
      "fall": 2391,
      "file": 2392,
      "made": 2393,
      "rite": 2394,
      "spl": 2395,
      "suff": 2396,
      "Ġz": 2397,
      "Ġoc": 2398,
      "Ġall": 2399,
      "Ġann": 2400,
      "Ġlog": 2401,
      "itter": 2402,
      "rooms": 2403,
      "utable": 2404,
      "adi": 2405,
      "ĠAff": 2406,
      "ĠDet": 2407,
      "ĠDown": 2408,
      "ĠData": 2409,
      "umm": 2410,
      "through": 2411,
      "pled": 2412,
      "open": 2413,
      "Ġfin": 2414,
      "osing": 2415,
      "ĠEv": 2416,
      "shot": 2417,
      "resses": 2418,
      "Ġdev": 2419,
      "raction": 2420,
      "value": 2421,
      "wards": 2422,
      "layer": 2423,
      "Class": 2424,
      "raft": 2425,
      "dependent": 2426,
      "16": 2427,
      "PU": 2428,
      "aith": 2429,
      "ause": 2430,
      "bot": 2431,
      "cell": 2432,
      "cern": 2433,
      "draw": 2434,
      "fe": 2435,
      "human": 2436,
      "hentic": 2437,
      "language": 2438,
      "mpt": 2439,
      "oo": 2440,
      "techn": 2441,
      "inting": 2442,
      "eration": 2443,
      "eries": 2444,
      "enef": 2445,
      "orted": 2446,
      "arc": 2447,
      "itect": 2448,
      "icon": 2449,
      "roc": 2450,
      "ros": 2451,
      "ulators": 2452,
      "eline": 2453,
      "acing": 2454,
      "Ġsol": 2455,
      "ury": 2456,
      "etch": 2457,
      "ritic": 2458,
      "Ġpost": 2459,
      "izable": 2460,
      "add": 2461,
      "adic": 2462,
      "ĠAtt": 2463,
      "plor": 2464,
      "Ġfull": 2465,
      "oded": 2466,
      "Ġtext": 2467,
      "ocument": 2468,
      "propag": 2469,
      "ĠOne": 2470,
      "coura": 2471,
      "ugs": 2472,
      "avig": 2473,
      "avour": 2474,
      "Cons": 2475,
      "ĠCons": 2476,
      "reci": 2477,
      "rectional": 2478,
      "aste": 2479,
      "alists": 2480,
      "rowser": 2481,
      "ounded": 2482,
      "answ": 2483,
      "arming": 2484,
      "olds": 2485,
      "ports": 2486,
      "jection": 2487,
      "loading": 2488,
      "person": 2489,
      "atisf": 2490,
      "eliev": 2491,
      "metric": 2492,
      "istribution": 2493,
      "oftware": 2494,
      "egoti": 2495,
      "Eff": 2496,
      "Key": 2497,
      "Post": 2498,
      "Sol": 2499,
      "Squ": 2500,
      "dd": 2501,
      "pan": 2502,
      "pace": 2503,
      "rer": 2504,
      "rub": 2505,
      "rass": 2506,
      "ĠQ": 2507,
      "Ġter": 2508,
      "Ġast": 2509,
      "Ġlow": 2510,
      "Ġarch": 2511,
      "Ġelect": 2512,
      "ester": 2513,
      "atable": 2514,
      "orrow": 2515,
      "ares": 2516,
      "itted": 2517,
      "rable": 2518,
      "stage": 2519,
      "ecess": 2520,
      "acted": 2521,
      "acting": 2522,
      "Ġche": 2523,
      "Ġsign": 2524,
      "urt": 2525,
      "amm": 2526,
      "ĠPost": 2527,
      "ĠTop": 2528,
      "conven": 2529,
      "aying": 2530,
      "enses": 2531,
      "ensive": 2532,
      "ĠHand": 2533,
      "spect": 2534,
      "ĠLL": 2535,
      "ĠLo": 2536,
      "ĠLoc": 2537,
      "ĠLong": 2538,
      "ĠWork": 2539,
      "ĠNe": 2540,
      "inds": 2541,
      "inder": 2542,
      "minist": 2543,
      "posing": 2544,
      "version": 2545,
      "force": 2546,
      "lected": 2547,
      "Point": 2548,
      "factor": 2549,
      "change": 2550,
      "Emb": 2551,
      "Mo": 2552,
      "Ro": 2553,
      "born": 2554,
      "ci": 2555,
      "care": 2556,
      "eap": 2557,
      "first": 2558,
      "ground": 2559,
      "lers": 2560,
      "ner": 2561,
      "oing": 2562,
      "power": 2563,
      "stim": 2564,
      "uated": 2565,
      "Ġi": 2566,
      "Ġid": 2567,
      "Ġend": 2568,
      "Ġanti": 2569,
      "inted": 2570,
      "onder": 2571,
      "till": 2572,
      "enn": 2573,
      "alloc": 2574,
      "alys": 2575,
      "arter": 2576,
      "itated": 2577,
      "asts": 2578,
      "astic": 2579,
      "unct": 2580,
      "str": 2581,
      "iler": 2582,
      "utt": 2583,
      "utor": 2584,
      "aded": 2585,
      "Inst": 2586,
      "agne": 2587,
      "agger": 2588,
      "ĠRo": 2589,
      "plied": 2590,
      "ĠMed": 2591,
      "irl": 2592,
      "owing": 2593,
      "Ġinst": 2594,
      "ocra": 2595,
      "ogle": 2596,
      "mentation": 2597,
      "aker": 2598,
      "ruit": 2599,
      "ivity": 2600,
      "ĠGu": 2601,
      "Conf": 2602,
      "obile": 2603,
      "ĠConf": 2604,
      "ference": 2605,
      "awn": 2606,
      "taining": 2607,
      "ĠEnd": 2608,
      "duction": 2609,
      "anned": 2610,
      "ithm": 2611,
      "crip": 2612,
      "loads": 2613,
      "Arch": 2614,
      "ypes": 2615,
      "ructure": 2616,
      "istingu": 2617,
      "allel": 2618,
      "Specific": 2619,
      "fession": 2620,
      "written": 2621,
      "Book": 2622,
      "Elect": 2623,
      "Fin": 2624,
      "Full": 2625,
      "Gl": 2626,
      "PS": 2627,
      "Pres": 2628,
      "Prec": 2629,
      "Tun": 2630,
      "aj": 2631,
      "bet": 2632,
      "block": 2633,
      "cut": 2634,
      "cuss": 2635,
      "dest": 2636,
      "determin": 2637,
      "pu": 2638,
      "sour": 2639,
      "tru": 2640,
      "Ġkey": 2641,
      "inct": 2642,
      "index": 2643,
      "eri": 2644,
      "erver": 2645,
      "tition": 2646,
      "alities": 2647,
      "isc": 2648,
      "asp": 2649,
      "rations": 2650,
      "ental": 2651,
      "erse": 2652,
      "oles": 2653,
      "ĠSol": 2654,
      "Ġpass": 2655,
      "ader": 2656,
      "amer": 2657,
      "Inv": 2658,
      "ĠAll": 2659,
      "Ġmar": 2660,
      "umes": 2661,
      "umble": 2662,
      "exam": 2663,
      "Ġrem": 2664,
      "ods": 2665,
      "Ġbe": 2666,
      "Ġtri": 2667,
      "ĠFin": 2668,
      "ĠFull": 2669,
      "aken": 2670,
      "andard": 2671,
      "rud": 2672,
      "arding": 2673,
      "phones": 2674,
      "Ġuns": 2675,
      "training": 2676,
      "ĠGl": 2677,
      "igning": 2678,
      "poses": 2679,
      "typ": 2680,
      "ularity": 2681,
      "ounding": 2682,
      "comb": 2683,
      "coming": 2684,
      "defined": 2685,
      "standing": 2686,
      "urable": 2687,
      "Open": 2688,
      "ĠOpen": 2689,
      "ehav": 2690,
      "ould": 2691,
      "Be": 2692,
      "First": 2693,
      "Oc": 2694,
      "QL": 2695,
      "aud": 2696,
      "bility": 2697,
      "clo": 2698,
      "date": 2699,
      "fast": 2700,
      "fire": 2701,
      "field": 2702,
      "grow": 2703,
      "hab": 2704,
      "hard": 2705,
      "hyper": 2706,
      "iom": 2707,
      "iol": 2708,
      "jac": 2709,
      "joy": 2710,
      "matic": 2711,
      "oic": 2712,
      "page": 2713,
      "prac": 2714,
      "pons": 2715,
      "rill": 2716,
      "site": 2717,
      "ui": 2718,
      "vation": 2719,
      "vable": 2720,
      "walk": 2721,
      "yb": 2722,
      "Ġti": 2723,
      "tious": 2724,
      "tiveness": 2725,
      "alib": 2726,
      "alse": 2727,
      "reath": 2728,
      "leas": 2729,
      "radi": 2730,
      "rains": 2731,
      "stop": 2732,
      "elp": 2733,
      "ilos": 2734,
      "rief": 2735,
      "chec": 2736,
      "amps": 2737,
      "imit": 2738,
      "umping": 2739,
      "pling": 2740,
      "ĠMo": 2741,
      "Ġflo": 2742,
      "Ġbo": 2743,
      "ĠEmb": 2744,
      "Ġinc": 2745,
      "rance": 2746,
      "Ġhyper": 2747,
      "Ġwor": 2748,
      "ighted": 2749,
      "ĠInst": 2750,
      "arded": 2751,
      "ivil": 2752,
      "tradic": 2753,
      "inded": 2754,
      "ustri": 2755,
      "formation": 2756,
      "ordered": 2757,
      "seud": 2758,
      "Ġval": 2759,
      "Exper": 2760,
      "armon": 2761,
      "mooth": 2762,
      "jected": 2763,
      "correct": 2764,
      "ĠArch": 2765,
      "ealth": 2766,
      "works": 2767,
      "mitted": 2768,
      "ampled": 2769,
      "Optim": 2770,
      "iciency": 2771,
      "connected": 2772,
      "Cur": 2773,
      "Del": 2774,
      "Diss": 2775,
      "Flo": 2776,
      "ID": 2777,
      "Leg": 2778,
      "Of": 2779,
      "Sn": 2780,
      "Stra": 2781,
      "bow": 2782,
      "gent": 2783,
      "group": 2784,
      "iver": 2785,
      "neg": 2786,
      "sim": 2787,
      "seg": 2788,
      "syn": 2789,
      "inger": 2790,
      "lem": 2791,
      "icks": 2792,
      "roub": 2793,
      "race": 2794,
      "unity": 2795,
      "enting": 2796,
      "elong": 2797,
      "abs": 2798,
      "Ġsqu": 2799,
      "ĠSn": 2800,
      "ĠStra": 2801,
      "ĠCur": 2802,
      "rimin": 2803,
      "Ġprec": 2804,
      "ĠPres": 2805,
      "agin": 2806,
      "Ġdig": 2807,
      "Ġdest": 2808,
      "ims": 2809,
      "ĠDel": 2810,
      "ĠDiss": 2811,
      "ape": 2812,
      "idly": 2813,
      "tices": 2814,
      "Ġret": 2815,
      "quire": 2816,
      "ĠElect": 2817,
      "ĠInv": 2818,
      "ĠLeg": 2819,
      "ews": 2820,
      "Ġstra": 2821,
      "Ġlong": 2822,
      "rame": 2823,
      "lows": 2824,
      "locks": 2825,
      "locking": 2826,
      "ission": 2827,
      "touch": 2828,
      "Process": 2829,
      "away": 2830,
      "Check": 2831,
      "come": 2832,
      "model": 2833,
      "server": 2834,
      "ĠKey": 2835,
      "Ġopen": 2836,
      "boards": 2837,
      "inner": 2838,
      "friendly": 2839,
      "'re": 2840,
      "20": 2841,
      "AR": 2842,
      "Bit": 2843,
      "Cap": 2844,
      "Dig": 2845,
      "Emp": 2846,
      "Ori": 2847,
      "Pred": 2848,
      "SD": 2849,
      "Sec": 2850,
      "Tim": 2851,
      "User": 2852,
      "ait": 2853,
      "car": 2854,
      "cast": 2855,
      "eem": 2856,
      "fter": 2857,
      "how": 2858,
      "house": 2859,
      "iatur": 2860,
      "ltra": 2861,
      "law": 2862,
      "link": 2863,
      "pond": 2864,
      "powered": 2865,
      "task": 2866,
      "uate": 2867,
      "ufact": 2868,
      "win": 2869,
      "Ġx": 2870,
      "Ġis": 2871,
      "Ġtim": 2872,
      "Ġele": 2873,
      "any": 2874,
      "arts": 2875,
      "iser": 2876,
      "ich": 2877,
      "iction": 2878,
      "icity": 2879,
      "rok": 2880,
      "omen": 2881,
      "acity": 2882,
      "Ġcar": 2883,
      "ership": 2884,
      "izz": 2885,
      "igen": 2886,
      "emper": 2887,
      "ĠPred": 2888,
      "ags": 2889,
      "Ġder": 2890,
      "apse": 2891,
      "idence": 2892,
      "umped": 2893,
      "plom": 2894,
      "exc": 2895,
      "irth": 2896,
      "iform": 2897,
      "qual": 2898,
      "const": 2899,
      "rank": 2900,
      "Ġhard": 2901,
      "andom": 2902,
      "android": 2903,
      "phone": 2904,
      "ĠWor": 2905,
      "eared": 2906,
      "okes": 2907,
      "udd": 2908,
      "cluster": 2909,
      "angs": 2910,
      "angular": 2911,
      "formed": 2912,
      "rams": 2913,
      "ativity": 2914,
      "Ġaw": 2915,
      "peech": 2916,
      "type": 2917,
      "tifies": 2918,
      "ysic": 2919,
      "arms": 2920,
      "ixel": 2921,
      "Ġren": 2922,
      "plicated": 2923,
      "jects": 2924,
      "atics": 2925,
      "curs": 2926,
      "chedul": 2927,
      "Image": 2928,
      "whel": 2929,
      "itches": 2930,
      "eliver": 2931,
      "working": 2932,
      "Order": 2933,
      "ambig": 2934,
      "stitution": 2935,
      "caten": 2936,
      "Cre": 2937,
      "Deep": 2938,
      "Hard": 2939,
      "Log": 2940,
      "Lay": 2941,
      "ML": 2942,
      "Py": 2943,
      "Play": 2944,
      "Tri": 2945,
      "cases": 2946,
      "ek": 2947,
      "ft": 2948,
      "fix": 2949,
      "lif": 2950,
      "pun": 2951,
      "rumb": 2952,
      "sem": 2953,
      "vc": 2954,
      "Ġec": 2955,
      "Ġus": 2956,
      "Ġill": 2957,
      "inated": 2958,
      "eder": 2959,
      "aters": 2960,
      "orting": 2961,
      "rele": 2962,
      "lets": 2963,
      "asm": 2964,
      "rot": 2965,
      "rained": 2966,
      "stud": 2967,
      "elves": 2968,
      "active": 2969,
      "access": 2970,
      "Ġcap": 2971,
      "oli": 2972,
      "ĠSqu": 2973,
      "chest": 2974,
      "Ġpers": 2975,
      "Ind": 2976,
      "Ins": 2977,
      "ĠDev": 2978,
      "ĠDeep": 2979,
      "exp": 2980,
      "istent": 2981,
      "Ġhe": 2982,
      "Ġhead": 2983,
      "eps": 2984,
      "ĠInd": 2985,
      "rug": 2986,
      "resolution": 2987,
      "ĠHard": 2988,
      "ĠLog": 2989,
      "perf": 2990,
      "scrip": 2991,
      "screen": 2992,
      "clim": 2993,
      "ange": 2994,
      "poly": 2995,
      "igns": 2996,
      "rown": 2997,
      "preh": 2998,
      "Anti": 2999,
      "ĠAnti": 3000,
      "auto": 3001,
      "backs": 3002,
      "monst": 3003,
      "Ġauto": 3004,
      "abilities": 3005,
      "Learning": 3006,
      "Em": 3007,
      "He": 3008,
      "Head": 3009,
      "Sym": 3010,
      "Us": 3011,
      "Vari": 3012,
      "View": 3013,
      "div": 3014,
      "gling": 3015,
      "ha": 3016,
      "hom": 3017,
      "iors": 3018,
      "mal": 3019,
      "main": 3020,
      "nn": 3021,
      "ooth": 3022,
      "pain": 3023,
      "rint": 3024,
      "rase": 3025,
      "ton": 3026,
      "tens": 3027,
      "ture": 3028,
      "transp": 3029,
      "utive": 3030,
      "uously": 3031,
      "vector": 3032,
      "Ġuser": 3033,
      "erve": 3034,
      "arrow": 3035,
      "itors": 3036,
      "icking": 3037,
      "ason": 3038,
      "asks": 3039,
      "rome": 3040,
      "rab": 3041,
      "rative": 3042,
      "unb": 3043,
      "unf": 3044,
      "stract": 3045,
      "ections": 3046,
      "aced": 3047,
      "ilation": 3048,
      "Ġcomb": 3049,
      "urning": 3050,
      "ette": 3051,
      "ried": 3052,
      "Ġpe": 3053,
      "igor": 3054,
      "ĠPass": 3055,
      "agent": 3056,
      "agging": 3057,
      "implement": 3058,
      "api": 3059,
      "osis": 3060,
      "ĠTim": 3061,
      "ifiers": 3062,
      "Ġtransp": 3063,
      "owers": 3064,
      "ĠEm": 3065,
      "controll": 3066,
      "ĠBe": 3067,
      "ocation": 3068,
      "ocking": 3069,
      "prob": 3070,
      "product": 3071,
      "ayed": 3072,
      "Ġhom": 3073,
      "ighter": 3074,
      "menting": 3075,
      "ipher": 3076,
      "anding": 3077,
      "ĠHe": 3078,
      "alizations": 3079,
      "ibr": 3080,
      "Ġunb": 3081,
      "Ġunf": 3082,
      "ĠOc": 3083,
      "uge": 3084,
      "ugged": 3085,
      "event": 3086,
      "alluc": 3087,
      "nesses": 3088,
      "itig": 3089,
      "usting": 3090,
      "ressive": 3091,
      "observ": 3092,
      "ectors": 3093,
      "rystall": 3094,
      "lowing": 3095,
      "atized": 3096,
      "Ġexc": 3097,
      "locked": 3098,
      "erved": 3099,
      "athematic": 3100,
      "vious": 3101,
      "team": 3102,
      "itely": 3103,
      "pected": 3104,
      "iousness": 3105,
      "olding": 3106,
      "ember": 3107,
      "after": 3108,
      "motiv": 3109,
      "titude": 3110,
      "yster": 3111,
      "prise": 3112,
      "defin": 3113,
      "learn": 3114,
      "doub": 3115,
      "tility": 3116,
      "mitting": 3117,
      "tifications": 3118,
      "built": 3119,
      "viron": 3120,
      "ilosoph": 3121,
      "Air": 3122,
      "By": 3123,
      "Break": 3124,
      "Go": 3125,
      "Gen": 3126,
      "Graph": 3127,
      "Ir": 3128,
      "Is": 3129,
      "Ill": 3130,
      "Line": 3131,
      "Ver": 3132,
      "auc": 3133,
      "hing": 3134,
      "hum": 3135,
      "ij": 3136,
      "iking": 3137,
      "jud": 3138,
      "kit": 3139,
      "master": 3140,
      "na": 3141,
      "rent": 3142,
      "size": 3143,
      "synchron": 3144,
      "transc": 3145,
      "yed": 3146,
      "Ġes": 3147,
      "Ġear": 3148,
      "Ġovers": 3149,
      "invent": 3150,
      "alt": 3151,
      "reb": 3152,
      "anim": 3153,
      "ison": 3154,
      "isions": 3155,
      "itate": 3156,
      "icted": 3157,
      "icked": 3158,
      "rays": 3159,
      "activity": 3160,
      "ilities": 3161,
      "Ġsuff": 3162,
      "urring": 3163,
      "uth": 3164,
      "amper": 3165,
      "amping": 3166,
      "ĠPrec": 3167,
      "Inc": 3168,
      "imm": 3169,
      "image": 3170,
      "aping": 3171,
      "idate": 3172,
      "Ġreb": 3173,
      "Ġbreak": 3174,
      "Ġteam": 3175,
      "conduct": 3176,
      "condition": 3177,
      "Ġiniti": 3178,
      "ĠFlo": 3179,
      "ĠBo": 3180,
      "ĠBreak": 3181,
      "ĠInc": 3182,
      "ĠIns": 3183,
      "akers": 3184,
      "space": 3185,
      "performing": 3186,
      "ucks": 3187,
      "train": 3188,
      "cles": 3189,
      "anging": 3190,
      "short": 3191,
      "former": 3192,
      "Ġvol": 3193,
      "ĠIr": 3194,
      "ĠIll": 3195,
      "ĠVal": 3196,
      "races": 3197,
      "tool": 3198,
      "Ġshort": 3199,
      "marks": 3200,
      "ĠCheck": 3201,
      "berry": 3202,
      "lecting": 3203,
      "services": 3204,
      "Code": 3205,
      "rapped": 3206,
      "Ġclass": 3207,
      "testing": 3208,
      "track": 3209,
      "App": 3210,
      "Organ": 3211,
      "build": 3212,
      "frame": 3213,
      "Ast": 3214,
      "Car": 3215,
      "Cent": 3216,
      "Dimensional": 3217,
      "Er": 3218,
      "Flow": 3219,
      "Set": 3220,
      "System": 3221,
      "aur": 3222,
      "db": 3223,
      "etic": 3224,
      "ht": 3225,
      "hop": 3226,
      "hot": 3227,
      "hear": 3228,
      "iat": 3229,
      "pir": 3230,
      "rator": 3231,
      "sized": 3232,
      "soci": 3233,
      "separ": 3234,
      "sql": 3235,
      "uations": 3236,
      "vy": 3237,
      "inity": 3238,
      "inations": 3239,
      "onest": 3240,
      "onstruct": 3241,
      "atural": 3242,
      "reet": 3243,
      "anes": 3244,
      "anks": 3245,
      "anking": 3246,
      "arsh": 3247,
      "arrel": 3248,
      "itations": 3249,
      "asive": 3250,
      "rost": 3251,
      "station": 3252,
      "ults": 3253,
      "ulting": 3254,
      "ultra": 3255,
      "abric": 3256,
      "Ġcre": 3257,
      "Ġsoci": 3258,
      "urse": 3259,
      "ĠSym": 3260,
      "uture": 3261,
      "ĠCar": 3262,
      "ĠCap": 3263,
      "usc": 3264,
      "usions": 3265,
      "rive": 3266,
      "Ġpsych": 3267,
      "ama": 3268,
      "amped": 3269,
      "amili": 3270,
      "emon": 3271,
      "ague": 3272,
      "Ġdoub": 3273,
      "ĠAst": 3274,
      "idn": 3275,
      "iders": 3276,
      "establ": 3277,
      "ĠTri": 3278,
      "ĠThe": 3279,
      "odd": 3280,
      "ĠEmp": 3281,
      "conce": 3282,
      "ocol": 3283,
      "propri": 3284,
      "ander": 3285,
      "phas": 3286,
      "trapol": 3287,
      "ĠGPT": 3288,
      "even": 3289,
      "ression": 3290,
      "eller": 3291,
      "asty": 3292,
      "atization": 3293,
      "Ġdeb": 3294,
      "achable": 3295,
      "paramet": 3296,
      "ronoun": 3297,
      "compet": 3298,
      "vention": 3299,
      "ditional": 3300,
      "Read": 3301,
      "psych": 3302,
      "ween": 3303,
      "marked": 3304,
      "interpre": 3305,
      "isms": 3306,
      "plicate": 3307,
      "plications": 3308,
      "attle": 3309,
      "Short": 3310,
      "ĠShort": 3311,
      "ateri": 3312,
      "calc": 3313,
      "jecting": 3314,
      "Ġeff": 3315,
      "riter": 3316,
      "tention": 3317,
      "communic": 3318,
      "decomp": 3319,
      "constit": 3320,
      "Ġoptim": 3321,
      "attern": 3322,
      "tracted": 3323,
      "sider": 3324,
      "ometry": 3325,
      "ĠOptim": 3326,
      "Poly": 3327,
      "superv": 3328,
      "gorithm": 3329,
      "respons": 3330,
      "zero": 3331,
      "device": 3332,
      "rehens": 3333,
      "ynamic": 3334,
      "omestic": 3335,
      "ospit": 3336,
      "Block": 3337,
      "Dat": 3338,
      "Le": 3339,
      "Lab": 3340,
      "Rew": 3341,
      "Rob": 3342,
      "Scal": 3343,
      "Scale": 3344,
      "Vol": 3345,
      "band": 3346,
      "bio": 3347,
      "circ": 3348,
      "custom": 3349,
      "drop": 3350,
      "ief": 3351,
      "liv": 3352,
      "lined": 3353,
      "lining": 3354,
      "pay": 3355,
      "patch": 3356,
      "rinc": 3357,
      "take": 3358,
      "uct": 3359,
      "vinc": 3360,
      "water": 3361,
      "ycle": 3362,
      "Ġide": 3363,
      "Ġone": 3364,
      "edding": 3365,
      "tile": 3366,
      "orc": 3367,
      "arge": 3368,
      "itating": 3369,
      "ication": 3370,
      "rage": 3371,
      "unning": 3372,
      "Ġcat": 3373,
      "Ġcustom": 3374,
      "Ġcapit": 3375,
      "Ġseg": 3376,
      "Ġsyn": 3377,
      "ersion": 3378,
      "Ġpun": 3379,
      "Ġpur": 3380,
      "dep": 3381,
      "deep": 3382,
      "Ġdata": 3383,
      "ĠRew": 3384,
      "ĠDat": 3385,
      "verted": 3386,
      "quis": 3387,
      "istence": 3388,
      "ĠEff": 3389,
      "Ġher": 3390,
      "Ġhum": 3391,
      "ept": 3392,
      "assed": 3393,
      "aks": 3394,
      "pher": 3395,
      "Ġnet": 3396,
      "traction": 3397,
      "scaling": 3398,
      "overn": 3399,
      "anger": 3400,
      "recogn": 3401,
      "orded": 3402,
      "Ġdeep": 3403,
      "ignment": 3404,
      "Ġexper": 3405,
      "location": 3406,
      "ĠVer": 3407,
      "positions": 3408,
      "possess": 3409,
      "Encod": 3410,
      "vels": 3411,
      "axes": 3412,
      "axis": 3413,
      "crew": 3414,
      "meas": 3415,
      "grade": 3416,
      "corpor": 3417,
      "rapping": 3418,
      "processor": 3419,
      "Decomp": 3420,
      "losed": 3421,
      "character": 3422,
      "echnology": 3423,
      "capit": 3424,
      "lections": 3425,
      "aught": 3426,
      "ethod": 3427,
      "Ġpoly": 3428,
      "structs": 3429,
      "focused": 3430,
      "Box": 3431,
      "Diff": 3432,
      "Ed": 3433,
      "Id": 3434,
      "Pur": 3435,
      "Pay": 3436,
      "Sign": 3437,
      "SQL": 3438,
      "ae": 3439,
      "brush": 3440,
      "categor": 3441,
      "fre": 3442,
      "fill": 3443,
      "gles": 3444,
      "gence": 3445,
      "gpt": 3446,
      "ients": 3447,
      "itively": 3448,
      "lat": 3449,
      "mel": 3450,
      "mos": 3451,
      "nal": 3452,
      "pat": 3453,
      "pop": 3454,
      "ril": 3455,
      "sed": 3456,
      "safe": 3457,
      "tly": 3458,
      "turb": 3459,
      "uity": 3460,
      "uits": 3461,
      "wide": 3462,
      "watch": 3463,
      "Ġing": 3464,
      "Ġorgan": 3465,
      "iny": 3466,
      "inks": 3467,
      "infor": 3468,
      "ertain": 3469,
      "tial": 3470,
      "tire": 3471,
      "tized": 3472,
      "tization": 3473,
      "ali": 3474,
      "atom": 3475,
      "anted": 3476,
      "arly": 3477,
      "istics": 3478,
      "lete": 3479,
      "itarian": 3480,
      "rolog": 3481,
      "raz": 3482,
      "unes": 3483,
      "ulous": 3484,
      "ulling": 3485,
      "ulative": 3486,
      "elly": 3487,
      "oment": 3488,
      "actions": 3489,
      "ilot": 3490,
      "ilder": 3491,
      "Ġcal": 3492,
      "Ġcan": 3493,
      "Ġsim": 3494,
      "ĠSign": 3495,
      "essed": 3496,
      "utting": 3497,
      "chann": 3498,
      "child": 3499,
      "Ġpop": 3500,
      "Ġplay": 3501,
      "look": 3502,
      "empor": 3503,
      "agged": 3504,
      "Ġden": 3505,
      "imag": 3506,
      "ĠDig": 3507,
      "idel": 3508,
      "umber": 3509,
      "explain": 3510,
      "opath": 3511,
      "quest": 3512,
      "Ġte": 3513,
      "Ġtransc": 3514,
      "istant": 3515,
      "ranked": 3516,
      "ocks": 3517,
      "ocial": 3518,
      "ouses": 3519,
      "assing": 3520,
      "ĠHead": 3521,
      "ivable": 3522,
      "alizer": 3523,
      "efore": 3524,
      "scope": 3525,
      "ewing": 3526,
      "eval": 3527,
      "ishment": 3528,
      "boot": 3529,
      "itivity": 3530,
      "Contin": 3531,
      "angled": 3532,
      "usted": 3533,
      "ustain": 3534,
      "ustry": 3535,
      "outh": 3536,
      "obil": 3537,
      "obility": 3538,
      "reck": 3539,
      "asters": 3540,
      "formance": 3541,
      "orders": 3542,
      "illa": 3543,
      "inters": 3544,
      "Ġvis": 3545,
      "partic": 3546,
      "rone": 3547,
      "rons": 3548,
      "ronom": 3549,
      "erves": 3550,
      "compan": 3551,
      "comput": 3552,
      "ashion": 3553,
      "dient": 3554,
      "oster": 3555,
      "ideo": 3556,
      "ferring": 3557,
      "ĠExper": 3558,
      "ney": 3559,
      "ysical": 3560,
      "teen": 3561,
      "interpret": 3562,
      "plicit": 3563,
      "olded": 3564,
      "porting": 3565,
      "icker": 3566,
      "anner": 3567,
      "ĠUser": 3568,
      "jections": 3569,
      "ierarch": 3570,
      "pressive": 3571,
      "prising": 3572,
      "ceptions": 3573,
      "rands": 3574,
      "Ġdecomp": 3575,
      "plos": 3576,
      "rupted": 3577,
      "tractive": 3578,
      "security": 3579,
      "Ġautom": 3580,
      "ĠClass": 3581,
      "legitim": 3582,
      "install": 3583,
      "icially": 3584,
      "generated": 3585,
      "nowledg": 3586,
      "Integ": 3587,
      "requency": 3588,
      "efully": 3589,
      "unctions": 3590,
      "ĠPoly": 3591,
      "clusive": 3592,
      "abyte": 3593,
      "abytes": 3594,
      "grat": 3595,
      "domain": 3596,
      "cipl": 3597,
      "Comb": 3598,
      "DB": 3599,
      "LO": 3600,
      "Oper": 3601,
      "Psych": 3602,
      "Person": 3603,
      "Se": 3604,
      "Sim": 3605,
      "Spar": 3606,
      "Suff": 3607,
      "Sequ": 3608,
      "Single": 3609,
      "Tree": 3610,
      "Use": 3611,
      "bre": 3612,
      "browser": 3613,
      "clock": 3614,
      "cloud": 3615,
      "fol": 3616,
      "jug": 3617,
      "memory": 3618,
      "nic": 3619,
      "nect": 3620,
      "oos": 3621,
      "ply": 3622,
      "pack": 3623,
      "source": 3624,
      "uce": 3625,
      "uals": 3626,
      "wid": 3627,
      "year": 3628,
      "Ġarm": 3629,
      "inj": 3630,
      "inate": 3631,
      "inating": 3632,
      "error": 3633,
      "edd": 3634,
      "tip": 3635,
      "real": 3636,
      "around": 3637,
      "lement": 3638,
      "icate": 3639,
      "asy": 3640,
      "ravel": 3641,
      "sts": 3642,
      "style": 3643,
      "Ġsec": 3644,
      "Ġspo": 3645,
      "urry": 3646,
      "ĠSim": 3647,
      "ĠSingle": 3648,
      "essing": 3649,
      "ĠCre": 3650,
      "ĠComb": 3651,
      "Ġpy": 3652,
      "adap": 3653,
      "emble": 3654,
      "employ": 3655,
      "ĠPy": 3656,
      "ĠPsych": 3657,
      "agree": 3658,
      "ĠAir": 3659,
      "verting": 3660,
      "apes": 3661,
      "idates": 3662,
      "Ġmer": 3663,
      "uming": 3664,
      "plies": 3665,
      "platform": 3666,
      "opes": 3667,
      "ĠTime": 3668,
      "ubric": 3669,
      "ogs": 3670,
      "proof": 3671,
      "ĠLe": 3672,
      "phere": 3673,
      "ĠOper": 3674,
      "Ġneg": 3675,
      "trained": 3676,
      "Ġcontin": 3677,
      "inders": 3678,
      "astes": 3679,
      "Stream": 3680,
      "Ġvari": 3681,
      "Ġview": 3682,
      "minim": 3683,
      "Ġexp": 3684,
      "ĠVol": 3685,
      "Ġair": 3686,
      "Prot": 3687,
      "pread": 3688,
      "Ent": 3689,
      "Ġchar": 3690,
      "Chat": 3691,
      "relation": 3692,
      "aired": 3693,
      "atten": 3694,
      "offs": 3695,
      "ĠUs": 3696,
      "ringing": 3697,
      "valued": 3698,
      "reading": 3699,
      "acceler": 3700,
      "pressed": 3701,
      "ushes": 3702,
      "print": 3703,
      "views": 3704,
      "ooks": 3705,
      "downs": 3706,
      "Ġauthor": 3707,
      "ĠDecomp": 3708,
      "playing": 3709,
      "missions": 3710,
      "world": 3711,
      "standard": 3712,
      "charge": 3713,
      "Ġminim": 3714,
      "counter": 3715,
      "ruth": 3716,
      "efficient": 3717,
      "hoods": 3718,
      "currence": 3719,
      "development": 3720,
      "known": 3721,
      "Service": 3722,
      "Oriented": 3723,
      "AM": 3724,
      "Bi": 3725,
      "Che": 3726,
      "Deb": 3727,
      "Function": 3728,
      "Kn": 3729,
      "Mar": 3730,
      "Ren": 3731,
      "Sens": 3732,
      "Syn": 3733,
      "Script": 3734,
      "Speed": 3735,
      "Transp": 3736,
      "breed": 3737,
      "da": 3738,
      "dro": 3739,
      "diff": 3740,
      "fund": 3741,
      "fusc": 3742,
      "gine": 3743,
      "gets": 3744,
      "grid": 3745,
      "hun": 3746,
      "hash": 3747,
      "hyth": 3748,
      "haus": 3749,
      "iration": 3750,
      "lim": 3751,
      "lib": 3752,
      "life": 3753,
      "men": 3754,
      "mail": 3755,
      "most": 3756,
      "nation": 3757,
      "native": 3758,
      "otic": 3759,
      "pot": 3760,
      "popular": 3761,
      "sus": 3762,
      "school": 3763,
      "where": 3764,
      "Ġed": 3765,
      "Ġasc": 3766,
      "inal": 3767,
      "erce": 3768,
      "erate": 3769,
      "onent": 3770,
      "enomen": 3771,
      "rev": 3772,
      "recon": 3773,
      "anity": 3774,
      "arran": 3775,
      "arrass": 3776,
      "lev": 3777,
      "lead": 3778,
      "lever": 3779,
      "itched": 3780,
      "itude": 3781,
      "icial": 3782,
      "icious": 3783,
      "asking": 3784,
      "star": 3785,
      "ully": 3786,
      "ulatory": 3787,
      "ecd": 3788,
      "ece": 3789,
      "ellow": 3790,
      "ometer": 3791,
      "acilit": 3792,
      "ilers": 3793,
      "Ġcyber": 3794,
      "Ġsystem": 3795,
      "ĠSyn": 3796,
      "ĠChe": 3797,
      "Ġperson": 3798,
      "Initi": 3799,
      "Ġdiv": 3800,
      "Ġdiff": 3801,
      "ĠRen": 3802,
      "ĠDeb": 3803,
      "vertis": 3804,
      "aphor": 3805,
      "iddle": 3806,
      "Ġmain": 3807,
      "pless": 3808,
      "places": 3809,
      "ĠMar": 3810,
      "ople": 3811,
      "opping": 3812,
      "Ġrev": 3813,
      "Ġread": 3814,
      "Ġrecon": 3815,
      "Ġfre": 3816,
      "Ġforg": 3817,
      "ostic": 3818,
      "ĠTransp": 3819,
      "oto": 3820,
      "uber": 3821,
      "ĠEr": 3822,
      "ĠFirst": 3823,
      "ĠBi": 3824,
      "ocum": 3825,
      "ocked": 3826,
      "ogen": 3827,
      "ogene": 3828,
      "proportion": 3829,
      "Ġwin": 3830,
      "ipe": 3831,
      "ĠIniti": 3832,
      "anded": 3833,
      "lings": 3834,
      "speed": 3835,
      "Ġgen": 3836,
      "phab": 3837,
      "Ġnew": 3838,
      "ugges": 3839,
      "avel": 3840,
      "ewed": 3841,
      "ĠGo": 3842,
      "Ġconst": 3843,
      "earest": 3844,
      "bour": 3845,
      "Const": 3846,
      "clude": 3847,
      "ango": 3848,
      "angles": 3849,
      "ĠContin": 3850,
      "oured": 3851,
      "ancies": 3852,
      "ĠId": 3853,
      "Ġext": 3854,
      "located": 3855,
      "ĠVari": 3856,
      "entil": 3857,
      "Ġprogram": 3858,
      "ditions": 3859,
      "Exc": 3860,
      "ferred": 3861,
      "ferences": 3862,
      "ribute": 3863,
      "eleb": 3864,
      "ĠExc": 3865,
      "vile": 3866,
      "blem": 3867,
      "nee": 3868,
      "ularly": 3869,
      "ysics": 3870,
      "Ġcheck": 3871,
      "Chain": 3872,
      "uffed": 3873,
      "Ġrub": 3874,
      "iently": 3875,
      "ateral": 3876,
      "calib": 3877,
      "modern": 3878,
      "eeing": 3879,
      "ocket": 3880,
      "eats": 3881,
      "volve": 3882,
      "ultural": 3883,
      "umbling": 3884,
      "umbled": 3885,
      "network": 3886,
      "structure": 3887,
      "consider": 3888,
      "Ġkn": 3889,
      "aze": 3890,
      "ernel": 3891,
      "Autom": 3892,
      "player": 3893,
      "door": 3894,
      "Ġabs": 3895,
      "electric": 3896,
      "Ġradi": 3897,
      "inned": 3898,
      "rayed": 3899,
      "Ġinteg": 3900,
      "emplate": 3901,
      "uttered": 3902,
      "uttering": 3903,
      "cyber": 3904,
      "ponenti": 3905,
      "preci": 3906,
      "facing": 3907,
      "links": 3908,
      "joint": 3909,
      "sequence": 3910,
      "ableness": 3911,
      "reason": 3912,
      "keeper": 3913,
      "Minim": 3914,
      "ĠMinim": 3915,
      "engineering": 3916,
      "functional": 3917,
      "rolling": 3918,
      "vantage": 3919,
      "complete": 3920,
      "oscill": 3921,
      "answer": 3922,
      "alysis": 3923,
      "agnetic": 3924,
      "amiliar": 3925,
      "AP": 3926,
      "Cat": 3927,
      "DD": 3928,
      "Direct": 3929,
      "Fast": 3930,
      "Her": 3931,
      "Human": 3932,
      "IS": 3933,
      "Mer": 3934,
      "Neg": 3935,
      "So": 3936,
      "Soci": 3937,
      "Ups": 3938,
      "bly": 3939,
      "bra": 3940,
      "bur": 3941,
      "bling": 3942,
      "beg": 3943,
      "bles": 3944,
      "burn": 3945,
      "bows": 3946,
      "bench": 3947,
      "card": 3948,
      "call": 3949,
      "crypt": 3950,
      "divid": 3951,
      "eel": 3952,
      "fits": 3953,
      "happ": 3954,
      "iant": 3955,
      "iproc": 3956,
      "luc": 3957,
      "lists": 3958,
      "mate": 3959,
      "mist": 3960,
      "must": 3961,
      "nom": 3962,
      "public": 3963,
      "soft": 3964,
      "semi": 3965,
      "tal": 3966,
      "trust": 3967,
      "toler": 3968,
      "uality": 3969,
      "ualized": 3970,
      "wear": 3971,
      "with": 3972,
      "Ġ3": 3973,
      "Ġeng": 3974,
      "ince": 3975,
      "ertion": 3976,
      "erts": 3977,
      "enabled": 3978,
      "allo": 3979,
      "atures": 3980,
      "oration": 3981,
      "repe": 3982,
      "aning": 3983,
      "anch": 3984,
      "artic": 3985,
      "iced": 3986,
      "icated": 3987,
      "rout": 3988,
      "raise": 3989,
      "unch": 3990,
      "stack": 3991,
      "elic": 3992,
      "abol": 3993,
      "ilog": 3994,
      "Ġcirc": 3995,
      "Ġse": 3996,
      "Ġso": 3997,
      "Ġspl": 3998,
      "Ġspar": 3999,
      "Ġsingle": 4000,
      "urance": 4001,
      "ĠSe": 4002,
      "ĠSoci": 4003,
      "eters": 4004,
      "utation": 4005,
      "ĠCat": 4006,
      "users": 4007,
      "ript": 4008,
      "ĠPlay": 4009,
      "ĠPerson": 4010,
      "Ġdo": 4011,
      "verb": 4012,
      "idation": 4013,
      "Ġmor": 4014,
      "Ġmust": 4015,
      "thought": 4016,
      "Ġrepe": 4017,
      "ifts": 4018,
      "ifted": 4019,
      "quer": 4020,
      "quit": 4021,
      "otation": 4022,
      "Ġbi": 4023,
      "Ġbur": 4024,
      "Ġbet": 4025,
      "ocus": 4026,
      "unders": 4027,
      "ĠHer": 4028,
      "spo": 4029,
      "aven": 4030,
      "sci": 4031,
      "uds": 4032,
      "ĠNet": 4033,
      "allen": 4034,
      "Connec": 4035,
      "Context": 4036,
      "anged": 4037,
      "ships": 4038,
      "ĠContext": 4039,
      "format": 4040,
      "ording": 4041,
      "Step": 4042,
      "intro": 4043,
      "ĠIP": 4044,
      "racing": 4045,
      "Ġprot": 4046,
      "Ġprov": 4047,
      "verses": 4048,
      "elec": 4049,
      "ĠProt": 4050,
      "Real": 4051,
      "airy": 4052,
      "ĠReal": 4053,
      "marking": 4054,
      "ĠEnt": 4055,
      "Ġrer": 4056,
      "motion": 4057,
      "valu": 4058,
      "understand": 4059,
      "models": 4060,
      "ready": 4061,
      "management": 4062,
      "duce": 4063,
      "Recon": 4064,
      "ĠRecon": 4065,
      "Ġrot": 4066,
      "Art": 4067,
      "pending": 4068,
      "necess": 4069,
      "structured": 4070,
      "ooting": 4071,
      "centric": 4072,
      "Ġoper": 4073,
      "byte": 4074,
      "organized": 4075,
      "demn": 4076,
      "quired": 4077,
      "Depend": 4078,
      "lects": 4079,
      "lective": 4080,
      "single": 4081,
      "ĠOrgan": 4082,
      "information": 4083,
      "closed": 4084,
      "eaning": 4085,
      "graphs": 4086,
      "AT": 4087,
      "As": 4088,
      "Circ": 4089,
      "Custom": 4090,
      "Do": 4091,
      "Factor": 4092,
      "Hom": 4093,
      "Main": 4094,
      "Mark": 4095,
      "Norm": 4096,
      "Pers": 4097,
      "Prac": 4098,
      "Reb": 4099,
      "Spl": 4100,
      "Spo": 4101,
      "Separ": 4102,
      "Task": 4103,
      "Team": 4104,
      "aution": 4105,
      "ban": 4106,
      "dram": 4107,
      "eers": 4108,
      "gest": 4109,
      "game": 4110,
      "het": 4111,
      "hanc": 4112,
      "iod": 4113,
      "jus": 4114,
      "know": 4115,
      "live": 4116,
      "mechan": 4117,
      "matically": 4118,
      "oly": 4119,
      "pen": 4120,
      "python": 4121,
      "rases": 4122,
      "sil": 4123,
      "sco": 4124,
      "swe": 4125,
      "uver": 4126,
      "uilt": 4127,
      "uctu": 4128,
      "vs": 4129,
      "write": 4130,
      "ye": 4131,
      "yles": 4132,
      "ĠX": 4133,
      "Ġip": 4134,
      "Ġram": 4135,
      "Ġration": 4136,
      "Ġrid": 4137,
      "ino": 4138,
      "inos": 4139,
      "incl": 4140,
      "inary": 4141,
      "tise": 4142,
      "tize": 4143,
      "tism": 4144,
      "tizing": 4145,
      "alty": 4146,
      "react": 4147,
      "analy": 4148,
      "arse": 4149,
      "levi": 4150,
      "itory": 4151,
      "icting": 4152,
      "lyph": 4153,
      "unw": 4154,
      "unky": 4155,
      "ulus": 4156,
      "ulpt": 4157,
      "ecks": 4158,
      "econom": 4159,
      "eliness": 4160,
      "acerb": 4161,
      "abit": 4162,
      "Ġsil": 4163,
      "Ġset": 4164,
      "Ġsus": 4165,
      "Ġsens": 4166,
      "Ġsco": 4167,
      "Ġserv": 4168,
      "Ġside": 4169,
      "Ġswe": 4170,
      "urally": 4171,
      "urred": 4172,
      "olith": 4173,
      "ĠSpo": 4174,
      "etched": 4175,
      "essim": 4176,
      "utur": 4177,
      "utors": 4178,
      "ĠCirc": 4179,
      "ĠCustom": 4180,
      "usive": 4181,
      "ride": 4182,
      "Ġpen": 4183,
      "Ġprac": 4184,
      "loop": 4185,
      "vey": 4186,
      "adox": 4187,
      "amin": 4188,
      "ammer": 4189,
      "amming": 4190,
      "ĠPur": 4191,
      "ĠPay": 4192,
      "ĠReb": 4193,
      "ĠDiff": 4194,
      "verber": 4195,
      "apers": 4196,
      "idd": 4197,
      "idable": 4198,
      "idents": 4199,
      "idential": 4200,
      "umph": 4201,
      "thinking": 4202,
      "exic": 4203,
      "exual": 4204,
      "expression": 4205,
      "ĠMain": 4206,
      "opped": 4207,
      "irts": 4208,
      "Ġfil": 4209,
      "Ġfast": 4210,
      "Ġfire": 4211,
      "oton": 4212,
      "otograph": 4213,
      "otrop": 4214,
      "Ġbook": 4215,
      "Ġtech": 4216,
      "oward": 4217,
      "isters": 4218,
      "conom": 4219,
      "consc": 4220,
      "ranqu": 4221,
      "ocal": 4222,
      "ocor": 4223,
      "ainting": 4224,
      "ipes": 4225,
      "ipper": 4226,
      "resol": 4227,
      "ĠHom": 4228,
      "ivari": 4229,
      "alizable": 4230,
      "Ġunw": 4231,
      "cou": 4232,
      "Ġnorm": 4233,
      "ucceed": 4234,
      "avas": 4235,
      "avers": 4236,
      "ewise": 4237,
      "oker": 4238,
      "ĠNorm": 4239,
      "itives": 4240,
      "Control": 4241,
      "she": 4242,
      "obe": 4243,
      "ĠConst": 4244,
      "ourcing": 4245,
      "asturb": 4246,
      "astroph": 4247,
      "rames": 4248,
      "State": 4249,
      "rich": 4250,
      "riction": 4251,
      "herent": 4252,
      "ebra": 4253,
      "ativeness": 4254,
      "hetic": 4255,
      "Ġaud": 4256,
      "rowds": 4257,
      "compati": 4258,
      "computer": 4259,
      "osting": 4260,
      "Ext": 4261,
      "Prov": 4262,
      "athers": 4263,
      "often": 4264,
      "arious": 4265,
      "arians": 4266,
      "ĠExt": 4267,
      "eterior": 4268,
      "tifier": 4269,
      "tifiable": 4270,
      "need": 4271,
      "keys": 4272,
      "pleas": 4273,
      "pecting": 4274,
      "ĠRead": 4275,
      "tainable": 4276,
      "uffing": 4277,
      "plicable": 4278,
      "plicates": 4279,
      "olders": 4280,
      "subscrib": 4281,
      "attention": 4282,
      "trovers": 4283,
      "Ann": 4284,
      "incarn": 4285,
      "ĠAnn": 4286,
      "ithme": 4287,
      "oods": 4288,
      "ographical": 4289,
      "ographically": 4290,
      "onds": 4291,
      "volving": 4292,
      "volved": 4293,
      "ulture": 4294,
      "adem": 4295,
      "curring": 4296,
      "grav": 4297,
      "ooling": 4298,
      "prene": 4299,
      "archy": 4300,
      "structed": 4301,
      "consist": 4302,
      "drive": 4303,
      "ypical": 4304,
      "dict": 4305,
      "tested": 4306,
      "tracts": 4307,
      "Ġobserv": 4308,
      "thetic": 4309,
      "tracting": 4310,
      "umpy": 4311,
      "files": 4312,
      "filled": 4313,
      "aneous": 4314,
      "iciencies": 4315,
      "Model": 4316,
      "respect": 4317,
      "colon": 4318,
      "Ġregular": 4319,
      "connection": 4320,
      "aughter": 4321,
      "certain": 4322,
      "ĠInteg": 4323,
      "framework": 4324,
      "Ġcolon": 4325,
      "writing": 4326,
      "structions": 4327,
      "volutional": 4328,
      "imilarity": 4329,
      "ottom": 4330,
      "predict": 4331,
      "exuality": 4332,
      "hedron": 4333,
      "tuned": 4334,
      "ublish": 4335,
      "programming": 4336,
      "purpose": 4337,
      "LLM": 4338,
      "arciss": 4339,
      "ĠLLM": 4340,
      "ocratic": 4341,
      "istinguish": 4342,
      "seudo": 4343,
      "vironment": 4344,
      "AN": 4345,
      "Aw": 4346,
      "CI": 4347,
      "Can": 4348,
      "Cyber": 4349,
      "Der": 4350,
      "Den": 4351,
      "Dest": 4352,
      "Determin": 4353,
      "Fre": 4354,
      "Forg": 4355,
      "Follow": 4356,
      "IT": 4357,
      "New": 4358,
      "Pi": 4359,
      "Power": 4360,
      "ST": 4361,
      "Side": 4362,
      "Te": 4363,
      "Test": 4364,
      "Vis": 4365,
      "Wind": 4366,
      "base": 4367,
      "cling": 4368,
      "cord": 4369,
      "differ": 4370,
      "falls": 4371,
      "gar": 4372,
      "hon": 4373,
      "had": 4374,
      "held": 4375,
      "iability": 4376,
      "iences": 4377,
      "java": 4378,
      "kes": 4379,
      "kill": 4380,
      "length": 4381,
      "mat": 4382,
      "mort": 4383,
      "maps": 4384,
      "pc": 4385,
      "rend": 4386,
      "rength": 4387,
      "sd": 4388,
      "vm": 4389,
      "void": 4390,
      "whe": 4391,
      "Ġq": 4392,
      "Ġep": 4393,
      "Ġenti": 4394,
      "Ġtime": 4395,
      "infl": 4396,
      "input": 4397,
      "erated": 4398,
      "erting": 4399,
      "edge": 4400,
      "alks": 4401,
      "orous": 4402,
      "represent": 4403,
      "arted": 4404,
      "arting": 4405,
      "arks": 4406,
      "letion": 4407,
      "itness": 4408,
      "icing": 4409,
      "icts": 4410,
      "roy": 4411,
      "raining": 4412,
      "radic": 4413,
      "unp": 4414,
      "uning": 4415,
      "unks": 4416,
      "stat": 4417,
      "sters": 4418,
      "state": 4419,
      "styl": 4420,
      "omed": 4421,
      "Ġcer": 4422,
      "Ġcrypt": 4423,
      "Ġcounter": 4424,
      "Ġsynchron": 4425,
      "ĠSpar": 4426,
      "ĠServ": 4427,
      "ĠSuff": 4428,
      "ĠCan": 4429,
      "ĠCyber": 4430,
      "rival": 4431,
      "riving": 4432,
      "chat": 4433,
      "Ġped": 4434,
      "Ġpan": 4435,
      "Ġpay": 4436,
      "lose": 4437,
      "tery": 4438,
      "agg": 4439,
      "agers": 4440,
      "Ġdial": 4441,
      "imb": 4442,
      "ĠAw": 4443,
      "ĠRob": 4444,
      "ĠDer": 4445,
      "ĠDen": 4446,
      "ĠDest": 4447,
      "appoint": 4448,
      "idated": 4449,
      "thers": 4450,
      "think": 4451,
      "express": 4452,
      "ĠMer": 4453,
      "upon": 4454,
      "ifest": 4455,
      "ifting": 4456,
      "quaint": 4457,
      "Ġbeg": 4458,
      "Ġblock": 4459,
      "Ġtre": 4460,
      "Ġtest": 4461,
      "Ġtot": 4462,
      "Ġtechn": 4463,
      "istry": 4464,
      "congru": 4465,
      "Ġinfl": 4466,
      "ĠFre": 4467,
      "ĠFast": 4468,
      "ĠForg": 4469,
      "ĠBlock": 4470,
      "ocr": 4471,
      "Ġhon": 4472,
      "aky": 4473,
      "andal": 4474,
      "rude": 4475,
      "ĠHuman": 4476,
      "spe": 4477,
      "Ġunp": 4478,
      "avail": 4479,
      "traum": 4480,
      "scra": 4481,
      "ĠNew": 4482,
      "Ġstyl": 4483,
      "clusion": 4484,
      "cluded": 4485,
      "cluding": 4486,
      "sheet": 4487,
      "outing": 4488,
      "Start": 4489,
      "intellig": 4490,
      "lower": 4491,
      "Ġvoc": 4492,
      "Ġvisu": 4493,
      "party": 4494,
      "heet": 4495,
      "ighty": 4496,
      "raced": 4497,
      "tox": 4498,
      "poss": 4499,
      "isely": 4500,
      "Exp": 4501,
      "discre": 4502,
      "ofing": 4503,
      "eleg": 4504,
      "elev": 4505,
      "ĠExp": 4506,
      "neigh": 4507,
      "Ġcharacter": 4508,
      "forg": 4509,
      "ixes": 4510,
      "ixture": 4511,
      "comes": 4512,
      "Ġjava": 4513,
      "creens": 4514,
      "Query": 4515,
      "mother": 4516,
      "appear": 4517,
      "annot": 4518,
      "Ġcode": 4519,
      "eather": 4520,
      "Ġpret": 4521,
      "orns": 4522,
      "ushed": 4523,
      "ushing": 4524,
      "ridge": 4525,
      "ools": 4526,
      "viewing": 4527,
      "architect": 4528,
      "black": 4529,
      "processed": 4530,
      "processors": 4531,
      "eeds": 4532,
      "tracking": 4533,
      "trins": 4534,
      "ripped": 4535,
      "ripping": 4536,
      "tractable": 4537,
      "charged": 4538,
      "ructured": 4539,
      "variance": 4540,
      "supported": 4541,
      "covered": 4542,
      "Observ": 4543,
      "Black": 4544,
      "counted": 4545,
      "boxes": 4546,
      "Forward": 4547,
      "fitting": 4548,
      "changing": 4549,
      "unny": 4550,
      "balanced": 4551,
      "effect": 4552,
      "strained": 4553,
      "production": 4554,
      "ĠObserv": 4555,
      "breaking": 4556,
      "Many": 4557,
      "casts": 4558,
      "claimed": 4559,
      "configured": 4560,
      "assembly": 4561,
      "ycles": 4562,
      "behav": 4563,
      "Two": 4564,
      "ĠTwo": 4565,
      "10": 4566,
      "AD": 4567,
      "Cer": 4568,
      "Cal": 4569,
      "Cloud": 4570,
      "Capit": 4571,
      "Fire": 4572,
      "Friend": 4573,
      "Look": 4574,
      "Language": 4575,
      "MA": 4576,
      "Mid": 4577,
      "Memory": 4578,
      "Machine": 4579,
      "Sil": 4580,
      "Source": 4581,
      "TF": 4582,
      "Tele": 4583,
      "Techn": 4584,
      "Visu": 4585,
      "bul": 4586,
      "bus": 4587,
      "blo": 4588,
      "bid": 4589,
      "beat": 4590,
      "dish": 4591,
      "domin": 4592,
      "eve": 4593,
      "eties": 4594,
      "fly": 4595,
      "fur": 4596,
      "follow": 4597,
      "front": 4598,
      "gin": 4599,
      "gam": 4600,
      "hanced": 4601,
      "iour": 4602,
      "jango": 4603,
      "kward": 4604,
      "knowledge": 4605,
      "leness": 4606,
      "lier": 4607,
      "lived": 4608,
      "moun": 4609,
      "mises": 4610,
      "maxim": 4611,
      "nets": 4612,
      "otion": 4613,
      "pad": 4614,
      "rist": 4615,
      "rors": 4616,
      "render": 4617,
      "snow": 4618,
      "tac": 4619,
      "tele": 4620,
      "uic": 4621,
      "uates": 4622,
      "vib": 4623,
      "Ġur": 4624,
      "Ġve": 4625,
      "Ġens": 4626,
      "inator": 4627,
      "inked": 4628,
      "incre": 4629,
      "influ": 4630,
      "eral": 4631,
      "eros": 4632,
      "onation": 4633,
      "tigu": 4634,
      "ingu": 4635,
      "eners": 4636,
      "alv": 4637,
      "alyst": 4638,
      "atto": 4639,
      "orth": 4640,
      "orks": 4641,
      "reass": 4642,
      "antic": 4643,
      "anting": 4644,
      "anked": 4645,
      "anning": 4646,
      "arring": 4647,
      "ley": 4648,
      "itary": 4649,
      "itters": 4650,
      "itoring": 4651,
      "icle": 4652,
      "rail": 4653,
      "staff": 4654,
      "uli": 4655,
      "ulver": 4656,
      "ulled": 4657,
      "ulary": 4658,
      "eles": 4659,
      "acious": 4660,
      "acrif": 4661,
      "abase": 4662,
      "abulary": 4663,
      "Ġcoun": 4664,
      "Ġsnow": 4665,
      "Ġsequ": 4666,
      "Ġspeed": 4667,
      "Ġsummar": 4668,
      "ĠSec": 4669,
      "ĠSil": 4670,
      "ĠSet": 4671,
      "ĠSens": 4672,
      "ĠSpeed": 4673,
      "etching": 4674,
      "esses": 4675,
      "ĠCer": 4676,
      "ĠCal": 4677,
      "ĠCent": 4678,
      "ĠCapit": 4679,
      "usias": 4680,
      "rides": 4681,
      "cher": 4682,
      "chiev": 4683,
      "deav": 4684,
      "adly": 4685,
      "adig": 4686,
      "adjust": 4687,
      "ameless": 4688,
      "ĠPers": 4689,
      "ĠPrac": 4690,
      "Ġdram": 4691,
      "Ġdirect": 4692,
      "imal": 4693,
      "iments": 4694,
      "Ġmark": 4695,
      "Ġmechan": 4696,
      "Ġmaxim": 4697,
      "there": 4698,
      "plant": 4699,
      "exec": 4700,
      "explo": 4701,
      "expens": 4702,
      "ĠMid": 4703,
      "ĠMark": 4704,
      "irit": 4705,
      "Ġreass": 4706,
      "Ġfirst": 4707,
      "ĠTele": 4708,
      "ĠTeam": 4709,
      "otted": 4710,
      "otonic": 4711,
      "Ġby": 4712,
      "Ġblo": 4713,
      "ube": 4714,
      "ubs": 4715,
      "Ġto": 4716,
      "Ġty": 4717,
      "Ġtele": 4718,
      "owering": 4719,
      "ĠEd": 4720,
      "conv": 4721,
      "convex": 4722,
      "ĠFire": 4723,
      "ranking": 4724,
      "occup": 4725,
      "Uns": 4726,
      "proper": 4727,
      "profit": 4728,
      "Ġwe": 4729,
      "Ġwind": 4730,
      "associ": 4731,
      "ultiv": 4732,
      "orse": 4733,
      "spic": 4734,
      "efs": 4735,
      "eft": 4736,
      "efer": 4737,
      "avoid": 4738,
      "trace": 4739,
      "Ġconv": 4740,
      "Ġconce": 4741,
      "earn": 4742,
      "angling": 4743,
      "indle": 4744,
      "ellation": 4745,
      "ellers": 4746,
      "ouring": 4747,
      "ĠUns": 4748,
      "formers": 4749,
      "formations": 4750,
      "rice": 4751,
      "rict": 4752,
      "lowed": 4753,
      "Ġvib": 4754,
      "atial": 4755,
      "atile": 4756,
      "atize": 4757,
      "Ġdep": 4758,
      "achment": 4759,
      "ĠState": 4760,
      "Ġexec": 4761,
      "parent": 4762,
      "local": 4763,
      "erving": 4764,
      "ĠVisu": 4765,
      "osts": 4766,
      "Program": 4767,
      "Propag": 4768,
      "ribe": 4769,
      "ribes": 4770,
      "vial": 4771,
      "arters": 4772,
      "ĠProgram": 4773,
      "veloper": 4774,
      "ysi": 4775,
      "pects": 4776,
      "uffs": 4777,
      "plicating": 4778,
      "embl": 4779,
      "porter": 4780,
      "comfort": 4781,
      "ducing": 4782,
      "ductive": 4783,
      "Ġther": 4784,
      "incere": 4785,
      "desc": 4786,
      "inker": 4787,
      "speci": 4788,
      "manip": 4789,
      "enger": 4790,
      "auth": 4791,
      "ockets": 4792,
      "loader": 4793,
      "media": 4794,
      "ĠKn": 4795,
      "decre": 4796,
      "laying": 4797,
      "umbers": 4798,
      "urned": 4799,
      "arget": 4800,
      "ampion": 4801,
      "cepts": 4802,
      "randed": 4803,
      "structing": 4804,
      "ruption": 4805,
      "ruptions": 4806,
      "aleont": 4807,
      "retched": 4808,
      "Author": 4809,
      "ĠImage": 4810,
      "ealing": 4811,
      "urses": 4812,
      "attery": 4813,
      "iffs": 4814,
      "urban": 4815,
      "ĠAutom": 4816,
      "runch": 4817,
      "racted": 4818,
      "ĠApp": 4819,
      "umption": 4820,
      "filling": 4821,
      "Refer": 4822,
      "Reform": 4823,
      "inners": 4824,
      "ĠRefer": 4825,
      "ĠReform": 4826,
      "transl": 4827,
      "rified": 4828,
      "variable": 4829,
      "Ġdesign": 4830,
      "quiring": 4831,
      "iliation": 4832,
      "Regular": 4833,
      "rafted": 4834,
      "ĠRegular": 4835,
      "Ġmodern": 4836,
      "frames": 4837,
      "rutin": 4838,
      "going": 4839,
      "urolog": 4840,
      "ulsion": 4841,
      "ikit": 4842,
      "rolls": 4843,
      "summ": 4844,
      "summar": 4845,
      "auti": 4846,
      "ergy": 4847,
      "casion": 4848,
      "placed": 4849,
      "entioned": 4850,
      "rastructure": 4851,
      "appropri": 4852,
      "between": 4853,
      "ehavior": 4854,
      "ocumented": 4855,
      "avascript": 4856,
      "Aud": 4857,
      "Bet": 4858,
      "Beg": 4859,
      "Calc": 4860,
      "Counter": 4861,
      "De": 4862,
      "Day": 4863,
      "Dial": 4864,
      "Drop": 4865,
      "Doub": 4866,
      "Differenti": 4867,
      "Fine": 4868,
      "Face": 4869,
      "Foot": 4870,
      "Hum": 4871,
      "Kit": 4872,
      "LE": 4873,
      "Maxim": 4874,
      "NE": 4875,
      "Overs": 4876,
      "Pe": 4877,
      "Ped": 4878,
      "Pan": 4879,
      "Pop": 4880,
      "Random": 4881,
      "SS": 4882,
      "Sus": 4883,
      "Semi": 4884,
      "Server": 4885,
      "Ther": 4886,
      "Train": 4887,
      "Transc": 4888,
      "Ultra": 4889,
      "bas": 4890,
      "best": 4891,
      "bef": 4892,
      "broad": 4893,
      "business": 4894,
      "cos": 4895,
      "cement": 4896,
      "casting": 4897,
      "crast": 4898,
      "dil": 4899,
      "done": 4900,
      "days": 4901,
      "distribution": 4902,
      "foot": 4903,
      "fantas": 4904,
      "gran": 4905,
      "grand": 4906,
      "glob": 4907,
      "har": 4908,
      "ique": 4909,
      "la": 4910,
      "lights": 4911,
      "matching": 4912,
      "mvc": 4913,
      "ny": 4914,
      "names": 4915,
      "oop": 4916,
      "oves": 4917,
      "pill": 4918,
      "rilling": 4919,
      "search": 4920,
      "taking": 4921,
      "token": 4922,
      "ualization": 4923,
      "util": 4924,
      "Ġ.": 4925,
      "Ġ2": 4926,
      "Ġact": 4927,
      "Ġart": 4928,
      "Ġrandom": 4929,
      "insp": 4930,
      "erted": 4931,
      "eds": 4932,
      "inging": 4933,
      "alking": 4934,
      "arning": 4935,
      "lee": 4936,
      "itates": 4937,
      "icit": 4938,
      "icates": 4939,
      "rave": 4940,
      "uned": 4941,
      "unit": 4942,
      "unches": 4943,
      "stance": 4944,
      "store": 4945,
      "stead": 4946,
      "uld": 4947,
      "elines": 4948,
      "actively": 4949,
      "Ġcall": 4950,
      "Ġser": 4951,
      "Ġsem": 4952,
      "urer": 4953,
      "urers": 4954,
      "urious": 4955,
      "olves": 4956,
      "olving": 4957,
      "ĠSo": 4958,
      "ĠSus": 4959,
      "ĠSequ": 4960,
      "ĠCounter": 4961,
      "usable": 4962,
      "chip": 4963,
      "Ġpart": 4964,
      "Ġposs": 4965,
      "Ġpublic": 4966,
      "loth": 4967,
      "looking": 4968,
      "depress": 4969,
      "aders": 4970,
      "emed": 4971,
      "ĠPe": 4972,
      "ĠPed": 4973,
      "ĠPan": 4974,
      "ĠPop": 4975,
      "Infl": 4976,
      "Instruction": 4977,
      "agre": 4978,
      "Ġded": 4979,
      "Ġdil": 4980,
      "Ġdetermin": 4981,
      "ĠAud": 4982,
      "ĠDe": 4983,
      "ĠDial": 4984,
      "ĠDoub": 4985,
      "ĠDifferenti": 4986,
      "aped": 4987,
      "apper": 4988,
      "idating": 4989,
      "idget": 4990,
      "identif": 4991,
      "ticed": 4992,
      "ticism": 4993,
      "ummer": 4994,
      "throw": 4995,
      "plus": 4996,
      "plug": 4997,
      "expl": 4998,
      "ĠMaxim": 4999,
      "irus": 5000,
      "Ġfe": 5001,
      "Ġfile": 5002,
      "Ġfoot": 5003,
      "Ġfunction": 5004,
      "Ġfactor": 5005,
      "Ġfantas": 5006,
      "ĠTher": 5007,
      "ĠTransc": 5008,
      "ques": 5009,
      "question": 5010,
      "oders": 5011,
      "Ġbef": 5012,
      "Ġboot": 5013,
      "Ġbroad": 5014,
      "Ġtyp": 5015,
      "owel": 5016,
      "context": 5017,
      "ĠFine": 5018,
      "ĠFoot": 5019,
      "ĠFollow": 5020,
      "ĠBit": 5021,
      "ĠBeg": 5022,
      "endable": 5023,
      "Ġhor": 5024,
      "Ġhar": 5025,
      "Ġhash": 5026,
      "Ġhapp": 5027,
      "Ġwater": 5028,
      "Ġwith": 5029,
      "assisted": 5030,
      "ensed": 5031,
      "ensity": 5032,
      "ĠInfl": 5033,
      "ĠInstruction": 5034,
      "ĠHum": 5035,
      "Ġgran": 5036,
      "Ġglob": 5037,
      "ĠOvers": 5038,
      "Ġnot": 5039,
      "ucked": 5040,
      "ĠWind": 5041,
      "science": 5042,
      "script": 5043,
      "ĠGen": 5044,
      "Ġcontext": 5045,
      "udge": 5046,
      "ĠNeg": 5047,
      "overing": 5048,
      "cludes": 5049,
      "angers": 5050,
      "shop": 5051,
      "sharing": 5052,
      "lown": 5053,
      "pointing": 5054,
      "Ġdepend": 5055,
      "ĠVis": 5056,
      "heets": 5057,
      "ightly": 5058,
      "racking": 5059,
      "compar": 5060,
      "computing": 5061,
      "competi": 5062,
      "owns": 5063,
      "positive": 5064,
      "directional": 5065,
      "Exec": 5066,
      "ĠExec": 5067,
      "Ġdiscre": 5068,
      "aware": 5069,
      "relations": 5070,
      "airing": 5071,
      "ounce": 5072,
      "tainers": 5073,
      "ĠEncod": 5074,
      "ĠChat": 5075,
      "subsid": 5076,
      "Ġjs": 5077,
      "Discre": 5078,
      "ĠDiscre": 5079,
      "ĠUltra": 5080,
      "modal": 5081,
      "modality": 5082,
      "many": 5083,
      "Resolution": 5084,
      "ridges": 5085,
      "grading": 5086,
      "graded": 5087,
      "urns": 5088,
      "viewed": 5089,
      "Activ": 5090,
      "iterate": 5091,
      "driver": 5092,
      "Parameter": 5093,
      "easy": 5094,
      "priv": 5095,
      "hips": 5096,
      "guided": 5097,
      "runc": 5098,
      "innings": 5099,
      "installing": 5100,
      "ructures": 5101,
      "Modern": 5102,
      "smart": 5103,
      "ields": 5104,
      "classified": 5105,
      "variate": 5106,
      "flows": 5107,
      "ieve": 5108,
      "eaks": 5109,
      "ĠBlack": 5110,
      "rafts": 5111,
      "Only": 5112,
      "listed": 5113,
      "allows": 5114,
      "Review": 5115,
      "Ġsmart": 5116,
      "morph": 5117,
      "versely": 5118,
      "minded": 5119,
      "placement": 5120,
      "digit": 5121,
      "symmetric": 5122,
      "threaded": 5123,
      "threading": 5124,
      "closure": 5125,
      "countable": 5126,
      "label": 5127,
      "labeled": 5128,
      "Ġpriv": 5129,
      "rolled": 5130,
      "assembled": 5131,
      "Acceler": 5132,
      "directed": 5133,
      "tuning": 5134,
      "Ġutil": 5135,
      "existence": 5136,
      "controlled": 5137,
      "World": 5138,
      "propagation": 5139,
      "supervised": 5140,
      "depth": 5141,
      "channel": 5142,
      "Amb": 5143,
      "Abs": 5144,
      "Bal": 5145,
      "Bur": 5146,
      "Broad": 5147,
      "CU": 5148,
      "Coun": 5149,
      "Du": 5150,
      "Div": 5151,
      "Differ": 5152,
      "Feature": 5153,
      "Frame": 5154,
      "Group": 5155,
      "Hon": 5156,
      "Hor": 5157,
      "How": 5158,
      "Half": 5159,
      "Ide": 5160,
      "Knowledge": 5161,
      "Lat": 5162,
      "List": 5163,
      "Life": 5164,
      "Me": 5165,
      "Mac": 5166,
      "Neigh": 5167,
      "Ow": 5168,
      "Obl": 5169,
      "Path": 5170,
      "Poss": 5171,
      "RM": 5172,
      "Rad": 5173,
      "Rot": 5174,
      "Seg": 5175,
      "Synchron": 5176,
      "Summar": 5177,
      "Speech": 5178,
      "Tre": 5179,
      "Toler": 5180,
      "Voc": 5181,
      "Vector": 5182,
      "We": 5183,
      "Water": 5184,
      "Weight": 5185,
      "ah": 5186,
      "aic": 5187,
      "afer": 5188,
      "auses": 5189,
      "brain": 5190,
      "cs": 5191,
      "camp": 5192,
      "caps": 5193,
      "clear": 5194,
      "copy": 5195,
      "dk": 5196,
      "don": 5197,
      "dation": 5198,
      "dream": 5199,
      "distrib": 5200,
      "differenti": 5201,
      "ely": 5202,
      "eating": 5203,
      "fers": 5204,
      "fish": 5205,
      "father": 5206,
      "gre": 5207,
      "gro": 5208,
      "gled": 5209,
      "gory": 5210,
      "gebra": 5211,
      "ih": 5212,
      "ienced": 5213,
      "junction": 5214,
      "ka": 5215,
      "kt": 5216,
      "kins": 5217,
      "late": 5218,
      "lared": 5219,
      "mac": 5220,
      "mid": 5221,
      "mise": 5222,
      "mits": 5223,
      "matrix": 5224,
      "nar": 5225,
      "noc": 5226,
      "next": 5227,
      "name": 5228,
      "oe": 5229,
      "oir": 5230,
      "oint": 5231,
      "oise": 5232,
      "oved": 5233,
      "oever": 5234,
      "oices": 5235,
      "pal": 5236,
      "pus": 5237,
      "pick": 5238,
      "rased": 5239,
      "rasing": 5240,
      "rints": 5241,
      "synthes": 5242,
      "sampling": 5243,
      "tem": 5244,
      "tax": 5245,
      "tures": 5246,
      "uating": 5247,
      "uance": 5248,
      "vac": 5249,
      "vet": 5250,
      "vals": 5251,
      "virt": 5252,
      "voice": 5253,
      "wood": 5254,
      "xy": 5255,
      "yping": 5256,
      "ypers": 5257,
      "zen": 5258,
      "zers": 5259,
      "zens": 5260,
      "Ġant": 5261,
      "Ġarg": 5262,
      "Ġups": 5263,
      "Ġtermin": 5264,
      "Ġandroid": 5265,
      "iner": 5266,
      "inus": 5267,
      "inates": 5268,
      "innov": 5269,
      "erod": 5270,
      "erry": 5271,
      "onents": 5272,
      "tir": 5273,
      "orp": 5274,
      "orig": 5275,
      "orter": 5276,
      "ority": 5277,
      "orable": 5278,
      "orate": 5279,
      "ortra": 5280,
      "orities": 5281,
      "revolution": 5282,
      "isper": 5283,
      "istered": 5284,
      "left": 5285,
      "item": 5286,
      "itative": 5287,
      "icul": 5288,
      "ician": 5289,
      "asion": 5290,
      "asiti": 5291,
      "asiveness": 5292,
      "rob": 5293,
      "rous": 5294,
      "robor": 5295,
      "robot": 5296,
      "raid": 5297,
      "unsh": 5298,
      "unge": 5299,
      "unte": 5300,
      "strac": 5301,
      "story": 5302,
      "string": 5303,
      "stabil": 5304,
      "stabl": 5305,
      "entry": 5306,
      "entrop": 5307,
      "uler": 5308,
      "ulted": 5309,
      "ulner": 5310,
      "ellect": 5311,
      "omain": 5312,
      "omew": 5313,
      "omatic": 5314,
      "acle": 5315,
      "acher": 5316,
      "accept": 5317,
      "abolic": 5318,
      "abouts": 5319,
      "illo": 5320,
      "Ġcent": 5321,
      "Ġcentr": 5322,
      "Ġclean": 5323,
      "Ġcrimin": 5324,
      "Ġstim": 5325,
      "Ġsepar": 5326,
      "urder": 5327,
      "olf": 5328,
      "oled": 5329,
      "olly": 5330,
      "olve": 5331,
      "older": 5332,
      "ĠSpl": 5333,
      "ĠSeg": 5334,
      "ĠSystem": 5335,
      "ĠSynchron": 5336,
      "ĠSepar": 5337,
      "ĠSummar": 5338,
      "etary": 5339,
      "ettes": 5340,
      "utf": 5341,
      "utters": 5342,
      "ĠCoun": 5343,
      "ĠCloud": 5344,
      "rier": 5345,
      "river": 5346,
      "cholar": 5347,
      "Ġpat": 5348,
      "Ġpopular": 5349,
      "demon": 5350,
      "developer": 5351,
      "ige": 5352,
      "igs": 5353,
      "tere": 5354,
      "amic": 5355,
      "amel": 5356,
      "aments": 5357,
      "ammers": 5358,
      "eme": 5359,
      "emes": 5360,
      "ĠPoss": 5361,
      "agu": 5362,
      "agues": 5363,
      "Ġdraw": 5364,
      "Ġdifferenti": 5365,
      "ceived": 5366,
      "imming": 5367,
      "import": 5368,
      "ĠAs": 5369,
      "ĠAmb": 5370,
      "ĠAbs": 5371,
      "ĠRad": 5372,
      "ĠRot": 5373,
      "ĠDiv": 5374,
      "vertible": 5375,
      "apy": 5376,
      "approxim": 5377,
      "idia": 5378,
      "Ġmac": 5379,
      "Ġmut": 5380,
      "Ġmid": 5381,
      "ategory": 5382,
      "explor": 5383,
      "ĠMachine": 5384,
      "opper": 5385,
      "irmed": 5386,
      "irms": 5387,
      "Ġreact": 5388,
      "Ġreli": 5389,
      "uple": 5390,
      "osity": 5391,
      "esty": 5392,
      "estep": 5393,
      "ĠTre": 5394,
      "ĠTechn": 5395,
      "quality": 5396,
      "odb": 5397,
      "odec": 5398,
      "otal": 5399,
      "oters": 5400,
      "otos": 5401,
      "Ġbar": 5402,
      "Ġbit": 5403,
      "ubbing": 5404,
      "owder": 5405,
      "Ġincre": 5406,
      "Ġintro": 5407,
      "Ġindic": 5408,
      "Ġinflu": 5409,
      "Ġinnov": 5410,
      "rane": 5411,
      "rances": 5412,
      "ĠBur": 5413,
      "ĠBroad": 5414,
      "ocity": 5415,
      "ocracy": 5416,
      "proved": 5417,
      "ousness": 5418,
      "Ġhow": 5419,
      "Ġhuman": 5420,
      "eping": 5421,
      "epper": 5422,
      "iper": 5423,
      "ippers": 5424,
      "rule": 5425,
      "ruits": 5426,
      "ĠHon": 5427,
      "ĠHor": 5428,
      "ĠHalf": 5429,
      "lingual": 5430,
      "spelling": 5431,
      "ĠLook": 5432,
      "Ġgrand": 5433,
      "ibilities": 5434,
      "inee": 5435,
      "inearity": 5436,
      "ĠOw": 5437,
      "ĠObl": 5438,
      "cohol": 5439,
      "ucc": 5440,
      "uction": 5441,
      "ucking": 5442,
      "ĠWe": 5443,
      "ĠWater": 5444,
      "avy": 5445,
      "egra": 5446,
      "scre": 5447,
      "scill": 5448,
      "Ġconnec": 5449,
      "earable": 5450,
      "encoder": 5451,
      "oks": 5452,
      "udg": 5453,
      "udget": 5454,
      "aller": 5455,
      "ishments": 5456,
      "boy": 5457,
      "Conv": 5458,
      "Config": 5459,
      "overl": 5460,
      "Ġstart": 5461,
      "Ġstream": 5462,
      "Ġstabil": 5463,
      "individu": 5464,
      "usts": 5465,
      "ustod": 5466,
      "object": 5467,
      "Ġll": 5468,
      "Ġlab": 5469,
      "urely": 5470,
      "ĠConv": 5471,
      "rects": 5472,
      "recomp": 5473,
      "ourced": 5474,
      "ourney": 5475,
      "ordering": 5476,
      "Stack": 5477,
      "illenn": 5478,
      "lesh": 5479,
      "rices": 5480,
      "ricted": 5481,
      "eby": 5482,
      "Ġvac": 5483,
      "Ġvector": 5484,
      "atise": 5485,
      "Ġdemon": 5486,
      "achiev": 5487,
      "ancer": 5488,
      "ancers": 5489,
      "ĠIde": 5490,
      "ĠStart": 5491,
      "ologic": 5492,
      "ortex": 5493,
      "ĠView": 5494,
      "entials": 5495,
      "heal": 5496,
      "heads": 5497,
      "Ġafter": 5498,
      "issing": 5499,
      "prepar": 5500,
      "viously": 5501,
      "onsm": 5502,
      "neys": 5503,
      "Enter": 5504,
      "ĠProv": 5505,
      "aires": 5506,
      "pective": 5507,
      "weigh": 5508,
      "weak": 5509,
      "uffy": 5510,
      "uffle": 5511,
      "ĠEnter": 5512,
      "interface": 5513,
      "ongo": 5514,
      "olls": 5515,
      "embers": 5516,
      "atters": 5517,
      "created": 5518,
      "duced": 5519,
      "Ġthread": 5520,
      "Ġthere": 5521,
      "appreci": 5522,
      "titudes": 5523,
      "anners": 5524,
      "annib": 5525,
      "Analy": 5526,
      "atern": 5527,
      "aterial": 5528,
      "designed": 5529,
      "caling": 5530,
      "valent": 5531,
      "ĠAnaly": 5532,
      "bery": 5533,
      "module": 5534,
      "accu": 5535,
      "meet": 5536,
      "ographer": 5537,
      "ographers": 5538,
      "Add": 5539,
      "ultant": 5540,
      "ĠAdd": 5541,
      "visu": 5542,
      "orned": 5543,
      "utely": 5544,
      "ooled": 5545,
      "argin": 5546,
      "arger": 5547,
      "argeted": 5548,
      "prints": 5549,
      "liament": 5550,
      "cepted": 5551,
      "cepting": 5552,
      "ceptible": 5553,
      "pended": 5554,
      "Ġqual": 5555,
      "apsed": 5556,
      "while": 5557,
      "azard": 5558,
      "rupting": 5559,
      "Paramet": 5560,
      "rawling": 5561,
      "tractions": 5562,
      "easible": 5563,
      "itching": 5564,
      "retch": 5565,
      "prioriti": 5566,
      "Ġactiv": 5567,
      "truth": 5568,
      "atism": 5569,
      "atises": 5570,
      "atistic": 5571,
      "attered": 5572,
      "attering": 5573,
      "missive": 5574,
      "missible": 5575,
      "Ġanaly": 5576,
      "rateg": 5577,
      "thetically": 5578,
      "doors": 5579,
      "ĠAuthor": 5580,
      "metry": 5581,
      "rounded": 5582,
      "puts": 5583,
      "mitt": 5584,
      "lexes": 5585,
      "amples": 5586,
      "aneously": 5587,
      "aneuver": 5588,
      "asket": 5589,
      "icians": 5590,
      "righten": 5591,
      "operating": 5592,
      "letes": 5593,
      "ielding": 5594,
      "iority": 5595,
      "estimon": 5596,
      "estimate": 5597,
      "estimating": 5598,
      "Object": 5599,
      "aunting": 5600,
      "vocation": 5601,
      "ponent": 5602,
      "ponents": 5603,
      "aturated": 5604,
      "ĠModel": 5605,
      "hibition": 5606,
      "hibited": 5607,
      "hibiting": 5608,
      "risk": 5609,
      "sett": 5610,
      "Manip": 5611,
      "urope": 5612,
      "iciently": 5613,
      "ulsive": 5614,
      "Ġindividu": 5615,
      "structive": 5616,
      "Agent": 5617,
      "steps": 5618,
      "Ġspeci": 5619,
      "idental": 5620,
      "identally": 5621,
      "placing": 5622,
      "keeping": 5623,
      "symbol": 5624,
      "imilar": 5625,
      "founded": 5626,
      "clusions": 5627,
      "configuration": 5628,
      "aults": 5629,
      "rieval": 5630,
      "maj": 5631,
      "hedral": 5632,
      "Ġlegitim": 5633,
      "orphic": 5634,
      "Ġsymbol": 5635,
      "cerned": 5636,
      "asticity": 5637,
      "sourced": 5638,
      "200": 5639,
      "roken": 5640,
      "Layer": 5641,
      "rincip": 5642,
      "obilenet": 5643,
      "brevi": 5644,
      "otropic": 5645,
      "preneur": 5646,
      "AS": 5647,
      "Aug": 5648,
      "Bas": 5649,
      "Blo": 5650,
      "Build": 5651,
      "Care": 5652,
      "Core": 5653,
      "Crypt": 5654,
      "Clean": 5655,
      "ER": 5656,
      "Fac": 5657,
      "Fil": 5658,
      "Feed": 5659,
      "Game": 5660,
      "Har": 5661,
      "Hel": 5662,
      "Hash": 5663,
      "Iter": 5664,
      "JS": 5665,
      "Java": 5666,
      "Live": 5667,
      "Light": 5668,
      "Linear": 5669,
      "Nar": 5670,
      "Pen": 5671,
      "Pun": 5672,
      "Page": 5673,
      "Part": 5674,
      "Range": 5675,
      "Stim": 5676,
      "Search": 5677,
      "Take": 5678,
      "Trust": 5679,
      "Type": 5680,
      "UI": 5681,
      "Util": 5682,
      "Word": 5683,
      "Wide": 5684,
      "Walk": 5685,
      "bes": 5686,
      "bel": 5687,
      "bled": 5688,
      "batch": 5689,
      "balls": 5690,
      "cu": 5691,
      "cro": 5692,
      "crow": 5693,
      "crowd": 5694,
      "dated": 5695,
      "dog": 5696,
      "document": 5697,
      "eated": 5698,
      "fi": 5699,
      "fs": 5700,
      "fair": 5701,
      "frag": 5702,
      "feature": 5703,
      "ho": 5704,
      "hole": 5705,
      "houses": 5706,
      "jure": 5707,
      "kind": 5708,
      "mess": 5709,
      "mag": 5710,
      "mine": 5711,
      "more": 5712,
      "max": 5713,
      "making": 5714,
      "motor": 5715,
      "memor": 5716,
      "multic": 5717,
      "null": 5718,
      "pg": 5719,
      "pin": 5720,
      "pped": 5721,
      "pping": 5722,
      "rings": 5723,
      "rises": 5724,
      "sets": 5725,
      "saf": 5726,
      "sole": 5727,
      "success": 5728,
      "sample": 5729,
      "tab": 5730,
      "talk": 5731,
      "uent": 5732,
      "zone": 5733,
      "Ġrac": 5734,
      "Ġrap": 5735,
      "Ġiter": 5736,
      "Ġamb": 5737,
      "Ġultra": 5738,
      "inux": 5739,
      "investig": 5740,
      "erates": 5741,
      "eding": 5742,
      "esis": 5743,
      "onate": 5744,
      "onating": 5745,
      "onations": 5746,
      "enumer": 5747,
      "orb": 5748,
      "ortion": 5749,
      "reach": 5750,
      "aned": 5751,
      "analysis": 5752,
      "lew": 5753,
      "itudes": 5754,
      "rav": 5755,
      "raps": 5756,
      "raising": 5757,
      "univers": 5758,
      "stated": 5759,
      "Ġcro": 5760,
      "Ġcloud": 5761,
      "Ġcategor": 5762,
      "Ġcalc": 5763,
      "Ġcrowd": 5764,
      "Ġsql": 5765,
      "Ġsemi": 5766,
      "Ġsuccess": 5767,
      "urts": 5768,
      "ĠStim": 5769,
      "ession": 5770,
      "ĠCrypt": 5771,
      "ĠCalc": 5772,
      "ĠClean": 5773,
      "chains": 5774,
      "Ġpol": 5775,
      "Ġpath": 5776,
      "Ġpower": 5777,
      "adv": 5778,
      "ĠPen": 5779,
      "ĠPun": 5780,
      "ĠPower": 5781,
      "Intro": 5782,
      "Indic": 5783,
      "Ġdrop": 5784,
      "Ġdiffer": 5785,
      "immers": 5786,
      "ĠDrop": 5787,
      "ĠDetermin": 5788,
      "ĠDirect": 5789,
      "verts": 5790,
      "Ġmig": 5791,
      "Ġmist": 5792,
      "Ġmaster": 5793,
      "Ġmotor": 5794,
      "Ġmemor": 5795,
      "Ġmultic": 5796,
      "umed": 5797,
      "ths": 5798,
      "plane": 5799,
      "extra": 5800,
      "Ġreal": 5801,
      "Ġrepresent": 5802,
      "Ġfree": 5803,
      "ositions": 5804,
      "ĠTe": 5805,
      "ĠTo": 5806,
      "ĠTake": 5807,
      "quad": 5808,
      "Ġbas": 5809,
      "Ġbest": 5810,
      "Ġburn": 5811,
      "Ġbeh": 5812,
      "Ġbusiness": 5813,
      "Ġtab": 5814,
      "Ġtake": 5815,
      "Ġtroub": 5816,
      "owels": 5817,
      "Ġinters": 5818,
      "Ġindex": 5819,
      "ĠFil": 5820,
      "ĠFree": 5821,
      "ĠFeed": 5822,
      "ĠBas": 5823,
      "ĠBet": 5824,
      "ĠBlo": 5825,
      "ocused": 5826,
      "project": 5827,
      "profession": 5828,
      "unds": 5829,
      "Ġwhe": 5830,
      "mentary": 5831,
      "ĠIntro": 5832,
      "ĠIndic": 5833,
      "ĠHar": 5834,
      "ĠHel": 5835,
      "ĠHash": 5836,
      "spaces": 5837,
      "ĠLive": 5838,
      "Ġgr": 5839,
      "phrase": 5840,
      "covers": 5841,
      "course": 5842,
      "Ġnar": 5843,
      "Ġneed": 5844,
      "Ġneigh": 5845,
      "ĠGraph": 5846,
      "Ġconfig": 5847,
      "early": 5848,
      "ĠNar": 5849,
      "Ġstandard": 5850,
      "show": 5851,
      "Ġlist": 5852,
      "Ġlight": 5853,
      "ellular": 5854,
      "rammar": 5855,
      "Stand": 5856,
      "Stabil": 5857,
      "Standard": 5858,
      "rical": 5859,
      "ĠIs": 5860,
      "ĠIter": 5861,
      "miner": 5862,
      "ĠStand": 5863,
      "ĠStream": 5864,
      "ĠStabil": 5865,
      "Ġextra": 5866,
      "parts": 5867,
      "rowing": 5868,
      "isses": 5869,
      "issions": 5870,
      "ightful": 5871,
      "tou": 5872,
      "compress": 5873,
      "Ġprocess": 5874,
      "ventions": 5875,
      "osted": 5876,
      "Progress": 5877,
      "awns": 5878,
      "neutr": 5879,
      "Engine": 5880,
      "Ġchat": 5881,
      "Char": 5882,
      "Character": 5883,
      "relational": 5884,
      "ounced": 5885,
      "ouncing": 5886,
      "week": 5887,
      "Ġshow": 5888,
      "fores": 5889,
      "ixing": 5890,
      "Ġrun": 5891,
      "axed": 5892,
      "axing": 5893,
      "embling": 5894,
      "ĠChar": 5895,
      "ĠCharacter": 5896,
      "Shot": 5897,
      "ickle": 5898,
      "ductivity": 5899,
      "troub": 5900,
      "Analog": 5901,
      "ĠUtil": 5902,
      "Ġspect": 5903,
      "values": 5904,
      "ĠAnalog": 5905,
      "Ġadd": 5906,
      "Ġadv": 5907,
      "rational": 5908,
      "critic": 5909,
      "readed": 5910,
      "lector": 5911,
      "presses": 5912,
      "pressing": 5913,
      "Adap": 5914,
      "seri": 5915,
      "adequ": 5916,
      "persu": 5917,
      "logs": 5918,
      "common": 5919,
      "commod": 5920,
      "community": 5921,
      "ĠJava": 5922,
      "layered": 5923,
      "umbles": 5924,
      "gradu": 5925,
      "liqu": 5926,
      "Arm": 5927,
      "pends": 5928,
      "Ġquad": 5929,
      "Ġenumer": 5930,
      "ĠActiv": 5931,
      "equipped": 5932,
      "Cluster": 5933,
      "refresh": 5934,
      "ĠArm": 5935,
      "ĠCode": 5936,
      "centr": 5937,
      "venting": 5938,
      "Ġaccess": 5939,
      "played": 5940,
      "worked": 5941,
      "worthy": 5942,
      "theore": 5943,
      "runk": 5944,
      "puted": 5945,
      "Ġradic": 5946,
      "Plug": 5947,
      "Ġrecogn": 5948,
      "urations": 5949,
      "installed": 5950,
      "passing": 5951,
      "organization": 5952,
      "ĠPlug": 5953,
      "misc": 5954,
      "Represent": 5955,
      "Defin": 5956,
      "Defined": 5957,
      "Ġblack": 5958,
      "ĠRepresent": 5959,
      "covering": 5960,
      "coverable": 5961,
      "quires": 5962,
      "cycle": 5963,
      "skill": 5964,
      "Training": 5965,
      "Ġminer": 5966,
      "connects": 5967,
      "counts": 5968,
      "Ġtraum": 5969,
      "fitted": 5970,
      "changed": 5971,
      "request": 5972,
      "chemical": 5973,
      "balance": 5974,
      "Ġenter": 5975,
      "ĠModern": 5976,
      "google": 5977,
      "produced": 5978,
      "productive": 5979,
      "faced": 5980,
      "Related": 5981,
      "linked": 5982,
      "dependence": 5983,
      "ditionally": 5984,
      "ikes": 5985,
      "Correct": 5986,
      "informative": 5987,
      "Ġcompl": 5988,
      "positional": 5989,
      "Ġatten": 5990,
      "biased": 5991,
      "digital": 5992,
      "content": 5993,
      "claiming": 5994,
      "Demon": 5995,
      "Superv": 5996,
      "pathy": 5997,
      "activation": 5998,
      "ĠDemon": 5999,
      "Termin": 6000,
      "validation": 6001,
      "optimized": 6002,
      "ĠTermin": 6003,
      "mediate": 6004,
      "Value": 6005,
      "startup": 6006,
      "Ġneutr": 6007,
      "econds": 6008,
      "Ġgoogle": 6009,
      "integrated": 6010,
      "technical": 6011,
      "Tuning": 6012,
      "aspberry": 6013,
      "growing": 6014,
      "checked": 6015,
      "qualified": 6016,
      "whelming": 6017,
      "Error": 6018,
      "Encoder": 6019,
      "sheets": 6020,
      "86": 6021,
      "Ax": 6022,
      "Big": 6023,
      "CNN": 6024,
      "Dil": 6025,
      "Domin": 6026,
      "Distrib": 6027,
      "Devel": 6028,
      "EM": 6029,
      "Fact": 6030,
      "GG": 6031,
      "Hot": 6032,
      "Happ": 6033,
      "Lock": 6034,
      "Length": 6035,
      "Like": 6036,
      "Mind": 6037,
      "Master": 6038,
      "Magn": 6039,
      "Mechan": 6040,
      "Memor": 6041,
      "OM": 6042,
      "Orig": 6043,
      "Ps": 6044,
      "Pref": 6045,
      "Public": 6046,
      "Peer": 6047,
      "Prim": 6048,
      "Que": 6049,
      "Qual": 6050,
      "Run": 6051,
      "Radi": 6052,
      "SE": 6053,
      "Sal": 6054,
      "Sem": 6055,
      "Swe": 6056,
      "Success": 6057,
      "Synthes": 6058,
      "Ty": 6059,
      "Tor": 6060,
      "There": 6061,
      "Token": 6062,
      "Touch": 6063,
      "VM": 6064,
      "Vib": 6065,
      "Win": 6066,
      "War": 6067,
      "Watch": 6068,
      "With": 6069,
      "Writ": 6070,
      "aited": 6071,
      "aused": 6072,
      "bers": 6073,
      "big": 6074,
      "buff": 6075,
      "cens": 6076,
      "cred": 6077,
      "civil": 6078,
      "eering": 6079,
      "food": 6080,
      "feed": 6081,
      "fox": 6082,
      "fault": 6083,
      "faith": 6084,
      "frequency": 6085,
      "gres": 6086,
      "hel": 6087,
      "hist": 6088,
      "hack": 6089,
      "hill": 6090,
      "habil": 6091,
      "half": 6092,
      "heart": 6093,
      "hypothes": 6094,
      "help": 6095,
      "iation": 6096,
      "iet": 6097,
      "irac": 6098,
      "iances": 6099,
      "ialism": 6100,
      "ju": 6101,
      "junc": 6102,
      "journ": 6103,
      "kin": 6104,
      "killing": 6105,
      "lation": 6106,
      "mant": 6107,
      "mised": 6108,
      "magn": 6109,
      "mature": 6110,
      "nan": 6111,
      "night": 6112,
      "note": 6113,
      "nership": 6114,
      "natural": 6115,
      "oter": 6116,
      "pent": 6117,
      "pages": 6118,
      "pict": 6119,
      "rul": 6120,
      "rus": 6121,
      "rity": 6122,
      "ratch": 6123,
      "rute": 6124,
      "rums": 6125,
      "sal": 6126,
      "sav": 6127,
      "squir": 6128,
      "try": 6129,
      "tail": 6130,
      "tasks": 6131,
      "uy": 6132,
      "uities": 6133,
      "vail": 6134,
      "wen": 6135,
      "wall": 6136,
      "Ġod": 6137,
      "Ġign": 6138,
      "Ġtick": 6139,
      "ina": 6140,
      "intim": 6141,
      "inher": 6142,
      "eras": 6143,
      "erable": 6144,
      "erge": 6145,
      "eded": 6146,
      "ese": 6147,
      "esh": 6148,
      "escap": 6149,
      "tily": 6150,
      "tist": 6151,
      "tiff": 6152,
      "tising": 6153,
      "ingual": 6154,
      "enable": 6155,
      "ald": 6156,
      "aler": 6157,
      "alked": 6158,
      "orer": 6159,
      "rece": 6160,
      "rets": 6161,
      "revers": 6162,
      "refer": 6163,
      "review": 6164,
      "arth": 6165,
      "arist": 6166,
      "arcas": 6167,
      "isk": 6168,
      "leet": 6169,
      "leman": 6170,
      "itty": 6171,
      "iteness": 6172,
      "ictim": 6173,
      "asked": 6174,
      "asions": 6175,
      "rode": 6176,
      "roth": 6177,
      "rote": 6178,
      "roads": 6179,
      "raying": 6180,
      "unts": 6181,
      "stri": 6182,
      "studio": 6183,
      "ulmin": 6184,
      "eces": 6185,
      "ecode": 6186,
      "eculi": 6187,
      "oming": 6188,
      "oman": 6189,
      "omeness": 6190,
      "acon": 6191,
      "acqu": 6192,
      "abling": 6193,
      "abys": 6194,
      "ilk": 6195,
      "Ġcred": 6196,
      "Ġcare": 6197,
      "Ġcritic": 6198,
      "Ġsal": 6199,
      "Ġscal": 6200,
      "Ġseas": 6201,
      "Ġsquir": 6202,
      "Ġsumm": 6203,
      "uries": 6204,
      "olt": 6205,
      "ĠSal": 6206,
      "ĠSem": 6207,
      "ĠSwe": 6208,
      "ĠScal": 6209,
      "ĠSuccess": 6210,
      "essential": 6211,
      "ussing": 6212,
      "riends": 6213,
      "Ġpet": 6214,
      "Ġpain": 6215,
      "Ġperv": 6216,
      "Ġpict": 6217,
      "Ġprim": 6218,
      "lots": 6219,
      "deploy": 6220,
      "deavour": 6221,
      "adness": 6222,
      "administ": 6223,
      "amor": 6224,
      "amas": 6225,
      "amous": 6226,
      "ammed": 6227,
      "amily": 6228,
      "amorph": 6229,
      "ĠPath": 6230,
      "ĠPref": 6231,
      "ĠPrim": 6232,
      "Inform": 6233,
      "Incre": 6234,
      "Index": 6235,
      "Innov": 6236,
      "Ġdu": 6237,
      "Ġdream": 6238,
      "Ġdomin": 6239,
      "Ġdistrib": 6240,
      "imps": 6241,
      "ĠRun": 6242,
      "ĠRadi": 6243,
      "ĠDo": 6244,
      "ĠDu": 6245,
      "ĠDil": 6246,
      "ĠDiffer": 6247,
      "ĠDomin": 6248,
      "ĠDistrib": 6249,
      "ĠDevel": 6250,
      "idar": 6251,
      "idual": 6252,
      "idently": 6253,
      "Ġme": 6254,
      "Ġmel": 6255,
      "Ġmind": 6256,
      "Ġmagn": 6257,
      "Ġmaj": 6258,
      "though": 6259,
      "exception": 6260,
      "ĠMac": 6261,
      "ĠMaster": 6262,
      "ĠMagn": 6263,
      "ĠMechan": 6264,
      "ĠMemor": 6265,
      "opro": 6266,
      "irling": 6267,
      "irty": 6268,
      "Ġrecomp": 6269,
      "Ġrefer": 6270,
      "Ġretri": 6271,
      "Ġrevolution": 6272,
      "Ġfac": 6273,
      "Ġfram": 6274,
      "Ġfollow": 6275,
      "Ġfront": 6276,
      "oser": 6277,
      "estor": 6278,
      "estly": 6279,
      "ĠThere": 6280,
      "ifiable": 6281,
      "quan": 6282,
      "quanti": 6283,
      "odies": 6284,
      "odiment": 6285,
      "Ġbul": 6286,
      "ubers": 6287,
      "ubborn": 6288,
      "Ġtool": 6289,
      "Ġtype": 6290,
      "owl": 6291,
      "ionic": 6292,
      "istance": 6293,
      "confl": 6294,
      "concept": 6295,
      "connect": 6296,
      "Ġintim": 6297,
      "Ġinform": 6298,
      "Ġinher": 6299,
      "ĠFact": 6300,
      "ĠFactor": 6301,
      "ĠFeature": 6302,
      "ranch": 6303,
      "ĠBig": 6304,
      "ĠBook": 6305,
      "endo": 6306,
      "endant": 6307,
      "proach": 6308,
      "proves": 6309,
      "progress": 6310,
      "ffic": 6311,
      "Ġhel": 6312,
      "Ġhot": 6313,
      "Ġhalf": 6314,
      "Ġheart": 6315,
      "Ġhypothes": 6316,
      "Ġwar": 6317,
      "Ġwid": 6318,
      "Ġwide": 6319,
      "Ġwalk": 6320,
      "Ġwhere": 6321,
      "Ġweak": 6322,
      "Ġweigh": 6323,
      "assy": 6324,
      "iped": 6325,
      "iping": 6326,
      "ĠInform": 6327,
      "ĠIncre": 6328,
      "ĠIndex": 6329,
      "ĠInnov": 6330,
      "andsc": 6331,
      "ĠHapp": 6332,
      "lingu": 6333,
      "spell": 6334,
      "spire": 6335,
      "ĠLat": 6336,
      "Ġgam": 6337,
      "Ġgpt": 6338,
      "Ġgraph": 6339,
      "Ġgame": 6340,
      "inely": 6341,
      "perpet": 6342,
      "Ġunt": 6343,
      "cost": 6344,
      "Ġnan": 6345,
      "ugger": 6346,
      "ĠWar": 6347,
      "ĠWith": 6348,
      "eget": 6349,
      "eworks": 6350,
      "ĠGroup": 6351,
      "Ġconfl": 6352,
      "earth": 6353,
      "earched": 6354,
      "okers": 6355,
      "udden": 6356,
      "ĠNeigh": 6357,
      "allant": 6358,
      "ishness": 6359,
      "Ġstri": 6360,
      "Ġstand": 6361,
      "Ġstud": 6362,
      "industri": 6363,
      "objective": 6364,
      "oblig": 6365,
      "Ġlat": 6366,
      "Ġlay": 6367,
      "Ġlive": 6368,
      "ageable": 6369,
      "urement": 6370,
      "rections": 6371,
      "astly": 6372,
      "Star": 6373,
      "Stud": 6374,
      "Styl": 6375,
      "ricts": 6376,
      "pointed": 6377,
      "Ġvs": 6378,
      "Ġvirt": 6379,
      "Ġviol": 6380,
      "atizing": 6381,
      "atizes": 6382,
      "ommod": 6383,
      "minent": 6384,
      "ĠStud": 6385,
      "ĠStyl": 6386,
      "Ġexplo": 6387,
      "parti": 6388,
      "locations": 6389,
      "ronics": 6390,
      "ĠVib": 6391,
      "ĠVector": 6392,
      "entist": 6393,
      "entiment": 6394,
      "owner": 6395,
      "owned": 6396,
      "Ġproduct": 6397,
      "direction": 6398,
      "arely": 6399,
      "discrimin": 6400,
      "ribed": 6401,
      "Ġdiscrimin": 6402,
      "viol": 6403,
      "awning": 6404,
      "eteros": 6405,
      "flip": 6406,
      "ync": 6407,
      "ialist": 6408,
      "veled": 6409,
      "energ": 6410,
      "energy": 6411,
      "ountain": 6412,
      "weighting": 6413,
      "uffling": 6414,
      "ixels": 6415,
      "plicity": 6416,
      "axi": 6417,
      "attles": 6418,
      "crete": 6419,
      "ickest": 6420,
      "ickness": 6421,
      "duces": 6422,
      "Ġimplement": 6423,
      "aft": 6424,
      "Quan": 6425,
      "Quad": 6426,
      "Question": 6427,
      "mode": 6428,
      "Discrimin": 6429,
      "office": 6430,
      "ĠDiscrimin": 6431,
      "title": 6432,
      "Answ": 6433,
      "desk": 6434,
      "ringe": 6435,
      "Ġrespons": 6436,
      "Ġadap": 6437,
      "reads": 6438,
      "readable": 6439,
      "accur": 6440,
      "metic": 6441,
      "Ġcomputer": 6442,
      "eeks": 6443,
      "authentic": 6444,
      "Adv": 6445,
      "volves": 6446,
      "volunt": 6447,
      "reaks": 6448,
      "reaking": 6449,
      "noo": 6450,
      "ĠAdv": 6451,
      "ĠKnowledge": 6452,
      "curred": 6453,
      "Recogn": 6454,
      "ĠRecogn": 6455,
      "ushy": 6456,
      "Through": 6457,
      "Ġrob": 6458,
      "monopol": 6459,
      "Ġlem": 6460,
      "ceptive": 6461,
      "randing": 6462,
      "netes": 6463,
      "Ġquan": 6464,
      "Ġquanti": 6465,
      "apses": 6466,
      "Ġdecre": 6467,
      "rapes": 6468,
      "meric": 6469,
      "untu": 6470,
      "diction": 6471,
      "Ġpartic": 6472,
      "Ġparameter": 6473,
      "azy": 6474,
      "azon": 6475,
      "rupts": 6476,
      "rawl": 6477,
      "Ġperpet": 6478,
      "Ġapproxim": 6479,
      "rusts": 6480,
      "rusting": 6481,
      "Ġacqu": 6482,
      "Ġoblig": 6483,
      "ealthy": 6484,
      "atised": 6485,
      "atisfac": 6486,
      "Approxim": 6487,
      "affle": 6488,
      "affles": 6489,
      "ossy": 6490,
      "osses": 6491,
      "worth": 6492,
      "Ġanim": 6493,
      "meth": 6494,
      "rounds": 6495,
      "ĠApproxim": 6496,
      "ereot": 6497,
      "siders": 6498,
      "ĠQuan": 6499,
      "ĠQuad": 6500,
      "ĠQuestion": 6501,
      "uckle": 6502,
      "ucket": 6503,
      "ttp": 6504,
      "anker": 6505,
      "ielded": 6506,
      "ensely": 6507,
      "generation": 6508,
      "stitute": 6509,
      "stitutes": 6510,
      "stitutions": 6511,
      "Ġcommunic": 6512,
      "ophistic": 6513,
      "estimation": 6514,
      "estimated": 6515,
      "estimates": 6516,
      "Ġeval": 6517,
      "Ġevent": 6518,
      "surprising": 6519,
      "Depth": 6520,
      "glom": 6521,
      "tight": 6522,
      "romatic": 6523,
      "coded": 6524,
      "aunch": 6525,
      "aunted": 6526,
      "requently": 6527,
      "efulness": 6528,
      "Ġamor": 6529,
      "hibit": 6530,
      "hibits": 6531,
      "ĠObject": 6532,
      "alfunction": 6533,
      "emption": 6534,
      "Colon": 6535,
      "Ġindustri": 6536,
      "uggling": 6537,
      "clean": 6538,
      "Ġmonopol": 6539,
      "ĠColon": 6540,
      "erci": 6541,
      "ercial": 6542,
      "elta": 6543,
      "irable": 6544,
      "wares": 6545,
      "keepers": 6546,
      "digiti": 6547,
      "Atten": 6548,
      "oader": 6549,
      "ynamically": 6550,
      "emini": 6551,
      "planted": 6552,
      "clusively": 6553,
      "totype": 6554,
      "rogate": 6555,
      "Ġmanip": 6556,
      "collabor": 6557,
      "Ġprioriti": 6558,
      "amental": 6559,
      "ĠManip": 6560,
      "engineers": 6561,
      "Smart": 6562,
      "ĠSmart": 6563,
      "fortun": 6564,
      "ĠAtten": 6565,
      "ivalent": 6566,
      "Ġorig": 6567,
      "gnostic": 6568,
      "Ġcollabor": 6569,
      "rongly": 6570,
      "plexity": 6571,
      "Learn": 6572,
      "ublished": 6573,
      "ensorflow": 6574,
      "agrams": 6575,
      "automated": 6576,
      "canon": 6577,
      "Ġmotiv": 6578,
      "cribing": 6579,
      "provement": 6580,
      "rypted": 6581,
      "pooling": 6582,
      "Device": 6583,
      "Ġoccup": 6584,
      "ummy": 6585,
      "iconduct": 6586,
      "addles": 6587,
      "courage": 6588,
      "atisfied": 6589,
      "ĠQue": 6590,
      "ĠQual": 6591,
      "obileNet": 6592,
      "rudence": 6593,
      "types": 6594,
      "close": 6595,
      "habit": 6596,
      "jacent": 6597,
      "Ġdigiti": 6598,
      "201": 6599,
      "Employ": 6600,
      "ysicist": 6601,
      "stitutional": 6602,
      "relevant": 6603,
      "perfect": 6604,
      "parametric": 6605,
      "Robot": 6606,
      "Ġcanon": 6607,
      "idelity": 6608,
      "computers": 6609,
      "ashioned": 6610,
      "Sequence": 6611,
      "hythm": 6612,
      "ubernetes": 6613,
      "Connected": 6614,
      "courag": 6615,
      "STM": 6616,
      "speech": 6617,
      "adigm": 6618,
      "tereot": 6619,
      "Act": 6620,
      "Bul": 6621,
      "Best": 6622,
      "Beh": 6623,
      "Cro": 6624,
      "Cred": 6625,
      "Categor": 6626,
      "Critic": 6627,
      "Draw": 6628,
      "DNN": 6629,
      "Distribution": 6630,
      "Ep": 6631,
      "Educ": 6632,
      "Emer": 6633,
      "Estim": 6634,
      "Fi": 6635,
      "Fund": 6636,
      "Fix": 6637,
      "Frag": 6638,
      "Front": 6639,
      "Gam": 6640,
      "Gran": 6641,
      "Grand": 6642,
      "HT": 6643,
      "Ign": 6644,
      "Law": 6645,
      "LSTM": 6646,
      "Mel": 6647,
      "Mig": 6648,
      "Mist": 6649,
      "Mail": 6650,
      "Max": 6651,
      "Meas": 6652,
      "Matrix": 6653,
      "Numer": 6654,
      "OC": 6655,
      "Oct": 6656,
      "Ops": 6657,
      "PG": 6658,
      "PI": 6659,
      "Pat": 6660,
      "Pol": 6661,
      "Pos": 6662,
      "Pick": 6663,
      "Python": 6664,
      "Rer": 6665,
      "Rac": 6666,
      "Ray": 6667,
      "Rain": 6668,
      "Rele": 6669,
      "Rank": 6670,
      "RAM": 6671,
      "SI": 6672,
      "Ser": 6673,
      "Sing": 6674,
      "Snow": 6675,
      "Simpl": 6676,
      "Tech": 6677,
      "Tool": 6678,
      "Torch": 6679,
      "Ur": 6680,
      "VA": 6681,
      "Viol": 6682,
      "Wild": 6683,
      "Weak": 6684,
      "Weigh": 6685,
      "bon": 6686,
      "bro": 6687,
      "bew": 6688,
      "bits": 6689,
      "bull": 6690,
      "bee": 6691,
      "body": 6692,
      "bird": 6693,
      "battle": 6694,
      "cased": 6695,
      "culti": 6696,
      "corn": 6697,
      "cache": 6698,
      "circum": 6699,
      "crystall": 6700,
      "dam": 6701,
      "dates": 6702,
      "due": 6703,
      "drag": 6704,
      "dark": 6705,
      "divers": 6706,
      "documented": 6707,
      "eered": 6708,
      "fail": 6709,
      "fore": 6710,
      "faces": 6711,
      "fresh": 6712,
      "fixed": 6713,
      "hoc": 6714,
      "hold": 6715,
      "haul": 6716,
      "iked": 6717,
      "junctions": 6718,
      "knowledg": 6719,
      "len": 6720,
      "liber": 6721,
      "lasting": 6722,
      "lighting": 6723,
      "mates": 6724,
      "machine": 6725,
      "mobility": 6726,
      "numer": 6727,
      "peg": 6728,
      "patched": 6729,
      "paste": 6730,
      "pixel": 6731,
      "rash": 6732,
      "sne": 6733,
      "some": 6734,
      "schem": 6735,
      "simpl": 6736,
      "sales": 6737,
      "sleep": 6738,
      "sexu": 6739,
      "sweet": 6740,
      "software": 6741,
      "tor": 6742,
      "tter": 6743,
      "tles": 6744,
      "tml": 6745,
      "torch": 6746,
      "tasking": 6747,
      "uable": 6748,
      "utility": 6749,
      "viv": 6750,
      "vote": 6751,
      "voted": 6752,
      "votes": 6753,
      "vapor": 6754,
      "was": 6755,
      "wher": 6756,
      "walks": 6757,
      "xml": 6758,
      "yeb": 6759,
      "zip": 6760,
      "Ġlock": 6761,
      "Ġampl": 6762,
      "Ġorient": 6763,
      "Ġie": 6764,
      "Ġeduc": 6765,
      "Ġoct": 6766,
      "Ġangular": 6767,
      "Ġoscill": 6768,
      "ini": 6769,
      "erk": 6770,
      "escal": 6771,
      "onally": 6772,
      "tiles": 6773,
      "enhanced": 6774,
      "aligned": 6775,
      "orations": 6776,
      "rely": 6777,
      "realistic": 6778,
      "analog": 6779,
      "areness": 6780,
      "array": 6781,
      "isp": 6782,
      "isons": 6783,
      "leted": 6784,
      "icrow": 6785,
      "aser": 6786,
      "asual": 6787,
      "rots": 6788,
      "raised": 6789,
      "raises": 6790,
      "union": 6791,
      "unking": 6792,
      "unities": 6793,
      "uniform": 6794,
      "std": 6795,
      "stood": 6796,
      "stances": 6797,
      "strap": 6798,
      "entation": 6799,
      "ecked": 6800,
      "about": 6801,
      "ilinear": 6802,
      "Ġcos": 6803,
      "Ġclear": 6804,
      "Ġcopy": 6805,
      "Ġcircum": 6806,
      "Ġcrystall": 6807,
      "Ġschem": 6808,
      "Ġsimpl": 6809,
      "Ġsleep": 6810,
      "Ġsexu": 6811,
      "Ġsweet": 6812,
      "Ġsoftware": 6813,
      "olved": 6814,
      "ĠSer": 6815,
      "ĠSing": 6816,
      "ĠSide": 6817,
      "ĠSnow": 6818,
      "ĠSimpl": 6819,
      "ĠSemi": 6820,
      "utability": 6821,
      "ĠCro": 6822,
      "ĠCred": 6823,
      "ĠCare": 6824,
      "ĠCategor": 6825,
      "ĠCritic": 6826,
      "usability": 6827,
      "chair": 6828,
      "Ġpot": 6829,
      "Ġport": 6830,
      "dead": 6831,
      "dequ": 6832,
      "adow": 6833,
      "adder": 6834,
      "advis": 6835,
      "addle": 6836,
      "advert": 6837,
      "advantage": 6838,
      "amy": 6839,
      "emo": 6840,
      "ĠPat": 6841,
      "ĠPol": 6842,
      "ĠPart": 6843,
      "ĠPick": 6844,
      "Influ": 6845,
      "Investig": 6846,
      "Ġday": 6847,
      "Ġdrag": 6848,
      "Ġdark": 6849,
      "Ġdivers": 6850,
      "ceful": 6851,
      "ceive": 6852,
      "cefully": 6853,
      "imped": 6854,
      "ĠAct": 6855,
      "ĠRer": 6856,
      "ĠRac": 6857,
      "ĠRain": 6858,
      "ĠRandom": 6859,
      "ĠDraw": 6860,
      "verge": 6861,
      "verging": 6862,
      "verges": 6863,
      "verbal": 6864,
      "vergence": 6865,
      "appe": 6866,
      "idi": 6867,
      "idding": 6868,
      "Ġment": 6869,
      "Ġmess": 6870,
      "Ġmag": 6871,
      "Ġmeas": 6872,
      "ticing": 6873,
      "ummed": 6874,
      "thog": 6875,
      "plays": 6876,
      "pliers": 6877,
      "exped": 6878,
      "existing": 6879,
      "expected": 6880,
      "ĠMel": 6881,
      "ĠMig": 6882,
      "ĠMist": 6883,
      "ĠMeas": 6884,
      "opened": 6885,
      "irrit": 6886,
      "Ġrecomm": 6887,
      "Ġfund": 6888,
      "Ġfail": 6889,
      "Ġfact": 6890,
      "Ġfore": 6891,
      "Ġfrag": 6892,
      "esters": 6893,
      "ĠTree": 6894,
      "ĠTool": 6895,
      "ĠType": 6896,
      "odor": 6897,
      "Ġbro": 6898,
      "Ġbew": 6899,
      "Ġten": 6900,
      "Ġtru": 6901,
      "Ġtoler": 6902,
      "Ġtoken": 6903,
      "Ġtouch": 6904,
      "Ġtooth": 6905,
      "istently": 6906,
      "ĠEp": 6907,
      "ĠEmer": 6908,
      "ĠEstim": 6909,
      "contr": 6910,
      "concer": 6911,
      "constrained": 6912,
      "Ġinvestig": 6913,
      "ĠFac": 6914,
      "ĠFund": 6915,
      "ĠFace": 6916,
      "ĠFrag": 6917,
      "ĠFront": 6918,
      "ranging": 6919,
      "ĠBul": 6920,
      "ĠBest": 6921,
      "occurrence": 6922,
      "occurring": 6923,
      "endors": 6924,
      "Univers": 6925,
      "provis": 6926,
      "atings": 6927,
      "Ġhes": 6928,
      "Ġhost": 6929,
      "Ġwher": 6930,
      "assess": 6931,
      "ensions": 6932,
      "ensively": 6933,
      "ainted": 6934,
      "orms": 6935,
      "ighth": 6936,
      "ĠInflu": 6937,
      "ĠInvestig": 6938,
      "rests": 6939,
      "ĠHow": 6940,
      "spiring": 6941,
      "ĠLab": 6942,
      "ĠLay": 6943,
      "ĠLight": 6944,
      "Ġgent": 6945,
      "Ġget": 6946,
      "Ġgroup": 6947,
      "phon": 6948,
      "pertin": 6949,
      "ĠOct": 6950,
      "coin": 6951,
      "coordin": 6952,
      "ledged": 6953,
      "Ġnull": 6954,
      "Ġnumer": 6955,
      "Ġnecess": 6956,
      "ĠWild": 6957,
      "ĠWalk": 6958,
      "ĠWeak": 6959,
      "avoring": 6960,
      "trade": 6961,
      "screw": 6962,
      "ĠGam": 6963,
      "ĠGran": 6964,
      "ĠGrand": 6965,
      "Ġcontr": 6966,
      "ĠNumer": 6967,
      "bots": 6968,
      "Contr": 6969,
      "overed": 6970,
      "Ġstat": 6971,
      "Ġstar": 6972,
      "Ġstep": 6973,
      "clust": 6974,
      "client": 6975,
      "click": 6976,
      "industry": 6977,
      "share": 6978,
      "shake": 6979,
      "sharp": 6980,
      "outed": 6981,
      "Ġlif": 6982,
      "Ġliv": 6983,
      "Ġlaw": 6984,
      "Ġliter": 6985,
      "Ġliber": 6986,
      "ĠConnec": 6987,
      "ĠContr": 6988,
      "recomm": 6989,
      "ramble": 6990,
      "Stop": 6991,
      "illions": 6992,
      "Ġvapor": 6993,
      "reduc": 6994,
      "Ġdevelop": 6995,
      "ĠID": 6996,
      "ĠIT": 6997,
      "ĠIgn": 6998,
      "mining": 6999,
      "miniatur": 7000,
      "Ġexam": 7001,
      "Ġexped": 7002,
      "particip": 7003,
      "ronic": 7004,
      "ronically": 7005,
      "ĠViol": 7006,
      "rowns": 7007,
      "rowned": 7008,
      "issed": 7009,
      "tooth": 7010,
      "complex": 7011,
      "comprehens": 7012,
      "versed": 7013,
      "versing": 7014,
      "versal": 7015,
      "versions": 7016,
      "Explo": 7017,
      "Product": 7018,
      "ofs": 7019,
      "typed": 7020,
      "cesses": 7021,
      "ĠExplo": 7022,
      "atcher": 7023,
      "flies": 7024,
      "blems": 7025,
      "ught": 7026,
      "Child": 7027,
      "rels": 7028,
      "relate": 7029,
      "forget": 7030,
      "forces": 7031,
      "interpol": 7032,
      "Ġjus": 7033,
      "attacks": 7034,
      "duck": 7035,
      "Ġthe": 7036,
      "Ġthought": 7037,
      "Ġsubsid": 7038,
      "Quanti": 7039,
      "moving": 7040,
      "Ant": 7041,
      "Anim": 7042,
      "ĠUr": 7043,
      "ĠUps": 7044,
      "region": 7045,
      "inky": 7046,
      "ĠAnt": 7047,
      "ĠAnim": 7048,
      "berries": 7049,
      "modified": 7050,
      "modeling": 7051,
      "accum": 7052,
      "specified": 7053,
      "managed": 7054,
      "manager": 7055,
      "means": 7056,
      "riters": 7057,
      "Ġcompar": 7058,
      "Compar": 7059,
      "Computer": 7060,
      "serve": 7061,
      "node": 7062,
      "ĠAdap": 7063,
      "linearity": 7064,
      "logging": 7065,
      "visual": 7066,
      "visited": 7067,
      "Resource": 7068,
      "Respons": 7069,
      "command": 7070,
      "ĠCompar": 7071,
      "ĠComputer": 7072,
      "Rece": 7073,
      "ĠRece": 7074,
      "Thought": 7075,
      "Ġround": 7076,
      "Ġroll": 7077,
      "rided": 7078,
      "riding": 7079,
      "ĠResource": 7080,
      "ĠRespons": 7081,
      "monitoring": 7082,
      "ampa": 7083,
      "Ġlex": 7084,
      "Ġquestion": 7085,
      "being": 7086,
      "structures": 7087,
      "correction": 7088,
      "consol": 7089,
      "worker": 7090,
      "Implement": 7091,
      "Ġkind": 7092,
      "Ġparticip": 7093,
      "Particip": 7094,
      "slashes": 7095,
      "tracing": 7096,
      "easing": 7097,
      "Ġappe": 7098,
      "vented": 7099,
      "section": 7100,
      "second": 7101,
      "Auth": 7102,
      "ĠImplement": 7103,
      "Overl": 7104,
      "ĠParameter": 7105,
      "ĠParticip": 7106,
      "Ġany": 7107,
      "Ġanalog": 7108,
      "stands": 7109,
      "tractor": 7110,
      "tractors": 7111,
      "olec": 7112,
      "eyed": 7113,
      "eeping": 7114,
      "Ġemploy": 7115,
      "ceptor": 7116,
      "ĠQuanti": 7117,
      "rested": 7118,
      "ructuring": 7119,
      "ructural": 7120,
      "operable": 7121,
      "operate": 7122,
      "operated": 7123,
      "organize": 7124,
      "oids": 7125,
      "rift": 7126,
      "variant": 7127,
      "factory": 7128,
      "demand": 7129,
      "Ġtransl": 7130,
      "Phone": 7131,
      "rench": 7132,
      "Trade": 7133,
      "topic": 7134,
      "educed": 7135,
      "eduction": 7136,
      "Ġminiatur": 7137,
      "counting": 7138,
      "Ġtrade": 7139,
      "changes": 7140,
      "precision": 7141,
      "rafting": 7142,
      "chemist": 7143,
      "Ġmodel": 7144,
      "Communic": 7145,
      "Speci": 7146,
      "trivial": 7147,
      "straight": 7148,
      "rison": 7149,
      "Ġaccum": 7150,
      "Ġacceler": 7151,
      "plaining": 7152,
      "ĠTrade": 7153,
      "allowing": 7154,
      "two": 7155,
      "informed": 7156,
      "informatics": 7157,
      "ĠCommunic": 7158,
      "sequent": 7159,
      "sequences": 7160,
      "market": 7161,
      "provided": 7162,
      "ooming": 7163,
      "hosted": 7164,
      "oading": 7165,
      "onomy": 7166,
      "onomic": 7167,
      "claims": 7168,
      "planes": 7169,
      "current": 7170,
      "currences": 7171,
      "Ġirrit": 7172,
      "continuous": 7173,
      "configurable": 7174,
      "mutable": 7175,
      "rophy": 7176,
      "activated": 7177,
      "activating": 7178,
      "lotted": 7179,
      "piece": 7180,
      "Ġasp": 7181,
      "terminated": 7182,
      "scribe": 7183,
      "octor": 7184,
      "arriage": 7185,
      "urrency": 7186,
      "experiment": 7187,
      "Ġtwo": 7188,
      "Ampl": 7189,
      "ĠAmpl": 7190,
      "assembling": 7191,
      "Accum": 7192,
      "notation": 7193,
      "systems": 7194,
      "ĠSpeci": 7195,
      "compliance": 7196,
      "optimal": 7197,
      "ĠAccum": 7198,
      "ĠAcceler": 7199,
      "developers": 7200,
      "sensitive": 7201,
      "existent": 7202,
      "automation": 7203,
      "holder": 7204,
      "squared": 7205,
      "Board": 7206,
      "Collabor": 7207,
      "storms": 7208,
      "stantiated": 7209,
      "ĠCollabor": 7210,
      "Ġverb": 7211,
      "ruby": 7212,
      "changeable": 7213,
      "grounds": 7214,
      "Ġidentif": 7215,
      "ehaviour": 7216,
      "checks": 7217,
      "Ġworld": 7218,
      "Straight": 7219,
      "negative": 7220,
      "ĠStraight": 7221,
      "Ġstraight": 7222,
      "Processing": 7223,
      "eemed": 7224,
      "study": 7225,
      "Ġpersu": 7226,
      "controller": 7227,
      "probable": 7228,
      "definite": 7229,
      "double": 7230,
      "html": 7231,
      "stationary": 7232,
      "Ġdouble": 7233,
      "parameters": 7234,
      "interpreted": 7235,
      "communication": 7236,
      "Scaling": 7237,
      "Ġexperiment": 7238,
      "Identif": 7239,
      "aliasing": 7240,
      "interpretation": 7241,
      "clockwise": 7242,
      "width": 7243,
      "accelerated": 7244,
      "breeding": 7245,
      "ĠIdentif": 7246,
      "Ġruby": 7247,
      "Dependent": 7248,
      "availability": 7249,
      "Friendly": 7250,
      "explored": 7251,
      "entropy": 7252,
      "screens": 7253,
      "Audio": 7254,
      "Bound": 7255,
      "Boot": 7256,
      "Benef": 7257,
      "CD": 7258,
      "Cand": 7259,
      "Cost": 7260,
      "Copy": 7261,
      "Circum": 7262,
      "DA": 7263,
      "Ded": 7264,
      "Dark": 7265,
      "Duck": 7266,
      "Divers": 7267,
      "Domain": 7268,
      "Ever": 7269,
      "Eth": 7270,
      "Esc": 7271,
      "Ess": 7272,
      "Event": 7273,
      "Every": 7274,
      "Econom": 7275,
      "Fram": 7276,
      "Fort": 7277,
      "Fail": 7278,
      "Fixed": 7279,
      "False": 7280,
      "FLO": 7281,
      "Gro": 7282,
      "Ground": 7283,
      "GPU": 7284,
      "Hack": 7285,
      "Host": 7286,
      "Ion": 7287,
      "Jus": 7288,
      "Journ": 7289,
      "LU": 7290,
      "Lead": 7291,
      "Liter": 7292,
      "Liber": 7293,
      "Ment": 7294,
      "Mus": 7295,
      "Map": 7296,
      "Multic": 7297,
      "NI": 7298,
      "Nan": 7299,
      "Need": 7300,
      "Nomin": 7301,
      "Navig": 7302,
      "Os": 7303,
      "Old": 7304,
      "Pot": 7305,
      "Ra": 7306,
      "Rub": 7307,
      "Right": 7308,
      "Round": 7309,
      "Road": 7310,
      "SB": 7311,
      "She": 7312,
      "Size": 7313,
      "Seas": 7314,
      "Safe": 7315,
      "TP": 7316,
      "Ten": 7317,
      "Troub": 7318,
      "UR": 7319,
      "Vers": 7320,
      "Vision": 7321,
      "Virt": 7322,
      "Voice": 7323,
      "Verb": 7324,
      "Way": 7325,
      "aS": 7326,
      "aire": 7327,
      "aunt": 7328,
      "aiting": 7329,
      "aude": 7330,
      "aque": 7331,
      "audio": 7332,
      "aBy": 7333,
      "ahedron": 7334,
      "aaS": 7335,
      "bear": 7336,
      "bian": 7337,
      "buster": 7338,
      "benef": 7339,
      "cd": 7340,
      "cp": 7341,
      "cand": 7342,
      "cled": 7343,
      "cav": 7344,
      "canc": 7345,
      "cements": 7346,
      "cnn": 7347,
      "dit": 7348,
      "dol": 7349,
      "dos": 7350,
      "dling": 7351,
      "dled": 7352,
      "dry": 7353,
      "dles": 7354,
      "dual": 7355,
      "doms": 7356,
      "docker": 7357,
      "deliver": 7358,
      "dynamic": 7359,
      "eit": 7360,
      "eign": 7361,
      "etit": 7362,
      "feat": 7363,
      "fade": 7364,
      "gig": 7365,
      "gument": 7366,
      "hz": 7367,
      "hal": 7368,
      "hous": 7369,
      "hair": 7370,
      "hou": 7371,
      "home": 7372,
      "hale": 7373,
      "hands": 7374,
      "haling": 7375,
      "holic": 7376,
      "haled": 7377,
      "harmon": 7378,
      "husias": 7379,
      "iD": 7380,
      "iP": 7381,
      "itic": 7382,
      "ieg": 7383,
      "iably": 7384,
      "iography": 7385,
      "lity": 7386,
      "ltim": 7387,
      "liness": 7388,
      "mn": 7389,
      "mus": 7390,
      "mable": 7391,
      "mass": 7392,
      "make": 7393,
      "nes": 7394,
      "nally": 7395,
      "nomin": 7396,
      "navig": 7397,
      "negoti": 7398,
      "oed": 7399,
      "oil": 7400,
      "ooping": 7401,
      "pit": 7402,
      "pable": 7403,
      "pric": 7404,
      "paces": 7405,
      "pelled": 7406,
      "ppy": 7407,
      "plying": 7408,
      "rat": 7409,
      "rine": 7410,
      "rals": 7411,
      "rins": 7412,
      "rators": 7413,
      "rists": 7414,
      "rump": 7415,
      "rils": 7416,
      "rilled": 7417,
      "sen": 7418,
      "sense": 7419,
      "schedul": 7420,
      "tur": 7421,
      "tog": 7422,
      "tude": 7423,
      "templ": 7424,
      "trick": 7425,
      "temper": 7426,
      "uum": 7427,
      "upl": 7428,
      "uep": 7429,
      "ueb": 7430,
      "uite": 7431,
      "ualize": 7432,
      "vents": 7433,
      "vacc": 7434,
      "voic": 7435,
      "vidia": 7436,
      "wash": 7437,
      "welling": 7438,
      "yen": 7439,
      "yll": 7440,
      "zations": 7441,
      "zilla": 7442,
      "Ġri": 7443,
      "Ġif": 7444,
      "Ġack": 7445,
      "Ġke": 7446,
      "Ġeth": 7447,
      "inom": 7448,
      "inion": 7449,
      "infer": 7450,
      "inality": 7451,
      "inational": 7452,
      "inery": 7453,
      "instruction": 7454,
      "ero": 7455,
      "erity": 7456,
      "erco": 7457,
      "erks": 7458,
      "erator": 7459,
      "erings": 7460,
      "erators": 7461,
      "ede": 7462,
      "edited": 7463,
      "estiv": 7464,
      "esian": 7465,
      "esigned": 7466,
      "onant": 7467,
      "onish": 7468,
      "onance": 7469,
      "onna": 7470,
      "tique": 7471,
      "tibility": 7472,
      "titious": 7473,
      "entim": 7474,
      "entions": 7475,
      "enari": 7476,
      "ename": 7477,
      "enium": 7478,
      "alg": 7479,
      "alax": 7480,
      "alties": 7481,
      "altern": 7482,
      "ato": 7483,
      "atness": 7484,
      "atell": 7485,
      "atoes": 7486,
      "ora": 7487,
      "oric": 7488,
      "orim": 7489,
      "oreg": 7490,
      "orage": 7491,
      "orical": 7492,
      "orial": 7493,
      "reve": 7494,
      "reform": 7495,
      "rell": 7496,
      "reme": 7497,
      "ana": 7498,
      "anic": 7499,
      "anion": 7500,
      "aniti": 7501,
      "anatic": 7502,
      "anonym": 7503,
      "arer": 7504,
      "arce": 7505,
      "aried": 7506,
      "arith": 7507,
      "arbit": 7508,
      "arithm": 7509,
      "isor": 7510,
      "istive": 7511,
      "isive": 7512,
      "leb": 7513,
      "leader": 7514,
      "itance": 7515,
      "itability": 7516,
      "ittle": 7517,
      "icol": 7518,
      "aset": 7519,
      "astics": 7520,
      "asms": 7521,
      "rogram": 7522,
      "rott": 7523,
      "roeconom": 7524,
      "rad": 7525,
      "ratic": 7526,
      "rape": 7527,
      "raving": 7528,
      "unm": 7529,
      "unked": 7530,
      "strate": 7531,
      "enty": 7532,
      "ulp": 7533,
      "ulable": 7534,
      "ulum": 7535,
      "ulse": 7536,
      "ecl": 7537,
      "elder": 7538,
      "elcome": 7539,
      "elenium": 7540,
      "omal": 7541,
      "omeb": 7542,
      "omorphic": 7543,
      "acs": 7544,
      "acec": 7545,
      "acies": 7546,
      "abin": 7547,
      "abular": 7548,
      "ilo": 7549,
      "illy": 7550,
      "ilest": 7551,
      "ilted": 7552,
      "iliti": 7553,
      "ilob": 7554,
      "illow": 7555,
      "ilized": 7556,
      "ilky": 7557,
      "Ġcand": 7558,
      "Ġcour": 7559,
      "Ġcanc": 7560,
      "Ġclos": 7561,
      "Ġcount": 7562,
      "Ġceleb": 7563,
      "Ġsed": 7564,
      "Ġsing": 7565,
      "Ġshe": 7566,
      "Ġscre": 7567,
      "Ġsever": 7568,
      "Ġsynthes": 7569,
      "urric": 7570,
      "urized": 7571,
      "urrect": 7572,
      "urger": 7573,
      "ols": 7574,
      "ĠShe": 7575,
      "ĠSeas": 7576,
      "ĠSynthes": 7577,
      "ĠSpeech": 7578,
      "etal": 7579,
      "etra": 7580,
      "etches": 7581,
      "essell": 7582,
      "essive": 7583,
      "utures": 7584,
      "ĠCand": 7585,
      "ĠCook": 7586,
      "ĠCopy": 7587,
      "ĠCircum": 7588,
      "usk": 7589,
      "usal": 7590,
      "rization": 7591,
      "chart": 7592,
      "cheer": 7593,
      "Ġpython": 7594,
      "Ġpleas": 7595,
      "izar": 7596,
      "izard": 7597,
      "izont": 7598,
      "love": 7599,
      "loqu": 7600,
      "igent": 7601,
      "igens": 7602,
      "igare": 7603,
      "adm": 7604,
      "ado": 7605,
      "ady": 7606,
      "admin": 7607,
      "terror": 7608,
      "ampo": 7609,
      "amins": 7610,
      "ameness": 7611,
      "amously": 7612,
      "ĠPot": 7613,
      "ĠPublic": 7614,
      "Input": 7615,
      "agraph": 7616,
      "aggle": 7617,
      "aggreg": 7618,
      "aggers": 7619,
      "Ġdon": 7620,
      "Ġdro": 7621,
      "Ġdish": 7622,
      "Ġdocker": 7623,
      "celeb": 7624,
      "imod": 7625,
      "immer": 7626,
      "imented": 7627,
      "ĠAx": 7628,
      "ĠRa": 7629,
      "ĠRub": 7630,
      "ĠRound": 7631,
      "ĠDed": 7632,
      "ĠDark": 7633,
      "ĠDivers": 7634,
      "verter": 7635,
      "verage": 7636,
      "verged": 7637,
      "verters": 7638,
      "vergent": 7639,
      "apist": 7640,
      "apple": 7641,
      "application": 7642,
      "idic": 7643,
      "idences": 7644,
      "Ġms": 7645,
      "Ġmus": 7646,
      "Ġmass": 7647,
      "umn": 7648,
      "umper": 7649,
      "uments": 7650,
      "umatic": 7651,
      "thunder": 7652,
      "thood": 7653,
      "throp": 7654,
      "plen": 7655,
      "plier": 7656,
      "pliance": 7657,
      "exts": 7658,
      "ĠMe": 7659,
      "ĠMent": 7660,
      "ĠMus": 7661,
      "ĠMultic": 7662,
      "opaths": 7663,
      "opilot": 7664,
      "opartic": 7665,
      "irr": 7666,
      "irs": 7667,
      "irror": 7668,
      "irls": 7669,
      "Ġreform": 7670,
      "uplex": 7671,
      "Ġflow": 7672,
      "Ġfort": 7673,
      "Ġfix": 7674,
      "Ġfade": 7675,
      "Ġfeed": 7676,
      "Ġfresh": 7677,
      "Ġfaith": 7678,
      "osable": 7679,
      "osystem": 7680,
      "osphere": 7681,
      "atedly": 7682,
      "estri": 7683,
      "estors": 7684,
      "esture": 7685,
      "ĠTy": 7686,
      "ĠTen": 7687,
      "ĠTask": 7688,
      "ĠToler": 7689,
      "ĠToken": 7690,
      "ĠTouch": 7691,
      "ĠTroub": 7692,
      "ifty": 7693,
      "quari": 7694,
      "quests": 7695,
      "odic": 7696,
      "oday": 7697,
      "odless": 7698,
      "ota": 7699,
      "otting": 7700,
      "otechnology": 7701,
      "Ġbig": 7702,
      "Ġbot": 7703,
      "Ġboy": 7704,
      "Ġbenef": 7705,
      "ubes": 7706,
      "ubble": 7707,
      "ubby": 7708,
      "ubbed": 7709,
      "ubuntu": 7710,
      "Ġtro": 7711,
      "Ġtry": 7712,
      "Ġtrick": 7713,
      "ionate": 7714,
      "istors": 7715,
      "istration": 7716,
      "ĠEth": 7717,
      "ĠEsc": 7718,
      "ĠEvent": 7719,
      "ĠEvery": 7720,
      "ĠEconom": 7721,
      "conserv": 7722,
      "container": 7723,
      "Ġinfer": 7724,
      "Ġinser": 7725,
      "Ġinstruction": 7726,
      "Ġinstall": 7727,
      "ĠFram": 7728,
      "ĠFort": 7729,
      "ĠFail": 7730,
      "ĠFunction": 7731,
      "ĠFixed": 7732,
      "ĠFalse": 7733,
      "ranes": 7734,
      "rangle": 7735,
      "ĠBoot": 7736,
      "ĠBenef": 7737,
      "ocomp": 7738,
      "ocating": 7739,
      "oglyph": 7740,
      "endation": 7741,
      "endum": 7742,
      "endants": 7743,
      "Unb": 7744,
      "Unit": 7745,
      "ffle": 7746,
      "Ġhous": 7747,
      "Ġhear": 7748,
      "Ġhair": 7749,
      "Ġhome": 7750,
      "Ġhands": 7751,
      "Ġharmon": 7752,
      "tingu": 7753,
      "undling": 7754,
      "undant": 7755,
      "undry": 7756,
      "undred": 7757,
      "eped": 7758,
      "epad": 7759,
      "eptic": 7760,
      "assle": 7761,
      "assad": 7762,
      "ensing": 7763,
      "aints": 7764,
      "ormal": 7765,
      "ormalization": 7766,
      "mentations": 7767,
      "ipel": 7768,
      "ipse": 7769,
      "ipolar": 7770,
      "akef": 7771,
      "anda": 7772,
      "andw": 7773,
      "andon": 7774,
      "andar": 7775,
      "andel": 7776,
      "ruel": 7777,
      "ruises": 7778,
      "ardon": 7779,
      "ĠHot": 7780,
      "ĠHost": 7781,
      "alizability": 7782,
      "spiration": 7783,
      "ĠList": 7784,
      "ĠLead": 7785,
      "ĠLiter": 7786,
      "ĠLiber": 7787,
      "ĠLife": 7788,
      "Ġgre": 7789,
      "Ġgro": 7790,
      "Ġgig": 7791,
      "Ġground": 7792,
      "ibl": 7793,
      "ibles": 7794,
      "ibli": 7795,
      "php": 7796,
      "phony": 7797,
      "inees": 7798,
      "Ġunm": 7799,
      "ĠOri": 7800,
      "ĠOrig": 7801,
      "ĠOld": 7802,
      "coup": 7803,
      "coholic": 7804,
      "Ġnomin": 7805,
      "Ġnavig": 7806,
      "Ġnegoti": 7807,
      "eform": 7808,
      "efined": 7809,
      "ĠWeight": 7810,
      "egap": 7811,
      "tration": 7812,
      "scop": 7813,
      "score": 7814,
      "ewel": 7815,
      "ewable": 7816,
      "ĠGro": 7817,
      "ĠGround": 7818,
      "Ġconven": 7819,
      "Ġconserv": 7820,
      "Ġconsol": 7821,
      "Ġcontainer": 7822,
      "earches": 7823,
      "earching": 7824,
      "eves": 7825,
      "eview": 7826,
      "evolution": 7827,
      "encil": 7828,
      "encils": 7829,
      "uddle": 7830,
      "ĠNan": 7831,
      "ĠNeed": 7832,
      "ĠNomin": 7833,
      "ĠNavig": 7834,
      "allest": 7835,
      "ishable": 7836,
      "itious": 7837,
      "itizens": 7838,
      "Concept": 7839,
      "Controll": 7840,
      "overeign": 7841,
      "angible": 7842,
      "induc": 7843,
      "indings": 7844,
      "shell": 7845,
      "obs": 7846,
      "ober": 7847,
      "obic": 7848,
      "objec": 7849,
      "obia": 7850,
      "obby": 7851,
      "obiles": 7852,
      "obody": 7853,
      "ectable": 7854,
      "Ġless": 7855,
      "Ġlib": 7856,
      "Ġlik": 7857,
      "Ġlinear": 7858,
      "ellations": 7859,
      "ureauc": 7860,
      "ĠConfig": 7861,
      "rective": 7862,
      "ourist": 7863,
      "ĠUnb": 7864,
      "ordination": 7865,
      "Stat": 7866,
      "Station": 7867,
      "illis": 7868,
      "illain": 7869,
      "illust": 7870,
      "ryst": 7871,
      "rictions": 7872,
      "ricks": 7873,
      "inty": 7874,
      "herence": 7875,
      "sever": 7876,
      "pointer": 7877,
      "Ġvacc": 7878,
      "Ġvoice": 7879,
      "atig": 7880,
      "atient": 7881,
      "atially": 7882,
      "atience": 7883,
      "atility": 7884,
      "atories": 7885,
      "Ġdefin": 7886,
      "achel": 7887,
      "ignation": 7888,
      "ignments": 7889,
      "mini": 7890,
      "minently": 7891,
      "ĠStat": 7892,
      "ĠStar": 7893,
      "parallel": 7894,
      "locate": 7895,
      "locating": 7896,
      "locates": 7897,
      "rones": 7898,
      "ronts": 7899,
      "ronym": 7900,
      "ronaut": 7901,
      "ortable": 7902,
      "ervation": 7903,
      "ervoir": 7904,
      "geo": 7905,
      "ĠVoc": 7906,
      "ĠVirt": 7907,
      "ĠVoice": 7908,
      "ĠVerb": 7909,
      "entity": 7910,
      "entiality": 7911,
      "entists": 7912,
      "Ġax": 7913,
      "rowning": 7914,
      "racts": 7915,
      "ractive": 7916,
      "racies": 7917,
      "ractions": 7918,
      "racks": 7919,
      "racked": 7920,
      "ailment": 7921,
      "ailbo": 7922,
      "comprom": 7923,
      "compreh": 7924,
      "owners": 7925,
      "Ġprob": 7926,
      "Ġproduc": 7927,
      "Ġprogress": 7928,
      "posal": 7929,
      "ashback": 7930,
      "people": 7931,
      "ventive": 7932,
      "versari": 7933,
      "osters": 7934,
      "ostalg": 7935,
      "Exped": 7936,
      "ideog": 7937,
      "discipl": 7938,
      "ferable": 7939,
      "athon": 7940,
      "athing": 7941,
      "athons": 7942,
      "atholic": 7943,
      "actly": 7944,
      "actness": 7945,
      "rible": 7946,
      "ribly": 7947,
      "ribun": 7948,
      "ribution": 7949,
      "ributed": 7950,
      "ributing": 7951,
      "ributes": 7952,
      "element": 7953,
      "eleton": 7954,
      "cession": 7955,
      "ĠExped": 7956,
      "awed": 7957,
      "awned": 7958,
      "eterin": 7959,
      "eterogene": 7960,
      "artment": 7961,
      "artments": 7962,
      "onsense": 7963,
      "tifiers": 7964,
      "Entro": 7965,
      "Enumer": 7966,
      "veling": 7967,
      "yself": 7968,
      "ificant": 7969,
      "ificance": 7970,
      "oney": 7971,
      "onetization": 7972,
      "enerate": 7973,
      "reeze": 7974,
      "Ġchild": 7975,
      "plements": 7976,
      "peck": 7977,
      "weighted": 7978,
      "armer": 7979,
      "armony": 7980,
      "tainability": 7981,
      "ĠEnumer": 7982,
      "tivate": 7983,
      "plicability": 7984,
      "axoph": 7985,
      "ĠChain": 7986,
      "comment": 7987,
      "attling": 7988,
      "Sharp": 7989,
      "icken": 7990,
      "ickening": 7991,
      "Ġimag": 7992,
      "afts": 7993,
      "Ġthunder": 7994,
      "rigg": 7995,
      "rigon": 7996,
      "move": 7997,
      "troph": 7998,
      "anny": 7999,
      "Any": 8000,
      "incor": 8001,
      "incub": 8002,
      "inctive": 8003,
      "inctively": 8004,
      "aternal": 8005,
      "aterpill": 8006,
      "called": 8007,
      "Ġspell": 8008,
      "ĠAny": 8009,
      "Ġadm": 8010,
      "Ġadjust": 8011,
      "Ġadminist": 8012,
      "iths": 8013,
      "oodles": 8014,
      "spection": 8015,
      "spects": 8016,
      "spective": 8017,
      "specting": 8018,
      "manufact": 8019,
      "Ġevery": 8020,
      "mean": 8021,
      "Ġcompet": 8022,
      "engu": 8023,
      "Ġoverl": 8024,
      "warded": 8025,
      "warding": 8026,
      "wardly": 8027,
      "ockro": 8028,
      "ieroglyph": 8029,
      "ographics": 8030,
      "Compet": 8031,
      "eaters": 8032,
      "volutions": 8033,
      "ultures": 8034,
      "ademic": 8035,
      "persed": 8036,
      "personal": 8037,
      "perspir": 8038,
      "logged": 8039,
      "visit": 8040,
      "visions": 8041,
      "commit": 8042,
      "commonly": 8043,
      "ĠCompet": 8044,
      "Recomm": 8045,
      "ĠRecomm": 8046,
      "Spect": 8047,
      "Space": 8048,
      "ĠJus": 8049,
      "chedule": 8050,
      "layers": 8051,
      "umbn": 8052,
      "umbered": 8053,
      "umbering": 8054,
      "ourable": 8055,
      "oolig": 8056,
      "argo": 8057,
      "argers": 8058,
      "argeting": 8059,
      "prises": 8060,
      "lik": 8061,
      "Ġlearn": 8062,
      "ceptional": 8063,
      "Internet": 8064,
      "viewer": 8065,
      "Ġque": 8066,
      "ĠInternet": 8067,
      "arching": 8068,
      "beit": 8069,
      "structor": 8070,
      "structors": 8071,
      "correspond": 8072,
      "ĠSpect": 8073,
      "bler": 8074,
      "ragm": 8075,
      "Ġclim": 8076,
      "equis": 8077,
      "ypically": 8078,
      "what": 8079,
      "Ġaltern": 8080,
      "testation": 8081,
      "testant": 8082,
      "Ġparallel": 8083,
      "azing": 8084,
      "azingly": 8085,
      "Partic": 8086,
      "rawler": 8087,
      "rustrating": 8088,
      "raints": 8089,
      "rainstorm": 8090,
      "Decre": 8091,
      "itcher": 8092,
      "Ġauthentic": 8093,
      "Ġobjec": 8094,
      "Ġobject": 8095,
      "elessness": 8096,
      "atising": 8097,
      "atisfactory": 8098,
      "ursed": 8099,
      "elihood": 8100,
      "Altern": 8101,
      "Sci": 8102,
      "ĠPartic": 8103,
      "kyscra": 8104,
      "Ġanonym": 8105,
      "urbs": 8106,
      "ĠAltern": 8107,
      "doct": 8108,
      "ĠSci": 8109,
      "racting": 8110,
      "eeps": 8111,
      "ything": 8112,
      "tilling": 8113,
      "ombs": 8114,
      "Platform": 8115,
      "sides": 8116,
      "lexible": 8117,
      "anely": 8118,
      "uckily": 8119,
      "Ġassoci": 8120,
      "Flip": 8121,
      "askets": 8122,
      "ipses": 8123,
      "capac": 8124,
      "instanti": 8125,
      "Ġwhat": 8126,
      "imensionality": 8127,
      "operation": 8128,
      "Orchest": 8129,
      "leteness": 8130,
      "oidal": 8131,
      "Ġarbit": 8132,
      "rific": 8133,
      "rifying": 8134,
      "classification": 8135,
      "ascul": 8136,
      "ambda": 8137,
      "generate": 8138,
      "generating": 8139,
      "polar": 8140,
      "alyzed": 8141,
      "ophysical": 8142,
      "gorith": 8143,
      "Associ": 8144,
      "Ġitem": 8145,
      "nowledges": 8146,
      "Transl": 8147,
      "Ġphp": 8148,
      "renal": 8149,
      "skills": 8150,
      "tigh": 8151,
      "romos": 8152,
      "romagnetic": 8153,
      "rument": 8154,
      "ausing": 8155,
      "ausible": 8156,
      "codes": 8157,
      "enetic": 8158,
      "auna": 8159,
      "aunched": 8160,
      "aunching": 8161,
      "remend": 8162,
      "remote": 8163,
      "ĠTransl": 8164,
      "vocations": 8165,
      "acterial": 8166,
      "agonal": 8167,
      "agonist": 8168,
      "agonists": 8169,
      "ponder": 8170,
      "allets": 8171,
      "requent": 8172,
      "chemy": 8173,
      "ĠAssoci": 8174,
      "unnel": 8175,
      "unnels": 8176,
      "unneling": 8177,
      "rutable": 8178,
      "effective": 8179,
      "uitable": 8180,
      "ĠDepth": 8181,
      "ĠDepend": 8182,
      "facilit": 8183,
      "rought": 8184,
      "unicip": 8185,
      "linking": 8186,
      "imentary": 8187,
      "empts": 8188,
      "empted": 8189,
      "empting": 8190,
      "otherapy": 8191,
      "Office": 8192,
      "ĠOrchest": 8193,
      "Color": 8194,
      "Ġaggreg": 8195,
      "imples": 8196,
      "sequently": 8197,
      "echanical": 8198,
      "Ġcorrespond": 8199,
      "rasp": 8200,
      "autious": 8201,
      "ceeds": 8202,
      "ceeding": 8203,
      "earcher": 8204,
      "Aggreg": 8205,
      "onyms": 8206,
      "impan": 8207,
      "oomed": 8208,
      "arbers": 8209,
      "Ġsuperv": 8210,
      "iraff": 8211,
      "irations": 8212,
      "placements": 8213,
      "Network": 8214,
      "closing": 8215,
      "rushed": 8216,
      "rushes": 8217,
      "rushing": 8218,
      "ticeable": 8219,
      "entific": 8220,
      "ynamics": 8221,
      "hesis": 8222,
      "hesion": 8223,
      "planatory": 8224,
      "etition": 8225,
      "etitions": 8226,
      "lossing": 8227,
      "ĠAggreg": 8228,
      "ottlen": 8229,
      "NNs": 8230,
      "aulted": 8231,
      "aulting": 8232,
      "tised": 8233,
      "irdly": 8234,
      "engineer": 8235,
      "visioned": 8236,
      "visioning": 8237,
      "rinks": 8238,
      "rinking": 8239,
      "Ġorchest": 8240,
      "arrier": 8241,
      "experience": 8242,
      "Ġappreci": 8243,
      "ithering": 8244,
      "placeable": 8245,
      "Ġgeo": 8246,
      "rongs": 8247,
      "ometrically": 8248,
      "plexed": 8249,
      "plexing": 8250,
      "vantages": 8251,
      "avorable": 8252,
      "window": 8253,
      "Priv": 8254,
      "Prioriti": 8255,
      "ĠPriv": 8256,
      "ĠPrioriti": 8257,
      "irmation": 8258,
      "elligence": 8259,
      "illionaires": 8260,
      "illionaire": 8261,
      "Meta": 8262,
      "ĠMeta": 8263,
      "stantial": 8264,
      "uminous": 8265,
      "opoli": 8266,
      "uzzle": 8267,
      "Ġmedi": 8268,
      "cribed": 8269,
      "orchest": 8270,
      "ethered": 8271,
      "oscience": 8272,
      "rangement": 8273,
      "rangements": 8274,
      "ryption": 8275,
      "rypting": 8276,
      "throughs": 8277,
      "etchup": 8278,
      "couraging": 8279,
      "courages": 8280,
      "atisfying": 8281,
      "elievable": 8282,
      "Ġterror": 8283,
      "esterday": 8284,
      "Ġcheer": 8285,
      "ammable": 8286,
      "cription": 8287,
      "criptions": 8288,
      "cussion": 8289,
      "sourcing": 8290,
      "inctly": 8291,
      "amera": 8292,
      "rudent": 8293,
      "ouldn": 8294,
      "Occup": 8295,
      "cloped": 8296,
      "ybers": 8297,
      "ybrid": 8298,
      "checking": 8299,
      "tradict": 8300,
      "moothed": 8301,
      "lemen": 8302,
      "apeu": 8303,
      "izzy": 8304,
      "ysicists": 8305,
      "Hardware": 8306,
      "punctu": 8307,
      "Ġillust": 8308,
      "olitic": 8309,
      "rugged": 8310,
      "ĠHardware": 8311,
      "scription": 8312,
      "scriptions": 8313,
      "ibrary": 8314,
      "ĠOccup": 8315,
      "ampered": 8316,
      "iatric": 8317,
      "onesty": 8318,
      "established": 8319,
      "ĠEmploy": 8320,
      "calculated": 8321,
      "constitution": 8322,
      "responsive": 8323,
      "biotic": 8324,
      "Ġpunctu": 8325,
      "emporary": 8326,
      "opathy": 8327,
      "ustainable": 8328,
      "plicitly": 8329,
      "eddings": 8330,
      "iddleware": 8331,
      "ogenic": 8332,
      "vileged": 8333,
      "elicop": 8334,
      "ranquil": 8335,
      "ocalyp": 8336,
      "ivariate": 8337,
      "ocrats": 8338,
      "behavior": 8339,
      "elesc": 8340,
      "plantation": 8341,
      "spicuous": 8342,
      "eference": 8343,
      "emblance": 8344,
      "autiful": 8345,
      "ihil": 8346,
      "ERT": 8347,
      "junctive": 8348,
      "oprocess": 8349,
      "atisfaction": 8350,
      "inomial": 8351,
      "omebody": 8352,
      "iloby": 8353,
      "imodal": 8354,
      "Asc": 8355,
      "Ali": 8356,
      "After": 8357,
      "BA": 8358,
      "Bar": 8359,
      "Ble": 8360,
      "Bot": 8361,
      "Ball": 8362,
      "Batch": 8363,
      "Brew": 8364,
      "Bench": 8365,
      "Browser": 8366,
      "Cy": 8367,
      "Cos": 8368,
      "Card": 8369,
      "Call": 8370,
      "Cour": 8371,
      "Cart": 8372,
      "Clock": 8373,
      "Clear": 8374,
      "Centr": 8375,
      "Count": 8376,
      "CPU": 8377,
      "Closed": 8378,
      "Don": 8379,
      "Dam": 8380,
      "Dead": 8381,
      "Dict": 8382,
      "Divid": 8383,
      "Docker": 8384,
      "Ell": 8385,
      "Elev": 8386,
      "Fe": 8387,
      "Found": 8388,
      "Fract": 8389,
      "Gig": 8390,
      "Hz": 8391,
      "Hun": 8392,
      "Hop": 8393,
      "Home": 8394,
      "Hands": 8395,
      "Histor": 8396,
      "Heart": 8397,
      "Hypothes": 8398,
      "IM": 8399,
      "Jo": 8400,
      "Link": 8401,
      "MP": 8402,
      "MS": 8403,
      "Mat": 8404,
      "Mor": 8405,
      "Mut": 8406,
      "Mag": 8407,
      "Mass": 8408,
      "Must": 8409,
      "Mix": 8410,
      "Matching": 8411,
      "Motor": 8412,
      "Maj": 8413,
      "Method": 8414,
      "Not": 8415,
      "Native": 8416,
      "Negoti": 8417,
      "Necess": 8418,
      "Pet": 8419,
      "Pack": 8420,
      "Powered": 8421,
      "Ration": 8422,
      "Rout": 8423,
      "Roll": 8424,
      "Reli": 8425,
      "Sav": 8426,
      "Sized": 8427,
      "Scre": 8428,
      "Scor": 8429,
      "Some": 8430,
      "Sever": 8431,
      "Sense": 8432,
      "Schem": 8433,
      "Sleep": 8434,
      "Software": 8435,
      "Turn": 8436,
      "Tune": 8437,
      "Tensor": 8438,
      "Truth": 8439,
      "Ve": 8440,
      "Vac": 8441,
      "Vacc": 8442,
      "Video": 8443,
      "Wid": 8444,
      "Whe": 8445,
      "Wise": 8446,
      "Ware": 8447,
      "Week": 8448,
      "Words": 8449,
      "You": 8450,
      "ahead": 8451,
      "bies": 8452,
      "bill": 8453,
      "bars": 8454,
      "brew": 8455,
      "brief": 8456,
      "cam": 8457,
      "css": 8458,
      "cart": 8459,
      "cue": 8460,
      "cave": 8461,
      "casing": 8462,
      "cott": 8463,
      "cruc": 8464,
      "category": 8465,
      "din": 8466,
      "dating": 8467,
      "deter": 8468,
      "fed": 8469,
      "fing": 8470,
      "fold": 8471,
      "fract": 8472,
      "fasc": 8473,
      "fires": 8474,
      "familiar": 8475,
      "friends": 8476,
      "gb": 8477,
      "gust": 8478,
      "gage": 8479,
      "good": 8480,
      "gages": 8481,
      "has": 8482,
      "histor": 8483,
      "haping": 8484,
      "hospit": 8485,
      "hooks": 8486,
      "juring": 8487,
      "kless": 8488,
      "lands": 8489,
      "laugh": 8490,
      "laws": 8491,
      "my": 8492,
      "mock": 8493,
      "makers": 8494,
      "material": 8495,
      "ners": 8496,
      "nut": 8497,
      "nns": 8498,
      "pes": 8499,
      "pig": 8500,
      "pies": 8501,
      "pads": 8502,
      "packs": 8503,
      "penet": 8504,
      "packing": 8505,
      "paid": 8506,
      "paper": 8507,
      "powers": 8508,
      "pattern": 8509,
      "qt": 8510,
      "rising": 8511,
      "rillion": 8512,
      "sun": 8513,
      "sig": 8514,
      "sites": 8515,
      "sampled": 8516,
      "tf": 8517,
      "tag": 8518,
      "takes": 8519,
      "tune": 8520,
      "taken": 8521,
      "uis": 8522,
      "uably": 8523,
      "uency": 8524,
      "video": 8525,
      "ww": 8526,
      "wire": 8527,
      "wild": 8528,
      "wave": 8529,
      "walls": 8530,
      "yes": 8531,
      "Ġion": 8532,
      "Ġru": 8533,
      "Ġang": 8534,
      "Ġell": 8535,
      "Ġtit": 8536,
      "Ġrip": 8537,
      "Ġtimes": 8538,
      "Ġzero": 8539,
      "iners": 8540,
      "invalid": 8541,
      "independent": 8542,
      "inhab": 8543,
      "eric": 8544,
      "ertions": 8545,
      "erior": 8546,
      "erries": 8547,
      "edged": 8548,
      "onality": 8549,
      "tier": 8550,
      "enjoy": 8551,
      "environment": 8552,
      "alware": 8553,
      "allet": 8554,
      "rear": 8555,
      "reated": 8556,
      "repres": 8557,
      "rejo": 8558,
      "reaths": 8559,
      "anishing": 8560,
      "arr": 8561,
      "arrays": 8562,
      "isol": 8563,
      "isky": 8564,
      "lea": 8565,
      "leting": 8566,
      "leads": 8567,
      "leading": 8568,
      "league": 8569,
      "icer": 8570,
      "icating": 8571,
      "iche": 8572,
      "iches": 8573,
      "asym": 8574,
      "raves": 8575,
      "raged": 8576,
      "raved": 8577,
      "ste": 8578,
      "stating": 8579,
      "stairs": 8580,
      "styles": 8581,
      "entangle": 8582,
      "abstract": 8583,
      "Ġcut": 8584,
      "Ġcri": 8585,
      "Ġcens": 8586,
      "Ġcart": 8587,
      "Ġcruc": 8588,
      "Ġcivil": 8589,
      "Ġsun": 8590,
      "Ġsum": 8591,
      "Ġsav": 8592,
      "Ġsne": 8593,
      "Ġsome": 8594,
      "Ġsoft": 8595,
      "Ġsolic": 8596,
      "Ġseri": 8597,
      "Ġserver": 8598,
      "Ġscrew": 8599,
      "olts": 8600,
      "olver": 8601,
      "olutions": 8602,
      "olvable": 8603,
      "ĠScre": 8604,
      "ĠScor": 8605,
      "ĠSome": 8606,
      "ĠSever": 8607,
      "ĠSchem": 8608,
      "ĠSleep": 8609,
      "ĠSoftware": 8610,
      "ĠServer": 8611,
      "uters": 8612,
      "ĠCos": 8613,
      "ĠCall": 8614,
      "ĠCour": 8615,
      "ĠCart": 8616,
      "ĠClear": 8617,
      "ĠCentr": 8618,
      "ĠCount": 8619,
      "ĠCPU": 8620,
      "ĠClosed": 8621,
      "usual": 8622,
      "rives": 8623,
      "rips": 8624,
      "rived": 8625,
      "cha": 8626,
      "chips": 8627,
      "chrome": 8628,
      "chief": 8629,
      "Ġpin": 8630,
      "Ġpig": 8631,
      "Ġpack": 8632,
      "Ġpick": 8633,
      "Ġpars": 8634,
      "Ġpenet": 8635,
      "loys": 8636,
      "adop": 8637,
      "ampers": 8638,
      "amount": 8639,
      "eming": 8640,
      "emig": 8641,
      "emphas": 8642,
      "ĠPet": 8643,
      "ĠPack": 8644,
      "Install": 8645,
      "Information": 8646,
      "agents": 8647,
      "Ġdam": 8648,
      "Ġdens": 8649,
      "Ġdeter": 8650,
      "Ġdict": 8651,
      "Ġdivid": 8652,
      "Ġdocument": 8653,
      "ceiving": 8654,
      "imon": 8655,
      "imited": 8656,
      "imiting": 8657,
      "ĠAug": 8658,
      "ĠAsc": 8659,
      "ĠAfter": 8660,
      "ĠARM": 8661,
      "ĠRation": 8662,
      "ĠRay": 8663,
      "ĠRout": 8664,
      "ĠRele": 8665,
      "ĠRoll": 8666,
      "ĠReli": 8667,
      "ĠDon": 8668,
      "ĠDam": 8669,
      "ĠDay": 8670,
      "ĠDead": 8671,
      "ĠDict": 8672,
      "ĠDivid": 8673,
      "ĠDocker": 8674,
      "idden": 8675,
      "ideline": 8676,
      "Ġmen": 8677,
      "Ġmat": 8678,
      "Ġmother": 8679,
      "Ġmemory": 8680,
      "Ġmachine": 8681,
      "Ġmethod": 8682,
      "umor": 8683,
      "umination": 8684,
      "plugs": 8685,
      "plugged": 8686,
      "except": 8687,
      "exempl": 8688,
      "ĠMat": 8689,
      "ĠMor": 8690,
      "ĠMut": 8691,
      "ĠMag": 8692,
      "ĠMass": 8693,
      "ĠMust": 8694,
      "ĠMix": 8695,
      "ĠMotor": 8696,
      "ĠMatrix": 8697,
      "ĠMaj": 8698,
      "ĠMethod": 8699,
      "iral": 8700,
      "iruses": 8701,
      "Ġrele": 8702,
      "Ġrejo": 8703,
      "Ġfound": 8704,
      "Ġfract": 8705,
      "Ġfasc": 8706,
      "Ġfeature": 8707,
      "estyle": 8708,
      "ĠTech": 8709,
      "ĠTrust": 8710,
      "ĠTrain": 8711,
      "ĠTensor": 8712,
      "quoted": 8713,
      "quarter": 8714,
      "Ġble": 8715,
      "Ġbel": 8716,
      "Ġbrew": 8717,
      "Ġbuild": 8718,
      "Ġbrief": 8719,
      "Ġtor": 8720,
      "Ġturn": 8721,
      "Ġtrust": 8722,
      "Ġtrain": 8723,
      "Ġtough": 8724,
      "owls": 8725,
      "ĠEll": 8726,
      "ĠEduc": 8727,
      "ĠElev": 8728,
      "conn": 8729,
      "contri": 8730,
      "concaten": 8731,
      "congrat": 8732,
      "Ġinvalid": 8733,
      "ĠFe": 8734,
      "ĠFound": 8735,
      "ĠFix": 8736,
      "ĠFract": 8737,
      "ranged": 8738,
      "ranges": 8739,
      "ĠBar": 8740,
      "ĠBle": 8741,
      "ĠBeh": 8742,
      "ĠBrew": 8743,
      "ĠBuild": 8744,
      "ocusing": 8745,
      "ogy": 8746,
      "oggy": 8747,
      "endered": 8748,
      "Unw": 8749,
      "Uniform": 8750,
      "prosec": 8751,
      "Ġho": 8752,
      "Ġhun": 8753,
      "Ġhop": 8754,
      "Ġhistor": 8755,
      "Ġhospit": 8756,
      "eph": 8757,
      "Ġword": 8758,
      "Ġwatch": 8759,
      "Ġwild": 8760,
      "Ġweek": 8761,
      "Ġweight": 8762,
      "assigned": 8763,
      "ensible": 8764,
      "ipp": 8765,
      "ipment": 8766,
      "rugg": 8767,
      "resis": 8768,
      "ĠHome": 8769,
      "ĠHands": 8770,
      "ĠHistor": 8771,
      "ĠHeart": 8772,
      "ĠHypothes": 8773,
      "orses": 8774,
      "linging": 8775,
      "spent": 8776,
      "spons": 8777,
      "spark": 8778,
      "speak": 8779,
      "spelled": 8780,
      "spoken": 8781,
      "ĠLaw": 8782,
      "ĠLinear": 8783,
      "Ġgood": 8784,
      "phan": 8785,
      "phrases": 8786,
      "perv": 8787,
      "perform": 8788,
      "performs": 8789,
      "permission": 8790,
      "Ġunit": 8791,
      "Ġunivers": 8792,
      "coinc": 8793,
      "cooked": 8794,
      "Ġnight": 8795,
      "ĠWin": 8796,
      "ĠWid": 8797,
      "ĠWord": 8798,
      "ĠWide": 8799,
      "ĠWeigh": 8800,
      "ĠWeek": 8801,
      "tram": 8802,
      "scor": 8803,
      "ĠGig": 8804,
      "ĠGame": 8805,
      "Ġconn": 8806,
      "Ġcontri": 8807,
      "Ġconcaten": 8808,
      "Ġcongrat": 8809,
      "earer": 8810,
      "encoding": 8811,
      "udged": 8812,
      "udging": 8813,
      "udges": 8814,
      "ĠNot": 8815,
      "ĠNegoti": 8816,
      "ĠNecess": 8817,
      "ishy": 8818,
      "boun": 8819,
      "Consol": 8820,
      "Consum": 8821,
      "overflow": 8822,
      "Ġstate": 8823,
      "anges": 8824,
      "indly": 8825,
      "shirt": 8826,
      "ressor": 8827,
      "ressors": 8828,
      "output": 8829,
      "obsess": 8830,
      "Ġlaugh": 8831,
      "Ġliqu": 8832,
      "ĠConsol": 8833,
      "recru": 8834,
      "recruit": 8835,
      "recorded": 8836,
      "ources": 8837,
      "ĠUnw": 8838,
      "ĠUnivers": 8839,
      "Stage": 8840,
      "Structured": 8841,
      "illage": 8842,
      "select": 8843,
      "seek": 8844,
      "ĠStep": 8845,
      "ĠStandard": 8846,
      "Ġexpress": 8847,
      "Ġexempl": 8848,
      "paralle": 8849,
      "ĠVac": 8850,
      "ĠVacc": 8851,
      "heard": 8852,
      "Ġaug": 8853,
      "issile": 8854,
      "took": 8855,
      "tough": 8856,
      "ailor": 8857,
      "compos": 8858,
      "compens": 8859,
      "compose": 8860,
      "components": 8861,
      "Ġproject": 8862,
      "Ġprosec": 8863,
      "Ġprocrast": 8864,
      "peer": 8865,
      "peach": 8866,
      "diagn": 8867,
      "diplom": 8868,
      "Exam": 8869,
      "Prob": 8870,
      "Proof": 8871,
      "Prompt": 8872,
      "llm": 8873,
      "idea": 8874,
      "disp": 8875,
      "discover": 8876,
      "discontin": 8877,
      "deriv": 8878,
      "athy": 8879,
      "typing": 8880,
      "ĠExam": 8881,
      "vests": 8882,
      "Ġdisp": 8883,
      "Ġdiscontin": 8884,
      "viated": 8885,
      "viates": 8886,
      "blematic": 8887,
      "Ens": 8888,
      "Enabled": 8889,
      "ĠProb": 8890,
      "ĠProcess": 8891,
      "ĠProgress": 8892,
      "ĠPrompt": 8893,
      "Ġchem": 8894,
      "plet": 8895,
      "plets": 8896,
      "Chem": 8897,
      "relating": 8898,
      "airer": 8899,
      "ounts": 8900,
      "ounted": 8901,
      "ounting": 8902,
      "ounces": 8903,
      "ountains": 8904,
      "tainment": 8905,
      "Ġsharp": 8906,
      "forth": 8907,
      "ĠEns": 8908,
      "ĠEngine": 8909,
      "interested": 8910,
      "interrupted": 8911,
      "embles": 8912,
      "pora": 8913,
      "poration": 8914,
      "ĠChem": 8915,
      "ĠChild": 8916,
      "complicated": 8917,
      "Ġjo": 8918,
      "attack": 8919,
      "Show": 8920,
      "ducts": 8921,
      "Ġimage": 8922,
      "Ġimped": 8923,
      "Ġtheor": 8924,
      "motions": 8925,
      "motional": 8926,
      "ĠShow": 8927,
      "apply": 8928,
      "appears": 8929,
      "appeared": 8930,
      "official": 8931,
      "Anonym": 8932,
      "desp": 8933,
      "akeup": 8934,
      "Ġrespond": 8935,
      "ĠAnonym": 8936,
      "Ġadop": 8937,
      "Ġadvis": 8938,
      "mpeg": 8939,
      "modeled": 8940,
      "managing": 8941,
      "riting": 8942,
      "ritable": 8943,
      "Ġcompos": 8944,
      "Ġcompens": 8945,
      "Ġcoinc": 8946,
      "Adjust": 8947,
      "ĠAdjust": 8948,
      "Respond": 8949,
      "commerce": 8950,
      "decor": 8951,
      "decentr": 8952,
      "Ġinterpol": 8953,
      "Threaded": 8954,
      "ĠJo": 8955,
      "othing": 8956,
      "others": 8957,
      "grad": 8958,
      "grained": 8959,
      "grades": 8960,
      "gradient": 8961,
      "princ": 8962,
      "ĠRespond": 8963,
      "liers": 8964,
      "Ġlet": 8965,
      "Artic": 8966,
      "Arbit": 8967,
      "Access": 8968,
      "Ġdecor": 8969,
      "Ġdecentr": 8970,
      "structural": 8971,
      "consistent": 8972,
      "ĠAccess": 8973,
      "workers": 8974,
      "driving": 8975,
      "equiv": 8976,
      "processes": 8977,
      "who": 8978,
      "plot": 8979,
      "ĠArtic": 8980,
      "ĠArbit": 8981,
      "Parallel": 8982,
      "Ġperf": 8983,
      "tracks": 8984,
      "easts": 8985,
      "Ġappro": 8986,
      "sections": 8987,
      "Authentic": 8988,
      "prim": 8989,
      "Ġaction": 8990,
      "Ġobsess": 8991,
      "solic": 8992,
      "solid": 8993,
      "solved": 8994,
      "every": 8995,
      "ĠParallel": 8996,
      "urbing": 8997,
      "doing": 8998,
      "ĠAuthentic": 8999,
      "Ġplan": 9000,
      "Ġplain": 9001,
      "Ġplug": 9002,
      "ĠOverl": 9003,
      "meteor": 9004,
      "runks": 9005,
      "running": 9006,
      "losing": 9007,
      "ractor": 9008,
      "eeper": 9009,
      "Ġemig": 9010,
      "Ġemphas": 9011,
      "Perf": 9012,
      "Performing": 9013,
      "legal": 9014,
      "Plan": 9015,
      "filtering": 9016,
      "Ġreciproc": 9017,
      "urability": 9018,
      "alker": 9019,
      "orientation": 9020,
      "deduc": 9021,
      "charging": 9022,
      "ĠPerf": 9023,
      "capacity": 9024,
      "Modal": 9025,
      "Modality": 9026,
      "Ġwho": 9027,
      "transfer": 9028,
      "ĠPlan": 9029,
      "Ġfores": 9030,
      "Ġartic": 9031,
      "classify": 9032,
      "Deform": 9033,
      "finally": 9034,
      "porters": 9035,
      "Ġdesp": 9036,
      "supers": 9037,
      "stituting": 9038,
      "emplated": 9039,
      "emplating": 9040,
      "Ġcommon": 9041,
      "Ġcommand": 9042,
      "Ġlook": 9043,
      "infused": 9044,
      "color": 9045,
      "Ġrefresh": 9046,
      "topics": 9047,
      "Higher": 9048,
      "educing": 9049,
      "educated": 9050,
      "connecting": 9051,
      "connectivity": 9052,
      "Region": 9053,
      "vocabulary": 9054,
      "ĠHigher": 9055,
      "cerning": 9056,
      "oulder": 9057,
      "oulders": 9058,
      "preced": 9059,
      "unner": 9060,
      "ĠDefin": 9061,
      "ĠDeform": 9062,
      "balances": 9063,
      "balancing": 9064,
      "lightened": 9065,
      "ĠRegion": 9066,
      "queue": 9067,
      "Commerce": 9068,
      "handling": 9069,
      "trim": 9070,
      "Ġyear": 9071,
      "Drive": 9072,
      "What": 9073,
      "higher": 9074,
      "Ġcolor": 9075,
      "dependently": 9076,
      "ĠWhat": 9077,
      "criminals": 9078,
      "Diagn": 9079,
      "fessed": 9080,
      "allowed": 9081,
      "Correspond": 9082,
      "Ġdiagn": 9083,
      "Ġdiplom": 9084,
      "apture": 9085,
      "aptured": 9086,
      "Ġhigher": 9087,
      "markets": 9088,
      "marketing": 9089,
      "Revolution": 9090,
      "Ġcorrect": 9091,
      "ĠDiagn": 9092,
      "ĠYou": 9093,
      "bounded": 9094,
      "ĠPoint": 9095,
      "Ġunders": 9096,
      "arbled": 9097,
      "Ġsupers": 9098,
      "ĠReview": 9099,
      "ĠRevolution": 9100,
      "Grade": 9101,
      "casted": 9102,
      "sympt": 9103,
      "sympath": 9104,
      "Attention": 9105,
      "Mini": 9106,
      "closures": 9107,
      "detection": 9108,
      "usses": 9109,
      "ĠMini": 9110,
      "Ġgradu": 9111,
      "Design": 9112,
      "founding": 9113,
      "uzzing": 9114,
      "invited": 9115,
      "ĠCorrect": 9116,
      "ĠCorrespond": 9117,
      "racker": 9118,
      "rackers": 9119,
      "lossy": 9120,
      "rinkle": 9121,
      "rinkles": 9122,
      "ĠDesign": 9123,
      "ositional": 9124,
      "large": 9125,
      "activate": 9126,
      "ĠMany": 9127,
      "ordinate": 9128,
      "initialized": 9129,
      "rieving": 9130,
      "Generated": 9131,
      "deliber": 9132,
      "entices": 9133,
      "streaming": 9134,
      "Ġdeliber": 9135,
      "scribed": 9136,
      "Ġcontent": 9137,
      "arried": 9138,
      "urrent": 9139,
      "urrencies": 9140,
      "expert": 9141,
      "experts": 9142,
      "experienced": 9143,
      "ĠSuperv": 9144,
      "Geo": 9145,
      "Term": 9146,
      "notations": 9147,
      "ĠGeo": 9148,
      "Ġmeteor": 9149,
      "behaved": 9150,
      "float": 9151,
      "Theore": 9152,
      "linearly": 9153,
      "LLa": 9154,
      "Meteor": 9155,
      "Ġsympath": 9156,
      "ĠMeteor": 9157,
      "protected": 9158,
      "literate": 9159,
      "Services": 9160,
      "augmented": 9161,
      "migration": 9162,
      "migrants": 9163,
      "empty": 9164,
      "procrast": 9165,
      "Medi": 9166,
      "news": 9167,
      "turned": 9168,
      "parameterization": 9169,
      "Ġannot": 9170,
      "drawing": 9171,
      "feel": 9172,
      "technology": 9173,
      "arcraft": 9174,
      "propagated": 9175,
      "reciproc": 9176,
      "Efficient": 9177,
      "Squared": 9178,
      "ĠLLa": 9179,
      "Motiv": 9180,
      "ondering": 9181,
      "allocated": 9182,
      "allocating": 9183,
      "ĠMedi": 9184,
      "Architect": 9185,
      "Books": 9186,
      "Electric": 9187,
      "Precision": 9188,
      "Tuned": 9189,
      "cussed": 9190,
      "determined": 9191,
      "examined": 9192,
      "fields": 9193,
      "growth": 9194,
      "practice": 9195,
      "ĠMotiv": 9196,
      "Experiment": 9197,
      "corrected": 9198,
      "Deliber": 9199,
      "ĠDeliber": 9200,
      "Processor": 9201,
      "ARM": 9202,
      "Digiti": 9203,
      "Digital": 9204,
      "Security": 9205,
      "eeming": 9206,
      "Ġisol": 9207,
      "Ġelev": 9208,
      "Ġderiv": 9209,
      "ĠWorld": 9210,
      "cheduling": 9211,
      "studied": 9212,
      "olitical": 9213,
      "Individu": 9214,
      "ĠIndividu": 9215,
      "climate": 9216,
      "maintained": 9217,
      "painted": 9218,
      "implemented": 9219,
      "controllers": 9220,
      "Illust": 9221,
      "humid": 9222,
      "Ġescal": 9223,
      "inventing": 9224,
      "conductor": 9225,
      "ĠIllust": 9226,
      "Centric": 9227,
      "arrels": 9228,
      "Label": 9229,
      "quisite": 9230,
      "Ġhumid": 9231,
      "pheres": 9232,
      "recognized": 9233,
      "possessing": 9234,
      "categories": 9235,
      "ĠDigiti": 9236,
      "explained": 9237,
      "particle": 9238,
      "ĠExperiment": 9239,
      "employed": 9240,
      "Functional": 9241,
      "funding": 9242,
      "hunting": 9243,
      "menu": 9244,
      "ĠError": 9245,
      "divided": 9246,
      "mistak": 9247,
      "routine": 9248,
      "routines": 9249,
      "formatted": 9250,
      "conscious": 9251,
      "consciously": 9252,
      "compatible": 9253,
      "pleasant": 9254,
      "statement": 9255,
      "ĠService": 9256,
      "neighbor": 9257,
      "appearance": 9258,
      "architecture": 9259,
      "expensively": 9260,
      "Propagation": 9261,
      "authors": 9262,
      "LED": 9263,
      "competitive": 9264,
      "ĠEncoder": 9265,
      "important": 9266,
      "Ġllm": 9267,
      "prepared": 9268,
      "meetup": 9269,
      "touched": 9270,
      "method": 9271,
      "idirectional": 9272,
      "trophy": 9273,
      "11": 9274,
      "19": 9275,
      "98": 9276,
      "AQ": 9277,
      "AZ": 9278,
      "Actu": 9279,
      "Avoid": 9280,
      "Buff": 9281,
      "Burn": 9282,
      "Business": 9283,
      "BERT": 9284,
      "Cut": 9285,
      "Cri": 9286,
      "Cover": 9287,
      "Cell": 9288,
      "Cold": 9289,
      "Case": 9290,
      "Crowd": 9291,
      "Dens": 9292,
      "Dish": 9293,
      "Dele": 9294,
      "Dream": 9295,
      "Drag": 9296,
      "Deal": 9297,
      "Document": 9298,
      "Degra": 9299,
      "EE": 9300,
      "Ec": 9301,
      "Ear": 9302,
      "Ele": 9303,
      "Even": 9304,
      "Eval": 9305,
      "Eras": 9306,
      "Escal": 9307,
      "Eigen": 9308,
      "Establ": 9309,
      "Fo": 9310,
      "Fu": 9311,
      "Fig": 9312,
      "Feat": 9313,
      "Faith": 9314,
      "Future": 9315,
      "Frequency": 9316,
      "Facilit": 9317,
      "GL": 9318,
      "Gre": 9319,
      "Git": 9320,
      "Gent": 9321,
      "Gram": 9322,
      "Ghost": 9323,
      "Glob": 9324,
      "Hol": 9325,
      "Hear": 9326,
      "Hair": 9327,
      "Harmon": 9328,
      "Halluc": 9329,
      "It": 9330,
      "Iss": 9331,
      "Isol": 9332,
      "Know": 9333,
      "Let": 9334,
      "Lem": 9335,
      "Laugh": 9336,
      "Lik": 9337,
      "Liqu": 9338,
      "Lingual": 9339,
      "Men": 9340,
      "Mess": 9341,
      "Mock": 9342,
      "Made": 9343,
      "Mitig": 9344,
      "Mathematic": 9345,
      "Night": 9346,
      "Next": 9347,
      "OP": 9348,
      "Oscill": 9349,
      "PC": 9350,
      "Pin": 9351,
      "Pig": 9352,
      "Pain": 9353,
      "Press": 9354,
      "Port": 9355,
      "Perv": 9356,
      "Pars": 9357,
      "Pict": 9358,
      "Penet": 9359,
      "Popular": 9360,
      "Present": 9361,
      "Player": 9362,
      "Pleas": 9363,
      "RA": 9364,
      "Rap": 9365,
      "Rear": 9366,
      "Radic": 9367,
      "SA": 9368,
      "SO": 9369,
      "SV": 9370,
      "Sed": 9371,
      "Sen": 9372,
      "Sent": 9373,
      "Sum": 9374,
      "Sco": 9375,
      "Slow": 9376,
      "Site": 9377,
      "Select": 9378,
      "Soft": 9379,
      "School": 9380,
      "Tit": 9381,
      "Tac": 9382,
      "Tex": 9383,
      "Tru": 9384,
      "Tick": 9385,
      "Typ": 9386,
      "Types": 9387,
      "Warm": 9388,
      "Wire": 9389,
      "Wood": 9390,
      "Where": 9391,
      "aq": 9392,
      "aits": 9393,
      "avery": 9394,
      "bad": 9395,
      "bag": 9396,
      "bard": 9397,
      "bug": 9398,
      "brows": 9399,
      "cc": 9400,
      "cr": 9401,
      "cel": 9402,
      "cence": 9403,
      "cold": 9404,
      "cult": 9405,
      "caster": 9406,
      "cues": 9407,
      "cili": 9408,
      "crum": 9409,
      "caus": 9410,
      "crumb": 9411,
      "ciliation": 9412,
      "dr": 9413,
      "dra": 9414,
      "damp": 9415,
      "draft": 9416,
      "domestic": 9417,
      "django": 9418,
      "eased": 9419,
      "eks": 9420,
      "eans": 9421,
      "etically": 9422,
      "ease": 9423,
      "eigen": 9424,
      "fu": 9425,
      "fine": 9426,
      "furn": 9427,
      "flex": 9428,
      "false": 9429,
      "fabric": 9430,
      "glo": 9431,
      "gency": 9432,
      "gather": 9433,
      "gested": 9434,
      "hat": 9435,
      "hub": 9436,
      "harm": 9437,
      "hots": 9438,
      "halluc": 9439,
      "hicle": 9440,
      "ii": 9441,
      "iac": 9442,
      "iety": 9443,
      "iracy": 9444,
      "jquery": 9445,
      "junct": 9446,
      "javascript": 9447,
      "kl": 9448,
      "kernel": 9449,
      "las": 9450,
      "lies": 9451,
      "lang": 9452,
      "lust": 9453,
      "larg": 9454,
      "lasses": 9455,
      "luded": 9456,
      "mi": 9457,
      "mun": 9458,
      "match": 9459,
      "mix": 9460,
      "mier": 9461,
      "muted": 9462,
      "mobile": 9463,
      "mitig": 9464,
      "mathematic": 9465,
      "materi": 9466,
      "moment": 9467,
      "nals": 9468,
      "national": 9469,
      "narrow": 9470,
      "nearest": 9471,
      "oa": 9472,
      "oen": 9473,
      "otically": 9474,
      "oises": 9475,
      "oving": 9476,
      "pil": 9477,
      "pod": 9478,
      "pion": 9479,
      "piti": 9480,
      "purs": 9481,
      "pronoun": 9482,
      "powering": 9483,
      "rence": 9484,
      "raster": 9485,
      "ses": 9486,
      "sle": 9487,
      "sent": 9488,
      "slow": 9489,
      "sof": 9490,
      "sound": 9491,
      "sizing": 9492,
      "suit": 9493,
      "smooth": 9494,
      "social": 9495,
      "tom": 9496,
      "town": 9497,
      "tons": 9498,
      "telling": 9499,
      "uid": 9500,
      "uard": 9501,
      "uited": 9502,
      "uade": 9503,
      "ulet": 9504,
      "uples": 9505,
      "uores": 9506,
      "vest": 9507,
      "vability": 9508,
      "vitation": 9509,
      "vouch": 9510,
      "vailing": 9511,
      "wart": 9512,
      "warm": 9513,
      "wired": 9514,
      "worship": 9515,
      "xim": 9516,
      "yal": 9517,
      "yter": 9518,
      "yped": 9519,
      "you": 9520,
      "yrup": 9521,
      "yware": 9522,
      "ydro": 9523,
      "ycling": 9524,
      "zy": 9525,
      "zz": 9526,
      "Ġic": 9527,
      "Ġet": 9528,
      "Ġiss": 9529,
      "Ġrans": 9530,
      "Ġold": 9531,
      "Ġlect": 9532,
      "Ġorg": 9533,
      "Ġrust": 9534,
      "Ġrain": 9535,
      "Ġright": 9536,
      "Ġov": 9537,
      "inar": 9538,
      "inic": 9539,
      "inqu": 9540,
      "inematic": 9541,
      "indemn": 9542,
      "erup": 9543,
      "erals": 9544,
      "edy": 9545,
      "edies": 9546,
      "edded": 9547,
      "estive": 9548,
      "esign": 9549,
      "esome": 9550,
      "onight": 9551,
      "onically": 9552,
      "tib": 9553,
      "tiest": 9554,
      "titions": 9555,
      "tity": 9556,
      "tizes": 9557,
      "inge": 9558,
      "ingen": 9559,
      "ingling": 9560,
      "enes": 9561,
      "entive": 9562,
      "enge": 9563,
      "enue": 9564,
      "enched": 9565,
      "enues": 9566,
      "alcon": 9567,
      "alone": 9568,
      "alued": 9569,
      "orly": 9570,
      "orers": 9571,
      "oried": 9572,
      "orously": 9573,
      "orough": 9574,
      "repro": 9575,
      "remo": 9576,
      "reaching": 9577,
      "reported": 9578,
      "repreh": 9579,
      "reverber": 9580,
      "repreneur": 9581,
      "anf": 9582,
      "anagement": 9583,
      "anitary": 9584,
      "arling": 9585,
      "isors": 9586,
      "isory": 9587,
      "istering": 9588,
      "isoned": 9589,
      "leged": 9590,
      "itals": 9591,
      "ithe": 9592,
      "itatively": 9593,
      "itected": 9594,
      "ittered": 9595,
      "ittering": 9596,
      "ictions": 9597,
      "icacy": 9598,
[...]
