{
  "version": "1.0",
  "truncation": null,
  "padding": null,
  "added_tokens": [
    {
      "id": 20256,
      "content": "<|endoftext|>",
      "single_word": false,
      "lstrip": false,
      "rstrip": false,
      "normalized": false,
      "special": true
    },
    {
      "id": 20257,
      "content": "<|system|>",
      "single_word": false,
      "lstrip": false,
      "rstrip": false,
      "normalized": false,
      "special": true
    },
    {
      "id": 20258,
      "content": "<|user|>",
      "single_word": false,
      "lstrip": false,
      "rstrip": false,
      "normalized": false,
      "special": true
    },
    {
      "id": 20259,
      "content": "<|assistant|>",
      "single_word": false,
      "lstrip": false,
      "rstrip": false,
      "normalized": false,
      "special": true
    }
  ],
  "normalizer": null,
  "pre_tokenizer": {
    "type": "ByteLevel",
    "add_prefix_space": false,
    "trim_offsets": true,
    "use_regex": true
  },
  "post_processor": null,
  "decoder": {
    "type": "ByteLevel",
    "add_prefix_space": true,
    "trim_offsets": true,
    "use_regex": true
  },
  "model": {
    "type": "BPE",
    "dropout": null,
    "unk_token": null,
    "continuing_subword_prefix": null,
    "end_of_word_suffix": null,
    "fuse_unk": false,
    "byte_fallback": false,
    "ignore_merges": false,
    "vocab": {
      "!": 0,
      "\"": 1,
      "#": 2,
      "$": 3,
      "%": 4,
      "&": 5,
      "'": 6,
      "(": 7,
      ")": 8,
      "*": 9,
      "+": 10,
      ",": 11,
      "-": 12,
      ".": 13,
      "/": 14,
      "0": 15,
      "1": 16,
      "2": 17,
      "3": 18,
      "4": 19,
      "5": 20,
      "6": 21,
      "7": 22,
      "8": 23,
      "9": 24,
      ":": 25,
      ";": 26,
      "<": 27,
      "=": 28,
      ">": 29,
      "?": 30,
      "@": 31,
      "A": 32,
      "B": 33,
      "C": 34,
      "D": 35,
      "E": 36,
      "F": 37,
      "G": 38,
      "H": 39,
      "I": 40,
      "J": 41,
      "K": 42,
      "L": 43,
      "M": 44,
      "N": 45,
      "O": 46,
      "P": 47,
      "Q": 48,
      "R": 49,
      "S": 50,
      "T": 51,
      "U": 52,
      "V": 53,
      "W": 54,
      "X": 55,
      "Y": 56,
      "Z": 57,
      "[": 58,
      "\\": 59,
      "]": 60,
      "^": 61,
      "_": 62,
      "`": 63,
      "a": 64,
      "b": 65,
      "c": 66,
      "d": 67,
      "e": 68,
      "f": 69,
      "g": 70,
      "h": 71,
      "i": 72,
      "j": 73,
      "k": 74,
      "l": 75,
      "m": 76,
      "n": 77,
      "o": 78,
      "p": 79,
      "q": 80,
      "r": 81,
      "s": 82,
      "t": 83,
      "u": 84,
      "v": 85,
      "w": 86,
      "x": 87,
      "y": 88,
      "z": 89,
      "{": 90,
      "|": 91,
      "}": 92,
      "~": 93,
      "¡": 94,
      "¢": 95,
      "£": 96,
      "¤": 97,
      "¥": 98,
      "¦": 99,
      "§": 100,
      "¨": 101,
      "©": 102,
      "ª": 103,
      "«": 104,
      "¬": 105,
      "®": 106,
      "¯": 107,
      "°": 108,
      "±": 109,
      "²": 110,
      "³": 111,
      "´": 112,
      "µ": 113,
      "¶": 114,
      "·": 115,
      "¸": 116,
      "¹": 117,
      "º": 118,
      "»": 119,
      "¼": 120,
      "½": 121,
      "¾": 122,
      "¿": 123,
      "À": 124,
      "Á": 125,
      "Â": 126,
      "Ã": 127,
      "Ä": 128,
      "Å": 129,
      "Æ": 130,
      "Ç": 131,
      "È": 132,
      "É": 133,
      "Ê": 134,
      "Ë": 135,
      "Ì": 136,
      "Í": 137,
      "Î": 138,
      "Ï": 139,
      "Ð": 140,
      "Ñ": 141,
      "Ò": 142,
      "Ó": 143,
      "Ô": 144,
      "Õ": 145,
      "Ö": 146,
      "×": 147,
      "Ø": 148,
      "Ù": 149,
      "Ú": 150,
      "Û": 151,
      "Ü": 152,
      "Ý": 153,
      "Þ": 154,
      "ß": 155,
      "à": 156,
      "á": 157,
      "â": 158,
      "ã": 159,
      "ä": 160,
      "å": 161,
      "æ": 162,
      "ç": 163,
      "è": 164,
      "é": 165,
      "ê": 166,
      "ë": 167,
      "ì": 168,
      "í": 169,
      "î": 170,
      "ï": 171,
      "ð": 172,
      "ñ": 173,
      "ò": 174,
      "ó": 175,
      "ô": 176,
      "õ": 177,
      "ö": 178,
      "÷": 179,
      "ø": 180,
      "ù": 181,
      "ú": 182,
      "û": 183,
      "ü": 184,
      "ý": 185,
      "þ": 186,
      "ÿ": 187,
      "Ā": 188,
      "ā": 189,
      "Ă": 190,
      "ă": 191,
      "Ą": 192,
      "ą": 193,
      "Ć": 194,
      "ć": 195,
      "Ĉ": 196,
      "ĉ": 197,
      "Ċ": 198,
      "ċ": 199,
      "Č": 200,
      "č": 201,
      "Ď": 202,
      "ď": 203,
      "Đ": 204,
      "đ": 205,
      "Ē": 206,
      "ē": 207,
      "Ĕ": 208,
      "ĕ": 209,
      "Ė": 210,
      "ė": 211,
      "Ę": 212,
      "ę": 213,
      "Ě": 214,
      "ě": 215,
      "Ĝ": 216,
      "ĝ": 217,
      "Ğ": 218,
      "ğ": 219,
      "Ġ": 220,
      "ġ": 221,
      "Ģ": 222,
      "ģ": 223,
      "Ĥ": 224,
      "ĥ": 225,
      "Ħ": 226,
      "ħ": 227,
      "Ĩ": 228,
      "ĩ": 229,
      "Ī": 230,
      "ī": 231,
      "Ĭ": 232,
      "ĭ": 233,
      "Į": 234,
      "į": 235,
      "İ": 236,
      "ı": 237,
      "Ĳ": 238,
      "ĳ": 239,
      "Ĵ": 240,
      "ĵ": 241,
      "Ķ": 242,
      "ķ": 243,
      "ĸ": 244,
      "Ĺ": 245,
      "ĺ": 246,
      "Ļ": 247,
      "ļ": 248,
      "Ľ": 249,
      "ľ": 250,
      "Ŀ": 251,
      "ŀ": 252,
      "Ł": 253,
      "ł": 254,
      "Ń": 255,
      "Ġt": 256,
      "Ġa": 257,
      "he": 258,
      "in": 259,
      "re": 260,
      "Ġo": 261,
      "Ġthe": 262,
      "Ġs": 263,
      "on": 264,
      "er": 265,
      "at": 266,
      "Ġc": 267,
      "en": 268,
      "Ġw": 269,
      "Ġp": 270,
      "is": 271,
      "es": 272,
      "it": 273,
      "al": 274,
      "Ġb": 275,
      "ed": 276,
      "or": 277,
      "Ġf": 278,
      "Ġof": 279,
      "nd": 280,
      "Ġin": 281,
      "ing": 282,
      "Ġm": 283,
      "ion": 284,
      "Ġd": 285,
      "ic": 286,
      "ar": 287,
      "an": 288,
      "Ġto": 289,
      "ro": 290,
      "Ġand": 291,
      "le": 292,
      "as": 293,
      "Ġh": 294,
      "ou": 295,
      "Ġth": 296,
      "ent": 297,
      "Ġre": 298,
      "ct": 299,
      "Ġe": 300,
      "ĠT": 301,
      "Ġn": 302,
      "ve": 303,
      "om": 304,
      "Ġl": 305,
      "ly": 306,
      "Ġis": 307,
      "Ġbe": 308,
      "st": 309,
      "il": 310,
      "ĠThe": 311,
      "Ġg": 312,
      "ation": 313,
      "ot": 314,
      "im": 315,
      "se": 316,
      "ce": 317,
      "ut": 318,
      "Ġu": 319,
      "ra": 320,
      "Ġst": 321,
      "et": 322,
      "Ġfor": 323,
      "id": 324,
      "Ġthat": 325,
      "ol": 326,
      "ch": 327,
      "Ġon": 328,
      "Ġcon": 329,
      "ver": 330,
      "ig": 331,
      "ur": 332,
      "ow": 333,
      "ĠI": 334,
      "Ġpro": 335,
      "ul": 336,
      "Ġan": 337,
      "Ġare": 338,
      "ith": 339,
      "ir": 340,
      "Ġas": 341,
      "Ġor": 342,
      "Ġwith": 343,
      "Ġwe": 344,
      "Ġha": 345,
      "her": 346,
      "ment": 347,
      "ay": 348,
      "Ġal": 349,
      "ers": 350,
      "Ġde": 351,
      "Ġwh": 352,
      "Ġit": 353,
      "Ġex": 354,
      "ge": 355,
      "Ġcom": 356,
      "if": 357,
      "Ġsu": 358,
      "ive": 359,
      "ter": 360,
      "am": 361,
      "res": 362,
      "ect": 363,
      "ate": 364,
      "ab": 365,
      "Ġwas": 366,
      "od": 367,
      "ess": 368,
      "ld": 369,
      "qu": 370,
      "Ġv": 371,
      "ist": 372,
      "ad": 373,
      "pp": 374,
      "ri": 375,
      "ity": 376,
      "Ġnot": 377,
      "Ġse": 378,
      "op": 379,
      "ain": 380,
      "nt": 381,
      "ies": 382,
      "os": 383,
      "ial": 384,
      "ill": 385,
      "um": 386,
      "ĠA": 387,
      "ore": 388,
      "est": 389,
      "us": 390,
      "ant": 391,
      "Ġby": 392,
      "Ġsh": 393,
      "Ġr": 394,
      "ac": 395,
      "ical": 396,
      "oc": 397,
      "ort": 398,
      "Ġat": 399,
      "Ġhe": 400,
      "em": 401,
      "Ġhave": 402,
      "iv": 403,
      "Ġch": 404,
      "igh": 405,
      "Ġne": 406,
      "ure": 407,
      "rom": 408,
      "ak": 409,
      "el": 410,
      "Ġsp": 411,
      "art": 412,
      "ould": 413,
      "ud": 414,
      "Ġcomp": 415,
      "Ġy": 416,
      "ere": 417,
      "Ġfrom": 418,
      "Ġle": 419,
      "du": 420,
      "Ġthis": 421,
      "ĠH": 422,
      "all": 423,
      "Ġint": 424,
      "our": 425,
      "ions": 426,
      "ich": 427,
      "end": 428,
      "Ġpl": 429,
      "ome": 430,
      "and": 431,
      "Ġim": 432,
      "ated": 433,
      "pt": 434,
      "Ġhas": 435,
      "rou": 436,
      "Ġus": 437,
      "Ġcan": 438,
      "ĠW": 439,
      "Ġwere": 440,
      "Ġwhich": 441,
      "th": 442,
      "ous": 443,
      "Ġwor": 444,
      "Ġcont": 445,
      "ard": 446,
      "ru": 447,
      "ff": 448,
      "pl": 449,
      "ight": 450,
      "per": 451,
      "og": 452,
      "ther": 453,
      "Ġab": 454,
      "ost": 455,
      "ie": 456,
      "able": 457,
      "act": 458,
      "ĠS": 459,
      "Ġ1": 460,
      "Ġad": 461,
      "un": 462,
      "age": 463,
      "Ġinc": 464,
      "ult": 465,
      "Ġres": 466,
      "gh": 467,
      "Ġun": 468,
      "ĠTh": 469,
      "Ġapp": 470,
      "Ġdis": 471,
      "ĠIt": 472,
      "ations": 473,
      "ĠIn": 474,
      "ide": 475,
      "Ġall": 476,
      "Ġtheir": 477,
      "cc": 478,
      "ual": 479,
      "ib": 480,
      "Ġk": 481,
      "orm": 482,
      "are": 483,
      "Ġpart": 484,
      "Ġcl": 485,
      "Ġme": 486,
      "ip": 487,
      "ag": 488,
      "ance": 489,
      "ction": 490,
      "ast": 491,
      "Ġwhe": 492,
      "ine": 493,
      "ire": 494,
      "Ġro": 495,
      "out": 496,
      "ong": 497,
      "Ġar": 498,
      "Ġen": 499,
      "'s": 500,
      "iz": 501,
      "Ġ(": 502,
      "ary": 503,
      "vel": 504,
      "Ġper": 505,
      "Ġwill": 506,
      "ec": 507,
      "Ġdo": 508,
      "Ġman": 509,
      "Ġte": 510,
      "ach": 511,
      "Ġimp": 512,
      "ap": 513,
      "Ġthey": 514,
      "ll": 515,
      "ition": 516,
      "ust": 517,
      "so": 518,
      "ry": 519,
      "ans": 520,
      "Ġbut": 521,
      "Ġone": 522,
      "ount": 523,
      "ice": 524,
      "ence": 525,
      "one": 526,
      "Ġgo": 527,
      "Ġbeen": 528,
      "Ġthere": 529,
      "Ġalso": 530,
      "ear": 531,
      "Ġtra": 532,
      "Ġ-": 533,
      "ress": 534,
      "Ġmore": 535,
      "Ġother": 536,
      "ign": 537,
      "very": 538,
      "Ġj": 539,
      "Ġout": 540,
      "Ġqu": 541,
      "Ġsome": 542,
      "ens": 543,
      "Ġpre": 544,
      "Ġwork": 545,
      "Ġcons": 546,
      "Ġsy": 547,
      "ime": 548,
      "ase": 549,
      "00": 550,
      "form": 551,
      "ace": 552,
      "ass": 553,
      "Ġhis": 554,
      "iff": 555,
      "ack": 556,
      "ose": 557,
      "ĠHe": 558,
      "ind": 559,
      "Ġag": 560,
      "Ġrec": 561,
      "Ġsc": 562,
      "Ġinter": 563,
      "ors": 564,
      "ater": 565,
      "ree": 566,
      "ok": 567,
      "ular": 568,
      "ative": 569,
      "Ġev": 570,
      "Ġwould": 571,
      "ild": 572,
      "ue": 573,
      "Ġfl": 574,
      "Ġtw": 575,
      "Ġdiff": 576,
      "ces": 577,
      "ĠThis": 578,
      "au": 579,
      "ake": 580,
      "ents": 581,
      "Ġco": 582,
      "Ġno": 583,
      "ang": 584,
      "Ġso": 585,
      "ame": 586,
      "Ġcomm": 587,
      "Ġpe": 588,
      "ĠWe": 589,
      "Ġover": 590,
      "ĠO": 591,
      "Ġra": 592,
      "ject": 593,
      "Ġrel": 594,
      "Ġyou": 595,
      "Ġwho": 596,
      "Ġbec": 597,
      "erv": 598,
      "Ġhad": 599,
      "Ġam": 600,
      "lect": 601,
      "ric": 602,
      "Ġinto": 603,
      "Ġfe": 604,
      "Ġind": 605,
      "Ġoff": 606,
      "Ġup": 607,
      "Ġdes": 608,
      "av": 609,
      "Ġob": 610,
      "Ġbet": 611,
      "Ġprodu": 612,
      "ory": 613,
      "ally": 614,
      "ite": 615,
      "Ġexp": 616,
      "int": 617,
      "Ġits": 618,
      "ments": 619,
      "ail": 620,
      "ke": 621,
      "Ġmay": 622,
      "Ġthese": 623,
      "Ġtime": 624,
      "ĠF": 625,
      "Ġthan": 626,
      "Ġem": 627,
      "ĠThere": 628,
      "Ġused": 629,
      "ub": 630,
      "lic": 631,
      "we": 632,
      "hing": 633,
      "Ġtwo": 634,
      "Ġacc": 635,
      "Ġform": 636,
      "ings": 637,
      "Ġabout": 638,
      "ari": 639,
      "ark": 640,
      "ĠM": 641,
      "Ġsub": 642,
      "Ġund": 643,
      "Ġrep": 644,
      "cess": 645,
      "lud": 646,
      "Ġsuch": 647,
      "Ġgen": 648,
      "stem": 649,
      "Ġreg": 650,
      "Ġthem": 651,
      "ople": 652,
      "ced": 653,
      "olog": 654,
      "ific": 655,
      "ities": 656,
      "ility": 657,
      "ound": 658,
      "Ġinv": 659,
      "con": 660,
      "Ġnew": 661,
      "Ġprov": 662,
      "Ġpr": 663,
      "omet": 664,
      "rough": 665,
      "Ġsystem": 666,
      "Ġpo": 667,
      "ĠB": 668,
      "ood": 669,
      "ph": 670,
      "Ġtr": 671,
      "own": 672,
      "Ġonly": 673,
      "Ġpos": 674,
      "Ġpeople": 675,
      "Ġmod": 676,
      "Ġatt": 677,
      "ord": 678,
      "Ġdist": 679,
      "ble": 680,
      "ever": 681,
      "Ġeff": 682,
      "Ġany": 683,
      "Ġbu": 684,
      "ause": 685,
      "wn": 686,
      "ep": 687,
      "ĠC": 688,
      "hed": 689,
      "Ġunder": 690,
      "les": 691,
      "Ġact": 692,
      "ade": 693,
      "Ġ2": 694,
      "ber": 695,
      "ates": 696,
      "Ġpol": 697,
      "ĠThey": 698,
      "Ġass": 699,
      "Ġyear": 700,
      "ating": 701,
      "ween": 702,
      "Ġstud": 703,
      "ms": 704,
      "ough": 705,
      "Ġinclud": 706,
      "rib": 707,
      "Ġcol": 708,
      "Ġwhen": 709,
      "Ġbetween": 710,
      "Ġph": 711,
      "ons": 712,
      "round": 713,
      "Ġbo": 714,
      "Ġvery": 715,
      "ures": 716,
      "ile": 717,
      "Ġ19": 718,
      "ise": 719,
      "Ġspec": 720,
      "ys": 721,
      "resent": 722,
      "ike": 723,
      "ible": 724,
      "Ġpat": 725,
      "Ġsm": 726,
      "ks": 727,
      "Ġshould": 728,
      "ell": 729,
      "Ġpartic": 730,
      "tain": 731,
      "way": 732,
      "Ġdec": 733,
      "Ġnum": 734,
      "Ġdiffere": 735,
      "Ġpers": 736,
      "Ġsomet": 737,
      "ruct": 738,
      "Ġkn": 739,
      "Ġcar": 740,
      "Ġuse": 741,
      "red": 742,
      "owever": 743,
      "Ġac": 744,
      "Ġtrans": 745,
      "ious": 746,
      "Ġ\"": 747,
      "itt": 748,
      "ract": 749,
      "Ġher": 750,
      "Ġfir": 751,
      "oth": 752,
      "Ġgener": 753,
      "yp": 754,
      "ied": 755,
      "velop": 756,
      "dition": 757,
      "reat": 758,
      "Ġmo": 759,
      "ft": 760,
      "ren": 761,
      "Ġlar": 762,
      "Ġmost": 763,
      "old": 764,
      "Ġour": 765,
      "Ġrem": 766,
      "ple": 767,
      "Ġloc": 768,
      "Ġext": 769,
      "ful": 770,
      "ĠE": 771,
      "fore": 772,
      "Ġdisc": 773,
      "ĠP": 774,
      "Ġhigh": 775,
      "cy": 776,
      "ered": 777,
      "cept": 778,
      "Ġthrough": 779,
      "als": 780,
      "Ġref": 781,
      "hes": 782,
      "ange": 783,
      "Ġneed": 784,
      "ased": 785,
      "Ġmade": 786,
      "xt": 787,
      "low": 788,
      "ram": 789,
      "Ġlo": 790,
      "Ġdevelop": 791,
      "ved": 792,
      "Ġinst": 793,
      "ient": 794,
      "Ġcount": 795,
      "uch": 796,
      "ational": 797,
      "tern": 798,
      "Ġmany": 799,
      "Ġcould": 800,
      "row": 801,
      "Ġsim": 802,
      "Ġsur": 803,
      "Ġinf": 804,
      "Ġshe": 805,
      "Ġbl": 806,
      "uring": 807,
      "Ġvari": 808,
      "pect": 809,
      "Ġdet": 810,
      "te": 811,
      "vers": 812,
      "Ġappro": 813,
      "Ġserv": 814,
      "Ġresult": 815,
      "Ġlong": 816,
      "Ġway": 817,
      "urn": 818,
      "Ġif": 819,
      "Ġconst": 820,
      "ĠD": 821,
      "Ġmet": 822,
      "ution": 823,
      "Ġent": 824,
      "Ġincre": 825,
      "Ġsupp": 826,
      "fter": 827,
      "Ġconc": 828,
      "Ġcent": 829,
      "ural": 830,
      "Ġeffect": 831,
      "Ġsomething": 832,
      "its": 833,
      "chn": 834,
      "Ġprocess": 835,
      "Ġcor": 836,
      "iew": 837,
      "Ġaut": 838,
      "ink": 839,
      "Ġter": 840,
      "oy": 841,
      "Ġsmall": 842,
      "ics": 843,
      "ten": 844,
      "Ġeach": 845,
      "Ġimport": 846,
      "ically": 847,
      "lf": 848,
      "Ġdifferent": 849,
      "Ġsign": 850,
      "Ġpub": 851,
      "Ġtechn": 852,
      "Ġperson": 853,
      "Ġsoc": 854,
      "Ġfact": 855,
      "ool": 856,
      "Ġdef": 857,
      "Ġbeing": 858,
      "Ġfirst": 859,
      "Ġlike": 860,
      "ck": 861,
      "Ġchild": 862,
      "led": 863,
      "Ġwell": 864,
      "ning": 865,
      "Ġbecause": 866,
      "Ġ'": 867,
      "Ġmat": 868,
      "Ġnumber": 869,
      "ĠN": 870,
      "Ġinform": 871,
      "ving": 872,
      "Ġsch": 873,
      "ts": 874,
      "any": 875,
      "ĠOn": 876,
      "ather": 877,
      "Ġconsid": 878,
      "Ġmain": 879,
      "Ġgra": 880,
      "ron": 881,
      "Ġmust": 882,
      "ĠShe": 883,
      "Ġmake": 884,
      "ident": 885,
      "gan": 886,
      "ond": 887,
      "Ġwhat": 888,
      "Ġset": 889,
      "Ġshow": 890,
      "Ġwhere": 891,
      "Ġval": 892,
      "Ġlarge": 893,
      "Ġrequ": 894,
      "Ġthose": 895,
      "ually": 896,
      "ish": 897,
      "ick": 898,
      "Ġfin": 899,
      "Ġchar": 900,
      "Ġcr": 901,
      "min": 902,
      "air": 903,
      "Ġcomple": 904,
      "ily": 905,
      "ower": 906,
      "ature": 907,
      "Ġproble": 908,
      "Ġparticular": 909,
      "ants": 910,
      "get": 911,
      "ially": 912,
      "Ġtyp": 913,
      "Ġstr": 914,
      "hen": 915,
      "Ġindu": 916,
      "Ġposs": 917,
      "Ġlevel": 918,
      "Ġexam": 919,
      "Ġexper": 920,
      "ivid": 921,
      "ward": 922,
      "Ġdep": 923,
      "Ġmark": 924,
      "ict": 925,
      "Ġmy": 926,
      "Ġdire": 927,
      "ĠIf": 928,
      "Ġconf": 929,
      "ock": 930,
      "gg": 931,
      "Ġelect": 932,
      "Ġav": 933,
      "Ġboth": 934,
      "ional": 935,
      "Ġgiv": 936,
      "Ġcur": 937,
      "Ġschool": 938,
      "Ġthen": 939,
      "Ġend": 940,
      "ern": 941,
      "ases": 942,
      "Ġsa": 943,
      "Ġoften": 944,
      "Ġequ": 945,
      "aking": 946,
      "Ġgood": 947,
      "Ġplay": 948,
      "Ġma": 949,
      "Ġprog": 950,
      "ists": 951,
      "ĠHowever": 952,
      "Ġpoint": 953,
      "Ġoper": 954,
      "Ġcour": 955,
      "ps": 956,
      "erest": 957,
      "Ġyears": 958,
      ").": 959,
      "Ġord": 960,
      "Ġest": 961,
      "ices": 962,
      "Ġarea": 963,
      "Ġbus": 964,
      "Ġbuild": 965,
      "Ġback": 966,
      "ality": 967,
      "Ġpublic": 968,
      "Ġprop": 969,
      "Ġart": 970,
      "Ġthree": 971,
      "Ġstand": 972,
      "arly": 973,
      "ploy": 974,
      "ves": 975,
      "Ġmin": 976,
      "Ġinformation": 977,
      "Ġop": 978,
      "Ġgrou": 979,
      "uc": 980,
      "ized": 981,
      "Ġresp": 982,
      "ix": 983,
      "Ġindust": 984,
      "ia": 985,
      "other": 986,
      "ouse": 987,
      "Ġown": 988,
      "ted": 989,
      "ness": 990,
      "ages": 991,
      "ros": 992,
      "Ġpresent": 993,
      "Ġknow": 994,
      "Ġget": 995,
      "hip": 996,
      "Ġafter": 997,
      "Ġed": 998,
      "Ġcontro": 999,
      "Ġallow": 1000,
      "Ġinterest": 1001,
      "Ġocc": 1002,
      "Ġret": 1003,
      "Ġsame": 1004,
      "Ġcle": 1005,
      "Ġcost": 1006,
      "iss": 1007,
      "Ġmuch": 1008,
      "ues": 1009,
      "ĠL": 1010,
      "Ġstruct": 1011,
      "Ġke": 1012,
      "ency": 1013,
      "Ġlocal": 1014,
      "ting": 1015,
      "Ġser": 1016,
      "ined": 1017,
      "Ġcre": 1018,
      "ense": 1019,
      "Ġprovid": 1020,
      "Ġins": 1021,
      "ason": 1022,
      "ism": 1023,
      "Ġnow": 1024,
      "Ġdesign": 1025,
      "aw": 1026,
      "Ġhand": 1027,
      "Ġlif": 1028,
      "Ġpar": 1029,
      "ection": 1030,
      "Ġdi": 1031,
      "ĠR": 1032,
      "ision": 1033,
      "Ġbr": 1034,
      "ology": 1035,
      "Ġleg": 1036,
      "ĠAs": 1037,
      "Ġland": 1038,
      "Ġredu": 1039,
      "iqu": 1040,
      "Ġmon": 1041,
      "iod": 1042,
      "Ġright": 1043,
      "esp": 1044,
      "ention": 1045,
      "Ġdirect": 1046,
      "ale": 1047,
      "Ġdoes": 1048,
      "irc": 1049,
      "Ġhim": 1050,
      "Ġcare": 1051,
      "Ġmodel": 1052,
      "Ġmem": 1053,
      "Ġplace": 1054,
      "Ġwater": 1055,
      "ertain": 1056,
      "ven": 1057,
      "Ġadv": 1058,
      "ĠThat": 1059,
      "Ġimportant": 1060,
      "arch": 1061,
      "Ġorgan": 1062,
      "Ġfar": 1063,
      "Ġmed": 1064,
      "Ġeven": 1065,
      "Ġdem": 1066,
      "Ġfun": 1067,
      "hem": 1068,
      "ee": 1069,
      "Ġday": 1070,
      "ired": 1071,
      "ollow": 1072,
      "read": 1073,
      "Ġproduct": 1074,
      "Ġgl": 1075,
      "ĠWh": 1076,
      "Ġjust": 1077,
      "Ġca": 1078,
      "ty": 1079,
      "Ġfam": 1080,
      "Ġplan": 1081,
      "Ġagain": 1082,
      "nce": 1083,
      "Ġcase": 1084,
      "Ġanal": 1085,
      "vern": 1086,
      "Ġobject": 1087,
      "iness": 1088,
      "osed": 1089,
      "Ġcontin": 1090,
      "Ġmeas": 1091,
      "Ġinvest": 1092,
      "ividual": 1093,
      "itions": 1094,
      "ute": 1095,
      "ef": 1096,
      "ives": 1097,
      "Ġ3": 1098,
      "ited": 1099,
      "ines": 1100,
      "ize": 1101,
      "Ġview": 1102,
      "Ġfac": 1103,
      "Ġexpl": 1104,
      "ĠAn": 1105,
      "imes": 1106,
      "ised": 1107,
      "Ġfound": 1108,
      "000": 1109,
      "Ġperiod": 1110,
      "Ġduring": 1111,
      "Ġpass": 1112,
      "Ġtake": 1113,
      "Ġdat": 1114,
      "ital": 1115,
      "Ġpay": 1116,
      "Ġrest": 1117,
      "Ġdesc": 1118,
      "Ġcountry": 1119,
      "ected": 1120,
      "Ġele": 1121,
      "less": 1122,
      "Ġchildren": 1123,
      "ax": 1124,
      "Ġindividual": 1125,
      "ob": 1126,
      "Ġpri": 1127,
      "Ġevery": 1128,
      "Ġdown": 1129,
      "Ġwr": 1130,
      "ological": 1131,
      "Ġadd": 1132,
      "âĢ": 1133,
      "Ġcommun": 1134,
      "Ġauth": 1135,
      "cond": 1136,
      "bers": 1137,
      "Ġgreat": 1138,
      "Ġhel": 1139,
      "und": 1140,
      "Ġroom": 1141,
      "Ġcall": 1142,
      "Ġstudy": 1143,
      "Ġcap": 1144,
      "Ġprof": 1145,
      "rent": 1146,
      "Ġbas": 1147,
      "ĠThese": 1148,
      "itive": 1149,
      "wor": 1150,
      "Ġemploy": 1151,
      "ield": 1152,
      "Ġclass": 1153,
      "Ġhow": 1154,
      "Ġamount": 1155,
      "atic": 1156,
      "Ġfollow": 1157,
      "Ġsocial": 1158,
      "Ġinvol": 1159,
      "Ġgovern": 1160,
      "ished": 1161,
      "conom": 1162,
      "Ġwithin": 1163,
      "Ġbro": 1164,
      "Ġbel": 1165,
      "Ġreal": 1166,
      "Ġlim": 1167,
      "Ġvis": 1168,
      "Ġsupport": 1169,
      "Ġword": 1170,
      "ross": 1171,
      "Ġsl": 1172,
      "Ġsee": 1173,
      "âĢĶ": 1174,
      "iron": 1175,
      "alth": 1176,
      "erg": 1177,
      "Ġhouse": 1178,
      "inc": 1179,
      "Ġmus": 1180,
      "ience": 1181,
      "Ġsecond": 1182,
      "Ġusing": 1183,
      "Ġbefore": 1184,
      "ption": 1185,
      "Ġiss": 1186,
      "Ġrese": 1187,
      "Ġconsider": 1188,
      "Ġeconom": 1189,
      "Ġmarket": 1190,
      "Ġgrow": 1191,
      "Ġwithout": 1192,
      "ries": 1193,
      "ulation": 1194,
      "Ġorder": 1195,
      "ull": 1196,
      "Ġpract": 1197,
      "Ġsk": 1198,
      "ins": 1199,
      "ner": 1200,
      "Ġrepresent": 1201,
      "ared": 1202,
      "Ġworld": 1203,
      "ior": 1204,
      "Ġve": 1205,
      "Ġlead": 1206,
      "Ġpa": 1207,
      "Ġpur": 1208,
      "Ġgu": 1209,
      "Ġstate": 1210,
      "Ġbook": 1211,
      "akes": 1212,
      "Ġsing": 1213,
      "cial": 1214,
      "ways": 1215,
      "Ġcompany": 1216,
      "ove": 1217,
      "up": 1218,
      "Ġbeh": 1219,
      "Ġrecord": 1220,
      "ger": 1221,
      "Ġprev": 1222,
      "ĠU": 1223,
      "Ġpres": 1224,
      "ances": 1225,
      "Ġaff": 1226,
      "oun": 1227,
      "Ġspecial": 1228,
      "Ġless": 1229,
      "Ġhum": 1230,
      "Ġfil": 1231,
      "ately": 1232,
      "ling": 1233,
      "Ġbusiness": 1234,
      "Ġsol": 1235,
      "itical": 1236,
      "Ġimpro": 1237,
      "ability": 1238,
      "Ġpop": 1239,
      "inal": 1240,
      "icult": 1241,
      "por": 1242,
      "Ġsit": 1243,
      "oss": 1244,
      "Ġdevelopment": 1245,
      "Ġopen": 1246,
      "Ġfood": 1247,
      "Ġyour": 1248,
      "Ġide": 1249,
      "ified": 1250,
      "Ġlight": 1251,
      "angu": 1252,
      "Ġshort": 1253,
      "Ġquest": 1254,
      "Ġdata": 1255,
      "Ġperform": 1256,
      "ank": 1257,
      "jor": 1258,
      "Ġdid": 1259,
      "ars": 1260,
      "Ġnon": 1261,
      "ains": 1262,
      "not": 1263,
      "Ġcharact": 1264,
      "Ġfind": 1265,
      "Ġgiven": 1266,
      "Ġactiv": 1267,
      "Ġtem": 1268,
      "Ġsomeone": 1269,
      "Ġavail": 1270,
      "ath": 1271,
      "ety": 1272,
      "ining": 1273,
      "Ġdifficult": 1274,
      "'t": 1275,
      "Ġinfl": 1276,
      "uss": 1277,
      "Ġaddition": 1278,
      "par": 1279,
      "ization": 1280,
      "raph": 1281,
      "rop": 1282,
      "ince": 1283,
      "Ġcontrol": 1284,
      "urther": 1285,
      "Ġlife": 1286,
      "Ġpower": 1287,
      "Ġpossible": 1288,
      "Ġdra": 1289,
      "of": 1290,
      "Ġauthor": 1291,
      "Ġproblem": 1292,
      "Ġanother": 1293,
      "Ġsignific": 1294,
      "Ġput": 1295,
      "ody": 1296,
      "istic": 1297,
      "Ġchang": 1298,
      "Ġcomput": 1299,
      "Ġmajor": 1300,
      "Ġcirc": 1301,
      "Ġprot": 1302,
      "ieve": 1303,
      "Ġstandard": 1304,
      "ave": 1305,
      "Ġlangu": 1306,
      "Ġsubject": 1307,
      "Ġlow": 1308,
      "Ġel": 1309,
      "oney": 1310,
      "Ġfour": 1311,
      "ggest": 1312,
      "Ġlaw": 1313,
      "Ġsuggest": 1314,
      "ently": 1315,
      "Ġstill": 1316,
      "ential": 1317,
      "Ġrather": 1318,
      "Ġopp": 1319,
      "Ġproper": 1320,
      "self": 1321,
      "Ġcertain": 1322,
      "Ġlook": 1323,
      "Ġpot": 1324,
      "ĠÂ": 1325,
      "Ġthink": 1326,
      "Ġdel": 1327,
      "Ġcommon": 1328,
      "Ġturn": 1329,
      "Ġrun": 1330,
      "work": 1331,
      "Ġgroup": 1332,
      "ĠFor": 1333,
      "Ġread": 1334,
      "io": 1335,
      "Ġgr": 1336,
      "cing": 1337,
      "med": 1338,
      "Ġmight": 1339,
      "Ġold": 1340,
      "Ġrece": 1341,
      "Ġgeneral": 1342,
      "Ġris": 1343,
      "ĠÂ£": 1344,
      "Ġdr": 1345,
      "Ġhowever": 1346,
      "Ġmean": 1347,
      "Ġavailable": 1348,
      "de": 1349,
      "Ġhelp": 1350,
      "gu": 1351,
      "Ġesp": 1352,
      "ral": 1353,
      "arent": 1354,
      "Ġwhile": 1355,
      "Ġmot": 1356,
      "Ġseem": 1357,
      "Ġsay": 1358,
      "Ġappear": 1359,
      "Ġmeth": 1360,
      "Ġexample": 1361,
      "Ġcell": 1362,
      "Ġbuilding": 1363,
      "Ġprovide": 1364,
      "alk": 1365,
      "Ġeng": 1366,
      "ret": 1367,
      "Ġtre": 1368,
      "Ġindustry": 1369,
      "Ġ4": 1370,
      "Ġtest": 1371,
      "Ġline": 1372,
      "ets": 1373,
      "Ġgre": 1374,
      "ably": 1375,
      "eed": 1376,
      "Ġinclude": 1377,
      "Ġgovernment": 1378,
      "Ġpain": 1379,
      "Ġmoney": 1380,
      "idence": 1381,
      "Ġstructure": 1382,
      "Ġtru": 1383,
      "Ġeduc": 1384,
      "Ġ5": 1385,
      "ration": 1386,
      "tal": 1387,
      "ator": 1388,
      "Ġhealth": 1389,
      "Ġsever": 1390,
      "rodu": 1391,
      "omen": 1392,
      "uation": 1393,
      "Ġhome": 1394,
      "ier": 1395,
      "Ġreport": 1396,
      "Ġapproach": 1397,
      "Ġmult": 1398,
      "me": 1399,
      "Ġusually": 1400,
      "Ġanalys": 1401,
      "Ġlab": 1402,
      "Ġthough": 1403,
      "Ġmethod": 1404,
      "ash": 1405,
      "ended": 1406,
      "ived": 1407,
      "ffic": 1408,
      "ĠOne": 1409,
      "Ġproject": 1410,
      "Ġben": 1411,
      "stand": 1412,
      "ression": 1413,
      "Ġstart": 1414,
      "Ġsingle": 1415,
      "Ġfre": 1416,
      "Ġhist": 1417,
      "Ġaround": 1418,
      "Ġfore": 1419,
      "Ġpast": 1420,
      "Ġmil": 1421,
      "Ġaccount": 1422,
      "Ġintern": 1423,
      "Ġdiscuss": 1424,
      "ibility": 1425,
      "Ġident": 1426,
      "oci": 1427,
      "ĠAt": 1428,
      "Ġreason": 1429,
      "ither": 1430,
      "ĠG": 1431,
      "Ġbar": 1432,
      "ogn": 1433,
      "Ġmill": 1434,
      "aken": 1435,
      "though": 1436,
      "iting": 1437,
      "Ġcharacter": 1438,
      "ape": 1439,
      "Ġresearch": 1440,
      "ograph": 1441,
      "Ġage": 1442,
      "Ġmater": 1443,
      "Ġpolic": 1444,
      "Ġproduction": 1445,
      "eng": 1446,
      "Ġprogram": 1447,
      "ateg": 1448,
      "Ġwind": 1449,
      "Ġseveral": 1450,
      "Ġvalue": 1451,
      "Ġobs": 1452,
      "Ġwant": 1453,
      "Ġenv": 1454,
      "Ġmove": 1455,
      "Ġconcern": 1456,
      "Ġtop": 1457,
      "Ġfig": 1458,
      "Ġexist": 1459,
      "used": 1460,
      "Ġfew": 1461,
      "Ġtri": 1462,
      "Ġincluding": 1463,
      "ination": 1464,
      "Ġservice": 1465,
      "Ġorig": 1466,
      "Ġpattern": 1467,
      "Ġdeb": 1468,
      "amp": 1469,
      "Ġdeter": 1470,
      "ecially": 1471,
      "Ġcannot": 1472,
      "Ġmar": 1473,
      "Ġlanguage": 1474,
      "Ġstat": 1475,
      "ĠTo": 1476,
      "Ġbre": 1477,
      "Ġspace": 1478,
      "iple": 1479,
      "Ġdeal": 1480,
      "Ġtax": 1481,
      "Ġsubst": 1482,
      "ering": 1483,
      "ĠWhen": 1484,
      "Ġnecess": 1485,
      "Ġrespons": 1486,
      "Ġair": 1487,
      "Ġroad": 1488,
      "Ġche": 1489,
      "Ġfunction": 1490,
      "Ġgive": 1491,
      "Ġsal": 1492,
      "els": 1493,
      "Ġwar": 1494,
      "Ġchange": 1495,
      "Ġcurrent": 1496,
      "Ġ/": 1497,
      "Ġassoci": 1498,
      "ccess": 1499,
      "Ġlast": 1500,
      "Ġareas": 1501,
      "Ġmeasure": 1502,
      "Ġprinc": 1503,
      "Ġste": 1504,
      "ium": 1505,
      "Ġagainst": 1506,
      "Ġvol": 1507,
      "Ġstrong": 1508,
      "mental": 1509,
      "Ġcourse": 1510,
      "Ġfamily": 1511,
      "ats": 1512,
      "line": 1513,
      "Ġcond": 1514,
      "Ġhead": 1515,
      "Ġtoo": 1516,
      "Ġespecially": 1517,
      "Ġoffic": 1518,
      "Ġpriv": 1519,
      "Ġcases": 1520,
      "Ġsignificant": 1521,
      "Ġver": 1522,
      "Ġpost": 1523,
      "Ġrelations": 1524,
      "ittle": 1525,
      "Ġphys": 1526,
      "Ġleft": 1527,
      "Ġenviron": 1528,
      "asing": 1529,
      "ĠAl": 1530,
      "Ġindic": 1531,
      "Ġoccur": 1532,
      "Ġsec": 1533,
      "Ġfield": 1534,
      "iter": 1535,
      "Ġnet": 1536,
      "sp": 1537,
      "Ġapplic": 1538,
      "erence": 1539,
      "Ġinit": 1540,
      "ribut": 1541,
      "ird": 1542,
      "Ġbecome": 1543,
      "Ġbased": 1544,
      "Ġhard": 1545,
      "Ġmeans": 1546,
      "ients": 1547,
      "Ġhig": 1548,
      "ĠHis": 1549,
      "Ġhous": 1550,
      "eg": 1551,
      "ators": 1552,
      "Ġdri": 1553,
      "Ġsense": 1554,
      "cl": 1555,
      "aps": 1556,
      "Ġsound": 1557,
      "Ġfree": 1558,
      "Ġach": 1559,
      "sc": 1560,
      "omm": 1561,
      "Ġmaterial": 1562,
      "ilities": 1563,
      "ici": 1564,
      "xim": 1565,
      "Ġresults": 1566,
      "oint": 1567,
      "Ġwee": 1568,
      "Ġconn": 1569,
      "ruction": 1570,
      "Ġlittle": 1571,
      "ĠY": 1572,
      "Ġquestion": 1573,
      "Ġbi": 1574,
      "Ġsurf": 1575,
      "Ġargu": 1576,
      "Ġhuman": 1577,
      "sel": 1578,
      "Ġself": 1579,
      "put": 1580,
      "Ġeas": 1581,
      "Ġfull": 1582,
      "ences": 1583,
      "ained": 1584,
      "Ġconsum": 1585,
      "Ġpolitical": 1586,
      "Ġcontinu": 1587,
      "Ġdescrib": 1588,
      "Ġalways": 1589,
      "ert": 1590,
      "oor": 1591,
      "Ġfund": 1592,
      "Ġsuccess": 1593,
      "Ġrev": 1594,
      "ables": 1595,
      "ilar": 1596,
      "Ġpress": 1597,
      "Ġpie": 1598,
      "Ġear": 1599,
      "Ġtype": 1600,
      "ĠBut": 1601,
      "ury": 1602,
      "ify": 1603,
      "rict": 1604,
      "ilt": 1605,
      "omes": 1606,
      "Ġdev": 1607,
      "ples": 1608,
      "Ġproblems": 1609,
      "ends": 1610,
      "day": 1611,
      "mb": 1612,
      "Ġfurther": 1613,
      "Ġsystems": 1614,
      "ex": 1615,
      "iving": 1616,
      "Ġstre": 1617,
      "Ġneg": 1618,
      "Ġmor": 1619,
      "Ġlater": 1620,
      "Ġrad": 1621,
      "oid": 1622,
      "Ġcult": 1623,
      "Ġworking": 1624,
      "fact": 1625,
      "orts": 1626,
      "ware": 1627,
      "Ġwhole": 1628,
      "mm": 1629,
      "atory": 1630,
      "Ġill": 1631,
      "the": 1632,
      "Ġrate": 1633,
      "atures": 1634,
      "Ġhapp": 1635,
      "ote": 1636,
      "Ġsaid": 1637,
      "Ġcut": 1638,
      "ending": 1639,
      "ng": 1640,
      "ension": 1641,
      "Ġjud": 1642,
      "Ġdue": 1643,
      "Ġclear": 1644,
      "Ġrole": 1645,
      "Ġside": 1646,
      "Ġbehav": 1647,
      "ront": 1648,
      "Ġtext": 1649,
      "Ġstation": 1650,
      "ane": 1651,
      "ged": 1652,
      "Ġplac": 1653,
      "Ġposition": 1654,
      "Ġrele": 1655,
      "Ġservices": 1656,
      "Ġknown": 1657,
      "Ġtherefore": 1658,
      "bo": 1659,
      "ne": 1660,
      "Ġinflu": 1661,
      "ledge": 1662,
      "ising": 1663,
      "ĠAll": 1664,
      "Ġsw": 1665,
      "val": 1666,
      "side": 1667,
      "abl": 1668,
      "Ġbenef": 1669,
      "Ġmen": 1670,
      "Ġdom": 1671,
      "Ġflow": 1672,
      "ories": 1673,
      "Ġsepar": 1674,
      "Ġquality": 1675,
      "Ġearly": 1676,
      "Ġanalysis": 1677,
      "Ġwhether": 1678,
      "Ġground": 1679,
      "Ġunderstand": 1680,
      "Ġgame": 1681,
      "Ġrelative": 1682,
      "Ġlear": 1683,
      "Ġaccess": 1684,
      "Ġdetail": 1685,
      "Ġcompet": 1686,
      "Ġcomb": 1687,
      "Ġfut": 1688,
      "Ġprom": 1689,
      "Ġcal": 1690,
      "over": 1691,
      "sequ": 1692,
      "pped": 1693,
      "Ġunt": 1694,
      "Ġdam": 1695,
      "Ġcomplex": 1696,
      "Ġnorm": 1697,
      "Ġsect": 1698,
      "Ġtaken": 1699,
      "Ġcy": 1700,
      "Ġtele": 1701,
      "Ġconditions": 1702,
      "to": 1703,
      "Ġhaving": 1704,
      "Ġable": 1705,
      "Ġamong": 1706,
      "Ġprim": 1707,
      "Ġcomplete": 1708,
      "Ġeducation": 1709,
      "Ġkind": 1710,
      "Ġsimilar": 1711,
      "aff": 1712,
      "Ġnat": 1713,
      "Ġann": 1714,
      "Ġmag": 1715,
      "Ġtechniqu": 1716,
      "Ġwomen": 1717,
      "Ġaction": 1718,
      "Ġcolle": 1719,
      "Ġfram": 1720,
      "ribution": 1721,
      "Ġmaking": 1722,
      "Ġvarious": 1723,
      "Ġspecific": 1724,
      "Ġmonth": 1725,
      "oot": 1726,
      "Ġthings": 1727,
      "ively": 1728,
      "Ġsince": 1729,
      "),": 1730,
      "Ġimprove": 1731,
      "Ġtotal": 1732,
      "ours": 1733,
      "ards": 1734,
      "ĠWhat": 1735,
      "ery": 1736,
      "ope": 1737,
      "Ġrisk": 1738,
      "Ġeither": 1739,
      "Ġcorre": 1740,
      "ges": 1741,
      "Ġrequired": 1742,
      "Ġdeg": 1743,
      "hic": 1744,
      "Ġdone": 1745,
      "Ġwords": 1746,
      "Ġmembers": 1747,
      "etic": 1748,
      "Ġpaper": 1749,
      "Ġaccept": 1750,
      "ides": 1751,
      "most": 1752,
      "here": 1753,
      "Ġet": 1754,
      "Ġterm": 1755,
      "Ġsize": 1756,
      "Ġbra": 1757,
      "Ġ6": 1758,
      "iment": 1759,
      "Ġmillion": 1760,
      "Ġalong": 1761,
      "Ġincrease": 1762,
      "Ġinteract": 1763,
      "Ġtreat": 1764,
      "Ġ200": 1765,
      "wards": 1766,
      "Ġmusic": 1767,
      "hold": 1768,
      "Ġnational": 1769,
      "Ġabs": 1770,
      "Ġbody": 1771,
      "Ġconsidered": 1772,
      "Ġ20": 1773,
      "ĠSome": 1774,
      "Ġenc": 1775,
      "Ġclose": 1776,
      "ext": 1777,
      "Ġcondition": 1778,
      "Ġbetter": 1779,
      "port": 1780,
      "Ġknowledge": 1781,
      "Ġhere": 1782,
      "Ġ18": 1783,
      "Ġaltern": 1784,
      "Ġincreased": 1785,
      "pping": 1786,
      "Ġsam": 1787,
      "ott": 1788,
      "Ġpolicy": 1789,
      "Ġterms": 1790,
      "Ġanim": 1791,
      "Ġcomputer": 1792,
      "Ġobserv": 1793,
      "sy": 1794,
      "ches": 1795,
      "Ġeconomic": 1796,
      "Ġcome": 1797,
      "Ġrespect": 1798,
      "Ġassum": 1799,
      "Ġgrowth": 1800,
      "Ġfuture": 1801,
      "Ġestabl": 1802,
      "Ġsty": 1803,
      "Ġpred": 1804,
      "ission": 1805,
      "fer": 1806,
      "Ġwood": 1807,
      "Ġhigher": 1808,
      "Ġwide": 1809,
      "Ġintrodu": 1810,
      "Ġsens": 1811,
      "imate": 1812,
      "man": 1813,
      "Ġpath": 1814,
      "Ġvehic": 1815,
      "Ġer": 1816,
      "Ġport": 1817,
      "Ġabove": 1818,
      "Ġsurface": 1819,
      "Ġrequire": 1820,
      "Ġloss": 1821,
      "Ġtoget": 1822,
      "Ġfeel": 1823,
      "Ġtogether": 1824,
      "ressed": 1825,
      "osp": 1826,
      "Ġarch": 1827,
      "Ġseen": 1828,
      "ming": 1829,
      "Ġrange": 1830,
      "Ġaspect": 1831,
      "Ġnever": 1832,
      "ensive": 1833,
      "ĠWith": 1834,
      "Ġmatter": 1835,
      "ortun": 1836,
      "Ġmanage": 1837,
      "ters": 1838,
      "Ġtravel": 1839,
      "Ġbest": 1840,
      "Ġfront": 1841,
      "Ġmach": 1842,
      "Ġetc": 1843,
      "Ġcoun": 1844,
      "alf": 1845,
      "Ġcat": 1846,
      "inary": 1847,
      "Ġhold": 1848,
      "ĠMany": 1849,
      "Ġincluded": 1850,
      "ring": 1851,
      "hers": 1852,
      "Ġnext": 1853,
      "Ġmeet": 1854,
      "Ġteam": 1855,
      "Ġsour": 1856,
      "Ġtechnology": 1857,
      "Ġten": 1858,
      "ode": 1859,
      "chan": 1860,
      "epend": 1861,
      "Ġcho": 1862,
      "Ġprivate": 1863,
      "Ġfrequ": 1864,
      "Ġlist": 1865,
      "oph": 1866,
      "room": 1867,
      "Ġdou": 1868,
      "lement": 1869,
      "Ġprovided": 1870,
      "ification": 1871,
      "Ġpark": 1872,
      "Ġbeg": 1873,
      "Ġuntil": 1874,
      "nces": 1875,
      "Ġfive": 1876,
      "Ġred": 1877,
      "Ġprofess": 1878,
      "Ġfoc": 1879,
      "Ġask": 1880,
      "Ġregard": 1881,
      "erc": 1882,
      "Ġschem": 1883,
      "Ġstudents": 1884,
      "Ġopt": 1885,
      "ored": 1886,
      "Ġevidence": 1887,
      "Ġfail": 1888,
      "Ġnatural": 1889,
      "Ġdise": 1890,
      "Ġinvestig": 1891,
      "Ġarr": 1892,
      "verage": 1893,
      "Ġbuilt": 1894,
      "aring": 1895,
      "Ġant": 1896,
      "Ġrepl": 1897,
      "Ġaway": 1898,
      "Ġcontain": 1899,
      "Ġcommunity": 1900,
      "Ġgoing": 1901,
      "Ġsoci": 1902,
      "Ġcalled": 1903,
      "Ġconstit": 1904,
      "cle": 1905,
      "Ġcla": 1906,
      "Ġlet": 1907,
      "Ġnecessary": 1908,
      "Ġbecame": 1909,
      "Ġissue": 1910,
      "ned": 1911,
      "Ġchanges": 1912,
      "Ġ199": 1913,
      "ands": 1914,
      "iation": 1915,
      "Ġappl": 1916,
      "ops": 1917,
      "Ġ10": 1918,
      "Ġcompon": 1919,
      "Ġeffects": 1920,
      "Ġconsist": 1921,
      "Ġengine": 1922,
      "Ġbal": 1923,
      "Ġparent": 1924,
      "Ġfeatures": 1925,
      "Ġincreasing": 1926,
      "Ġcity": 1927,
      "ules": 1928,
      "Ġstaff": 1929,
      "Ġkeep": 1930,
      "Ġprob": 1931,
      "Ġproducts": 1932,
      "Ġdetermin": 1933,
      "Ġcontext": 1934,
      "Ġyoung": 1935,
      "Ġtimes": 1936,
      "Ġmechan": 1937,
      "Ġprice": 1938,
      "Ġwall": 1939,
      "Ġparticip": 1940,
      "Ġprec": 1941,
      "medi": 1942,
      "Ġfinan": 1943,
      "lected": 1944,
      "Ġspe": 1945,
      "Ġagree": 1946,
      "cent": 1947,
      "Ġlib": 1948,
      "Ġweek": 1949,
      "ried": 1950,
      "Ġbroad": 1951,
      "Ġgroups": 1952,
      "ivers": 1953,
      "Ġess": 1954,
      "selves": 1955,
      "Ġframe": 1956,
      "tical": 1957,
      "lation": 1958,
      "Ġstra": 1959,
      "Ġrail": 1960,
      "oura": 1961,
      "Ġname": 1962,
      "Ġfall": 1963,
      "Ġupon": 1964,
      "Ġthing": 1965,
      "Ġfeature": 1966,
      "iously": 1967,
      "Ġmid": 1968,
      "Ġmakes": 1969,
      "ead": 1970,
      "olution": 1971,
      "ready": 1972,
      "Ġsituation": 1973,
      "ingu": 1974,
      "Ġtradition": 1975,
      "Ġstudies": 1976,
      "Ġcompan": 1977,
      "Ġobtain": 1978,
      "Ġrelationship": 1979,
      "Ġmodern": 1980,
      "ĠAfter": 1981,
      "Ġinteg": 1982,
      "ergy": 1983,
      "Ġwindow": 1984,
      "ixed": 1985,
      "Ġteac": 1986,
      "Ġlack": 1987,
      "Ġrecogn": 1988,
      "uses": 1989,
      "Ġtown": 1990,
      "Ġstage": 1991,
      "Ġaud": 1992,
      "Ġcoll": 1993,
      "Ġlower": 1994,
      "Ġimpact": 1995,
      "Ġsometimes": 1996,
      "Ġdistin": 1997,
      "Ġsuper": 1998,
      "itted": 1999,
      "empt": 2000,
      "ĠSt": 2001,
      "bit": 2002,
      "Ġexperience": 2003,
      "Ġpurp": 2004,
      "rated": 2005,
      "ured": 2006,
      "Ġassist": 2007,
      "Ġevent": 2008,
      "omp": 2009,
      "for": 2010,
      "Ġothers": 2011,
      "aries": 2012,
      "ched": 2013,
      "Ġalready": 2014,
      "ball": 2015,
      "Ġinvolved": 2016,
      "ulated": 2017,
      "Ġbelieve": 2018,
      "Ġtemper": 2019,
      "Ġhot": 2020,
      "ots": 2021,
      "Ġinterv": 2022,
      "Ġshows": 2023,
      "Ġleast": 2024,
      "aged": 2025,
      "irt": 2026,
      "Ġsoft": 2027,
      "bs": 2028,
      "Ġcust": 2029,
      "Ġphot": 2030,
      "ief": 2031,
      "rast": 2032,
      "itud": 2033,
      "Ġfilm": 2034,
      "Ġtar": 2035,
      "Ġacross": 2036,
      "Ġattention": 2037,
      "Ġlikely": 2038,
      "let": 2039,
      "Ġoriginal": 2040,
      "rial": 2041,
      "Ġpersonal": 2042,
      "Ġcapital": 2043,
      "ened": 2044,
      "ule": 2045,
      "Ġcountries": 2046,
      "orth": 2047,
      "Ġreturn": 2048,
      "Ġhy": 2049,
      "Ġalmost": 2050,
      "Ġface": 2051,
      "Ġfoot": 2052,
      "urs": 2053,
      "Ġexc": 2054,
      "Ġsaf": 2055,
      "Ġcross": 2056,
      "Ġentire": 2057,
      "Ġextre": 2058,
      "by": 2059,
      "Ġartic": 2060,
      "Ġge": 2061,
      "Ġability": 2062,
      "ises": 2063,
      "Ġmanagement": 2064,
      "Ġsent": 2065,
      "Ġoffice": 2066,
      "Ġitself": 2067,
      "usion": 2068,
      "ires": 2069,
      "Ġpatients": 2070,
      "Ġsell": 2071,
      "unt": 2072,
      "Ġoil": 2073,
      "cies": 2074,
      "Ġkey": 2075,
      "ison": 2076,
      "Ġdest": 2077,
      "rying": 2078,
      "Ġsqu": 2079,
      "arily": 2080,
      "ian": 2081,
      "az": 2082,
      "Ġsimple": 2083,
      "Ġfollowing": 2084,
      "sych": 2085,
      "aves": 2086,
      "Ġindepend": 2087,
      "Ġstrateg": 2088,
      "Ġcause": 2089,
      "Ġseries": 2090,
      "Ġgenerally": 2091,
      "Ġrelated": 2092,
      "Ġz": 2093,
      "Ġremain": 2094,
      "Ġparticularly": 2095,
      "Ġclaim": 2096,
      "pr": 2097,
      "wer": 2098,
      "verse": 2099,
      "Ġpropos": 2100,
      "Ġpotential": 2101,
      "Ġresour": 2102,
      "Ġ7": 2103,
      "Ġhalf": 2104,
      "Ġfloor": 2105,
      "Ġpopular": 2106,
      "ores": 2107,
      "Ġplant": 2108,
      "apt": 2109,
      "itor": 2110,
      "Ġfarm": 2111,
      "Ġcentral": 2112,
      "use": 2113,
      "Ġcamp": 2114,
      "Ġremo": 2115,
      "Ġenergy": 2116,
      "Ġneeds": 2117,
      "ening": 2118,
      "Ġworks": 2119,
      "nel": 2120,
      "ufact": 2121,
      "Ġseems": 2122,
      "ctions": 2123,
      "Ġflat": 2124,
      "Ġ8": 2125,
      "Ġquite": 2126,
      "Ġbase": 2127,
      "ached": 2128,
      "Ġtas": 2129,
      "Ġflu": 2130,
      "Ġcosts": 2131,
      "Ġsix": 2132,
      "Ġdim": 2133,
      "Ġnar": 2134,
      "Ġdisp": 2135,
      "Ġthought": 2136,
      "Ġasse": 2137,
      "Ġquant": 2138,
      "Ġfinal": 2139,
      "Ġdoc": 2140,
      "Ġut": 2141,
      "Ġens": 2142,
      "Ġcustom": 2143,
      "onst": 2144,
      "Ġtrade": 2145,
      "Ġpsych": 2146,
      "ĠEach": 2147,
      "part": 2148,
      "Ġconcept": 2149,
      "ames": 2150,
      "ivity": 2151,
      "Ġlive": 2152,
      "Ġscient": 2153,
      "Ġfri": 2154,
      "Ġprovides": 2155,
      "Ġproduce": 2156,
      "Ġdays": 2157,
      "Ġissues": 2158,
      "50": 2159,
      "ength": 2160,
      "Ġfinancial": 2161,
      "den": 2162,
      "Ġtraining": 2163,
      "Ġassociated": 2164,
      "Ġlog": 2165,
      "Ġitem": 2166,
      "Ġblack": 2167,
      "Ġactivity": 2168,
      "Ġconstruct": 2169,
      "Ġlimited": 2170,
      "Ġdistribution": 2171,
      "Ġvide": 2172,
      "Ġwhite": 2173,
      "Ġdisease": 2174,
      "Ġcompanies": 2175,
      "Ġey": 2176,
      "ishing": 2177,
      "mon": 2178,
      "Ġalternative": 2179,
      "Ġboard": 2180,
      "Ġachieve": 2181,
      "ills": 2182,
      "Ġpiece": 2183,
      "Ġliving": 2184,
      "Ġquick": 2185,
      "Ġbuy": 2186,
      "ĠBy": 2187,
      "ĠMost": 2188,
      "Ġmanufact": 2189,
      "Ġextra": 2190,
      "Ġlot": 2191,
      "Ġmass": 2192,
      "Ġimm": 2193,
      "oes": 2194,
      "Ġrefer": 2195,
      "Ġassess": 2196,
      "like": 2197,
      "Ġbed": 2198,
      "Ġlevels": 2199,
      "vert": 2200,
      "Ġmaintain": 2201,
      "haps": 2202,
      "lying": 2203,
      "Ġstri": 2204,
      "Ġthemselves": 2205,
      "Ġfire": 2206,
      "thing": 2207,
      "Ġtypes": 2208,
      "Ġnature": 2209,
      "Ġproduced": 2210,
      "Ġregular": 2211,
      "Ġextreme": 2212,
      "raft": 2213,
      "Ġhistor": 2214,
      "Ġmotor": 2215,
      "Ġconv": 2216,
      "Ġnear": 2217,
      "Ġperformance": 2218,
      "play": 2219,
      "Ġaverage": 2220,
      "Ġadmin": 2221,
      "ĠYou": 2222,
      "Ġlat": 2223,
      "Ġdefin": 2224,
      "Ġparty": 2225,
      "Ġincludes": 2226,
      "Ġcommer": 2227,
      "Ġstren": 2228,
      "Ġdocu": 2229,
      "Ġdeveloped": 2230,
      "Ġimportance": 2231,
      "Ġ$": 2232,
      "lection": 2233,
      "nam": 2234,
      "Ġthus": 2235,
      "Ġcalc": 2236,
      "Ġdeep": 2237,
      "Ġexpect": 2238,
      "Ġpractice": 2239,
      "Ġforms": 2240,
      "airs": 2241,
      "ulations": 2242,
      "Ġelectric": 2243,
      "Ġphysical": 2244,
      "hib": 2245,
      "Ġliter": 2246,
      "Ġspecies": 2247,
      "Ġmeaning": 2248,
      "Ġur": 2249,
      "pri": 2250,
      "Ġprogress": 2251,
      "Ġhar": 2252,
      "ĠMore": 2253,
      "Ġbad": 2254,
      "Ġsat": 2255,
      "Ġtook": 2256,
      "Ġdy": 2257,
      "ply": 2258,
      "ĠV": 2259,
      "ĠAlthough": 2260,
      "isation": 2261,
      "Ġidea": 2262,
      "Ġminim": 2263,
      "Ġregion": 2264,
      "Ġpolice": 2265,
      "illed": 2266,
      "atives": 2267,
      "aster": 2268,
      "Ġworkers": 2269,
      "Ġinterp": 2270,
      "Ġstreng": 2271,
      "ees": 2272,
      "Ġlegal": 2273,
      "Ġtheory": 2274,
      "Ġsite": 2275,
      "rap": 2276,
      "Ġ198": 2277,
      "Ġpopulation": 2278,
      "Ġreform": 2279,
      "pper": 2280,
      "Ġbasic": 2281,
      "Ġstock": 2282,
      "Ġinstit": 2283,
      "Ġdraw": 2284,
      "Ġlimit": 2285,
      "Ġdamage": 2286,
      "duct": 2287,
      "Ġargument": 2288,
      "Ġbreak": 2289,
      "esc": 2290,
      "fficient": 2291,
      "Ġcontent": 2292,
      "Ġpoints": 2293,
      "Ġri": 2294,
      "osition": 2295,
      "ording": 2296,
      "Ġtable": 2297,
      "Ġsou": 2298,
      "Ġwid": 2299,
      "Ġappe": 2300,
      "Ġoutside": 2301,
      "utions": 2302,
      "itable": 2303,
      "itary": 2304,
      "Ġgreater": 2305,
      "Ġappropri": 2306,
      "Ġpan": 2307,
      "Ġcentre": 2308,
      "Ġattack": 2309,
      "Ġshall": 2310,
      "Ġadminist": 2311,
      "Ġstyle": 2312,
      "Ġtreatment": 2313,
      "Ġadditional": 2314,
      "Ġhor": 2315,
      "Ġmob": 2316,
      "eral": 2317,
      "Ġgoods": 2318,
      "Ġneeded": 2319,
      "ceed": 2320,
      "Ġpric": 2321,
      "land": 2322,
      "Ġinvestment": 2323,
      "Ġjob": 2324,
      "Ġconstruction": 2325,
      "erous": 2326,
      "Ġwin": 2327,
      "isions": 2328,
      "Ġdemand": 2329,
      "Ġheav": 2330,
      "Ġsuff": 2331,
      "ler": 2332,
      "Ġsn": 2333,
      "Ġalthough": 2334,
      "Ġwalk": 2335,
      "Ġlink": 2336,
      "Ġlonger": 2337,
      "Ġautom": 2338,
      "anced": 2339,
      "Ġelectron": 2340,
      "Ġevents": 2341,
      "ception": 2342,
      "co": 2343,
      "king": 2344,
      "Ġseason": 2345,
      "Ġexpected": 2346,
      "Ġelement": 2347,
      "eter": 2348,
      "Ġwa": 2349,
      "Ġround": 2350,
      "gment": 2351,
      "Ġbank": 2352,
      "Ġdoor": 2353,
      "Ġeval": 2354,
      "Ġfru": 2355,
      "rate": 2356,
      "Ġunivers": 2357,
      "ching": 2358,
      "Ġhosp": 2359,
      "Ġadj": 2360,
      "Ġestim": 2361,
      "Ġunit": 2362,
      "Ġstatus": 2363,
      "Ġcommercial": 2364,
      "Ġdebate": 2365,
      "plic": 2366,
      "Ġsection": 2367,
      "Ġqual": 2368,
      "Ġavoid": 2369,
      "Ġinfluence": 2370,
      "Ġshare": 2371,
      "Ġcover": 2372,
      "Ġattempt": 2373,
      "Ġindustrial": 2374,
      "Ġprinciple": 2375,
      "cil": 2376,
      "Ġpositive": 2377,
      "Ġfigure": 2378,
      "Ġbat": 2379,
      "ground": 2380,
      "Ġadded": 2381,
      "Ġdon": 2382,
      "ume": 2383,
      "rary": 2384,
      "Ġemb": 2385,
      "Ġstore": 2386,
      "reg": 2387,
      "Ġpict": 2388,
      "Ġcommunic": 2389,
      "Ġmonths": 2390,
      "pid": 2391,
      "Ġans": 2392,
      "het": 2393,
      "Ġenough": 2394,
      "Ġciv": 2395,
      "Ġlength": 2396,
      "Ġsold": 2397,
      "Ġexerc": 2398,
      "Ġindividuals": 2399,
      "Ġdegree": 2400,
      "Ġtalk": 2401,
      "ĠSuch": 2402,
      "Ġforce": 2403,
      "Ġir": 2404,
      "Ġsubstant": 2405,
      "Ġbig": 2406,
      "ival": 2407,
      "Ġfle": 2408,
      "Ġofficial": 2409,
      "ids": 2410,
      "eech": 2411,
      "Ġsumm": 2412,
      "Ġreceived": 2413,
      "Ġapplication": 2414,
      "fully": 2415,
      "Ġbegin": 2416,
      "Ġwat": 2417,
      "Ġthird": 2418,
      "Ġshown": 2419,
      "ging": 2420,
      "Ġimag": 2421,
      "Ġimmedi": 2422,
      "ĠTheir": 2423,
      "ners": 2424,
      "Ġ9": 2425,
      "Ġprevent": 2426,
      "ĠNo": 2427,
      "Ġstep": 2428,
      "augh": 2429,
      "Ġnumbers": 2430,
      "Ġtarget": 2431,
      "Ġsimply": 2432,
      "Ġauthorities": 2433,
      "app": 2434,
      "Ġexperiment": 2435,
      "Ġnormal": 2436,
      "aches": 2437,
      "Ġmodels": 2438,
      "Ġparts": 2439,
      "wh": 2440,
      "gen": 2441,
      "Ġvi": 2442,
      "ump": 2443,
      "ricult": 2444,
      "Ġfair": 2445,
      "Ġemerg": 2446,
      "Ġsem": 2447,
      "Ġcontract": 2448,
      "Ġtowards": 2449,
      "Ġyet": 2450,
      "Ġopportun": 2451,
      "Ġhistory": 2452,
      "Ġsector": 2453,
      "Ġhours": 2454,
      "Ġshape": 2455,
      "Ġaffect": 2456,
      "Ġ197": 2457,
      "Ġtraditional": 2458,
      "Ġspeech": 2459,
      "Ġreview": 2460,
      "Ġcourt": 2461,
      "Ġdeath": 2462,
      "utes": 2463,
      "acy": 2464,
      "aching": 2465,
      "Ġreally": 2466,
      "inally": 2467,
      "Ġnight": 2468,
      "Ġcells": 2469,
      "Ġpoor": 2470,
      "itten": 2471,
      "Ġmind": 2472,
      "Ġglass": 2473,
      "Ġsil": 2474,
      "Ġfamil": 2475,
      "Ġmedical": 2476,
      "Ġcreate": 2477,
      "Ġallowed": 2478,
      "Ġfem": 2479,
      "ĠUn": 2480,
      "Ġhighly": 2481,
      "ls": 2482,
      "Ġscen": 2483,
      "Ġmic": 2484,
      "aut": 2485,
      "aving": 2486,
      "sh": 2487,
      "Ġrecent": 2488,
      "go": 2489,
      "ĠOur": 2490,
      "Ġlay": 2491,
      "Ġvideo": 2492,
      "Ġoperation": 2493,
      "Ġdig": 2494,
      "ided": 2495,
      "astic": 2496,
      "Ġemot": 2497,
      "ĠThus": 2498,
      "Ġpaid": 2499,
      "Ġactivities": 2500,
      "Ġproport": 2501,
      "Ġenvironment": 2502,
      "Ġstory": 2503,
      "Ġschools": 2504,
      "Ġinitial": 2505,
      "Ġcollect": 2506,
      "Ġcompar": 2507,
      "Ġdescribed": 2508,
      "ipment": 2509,
      "Ġfeed": 2510,
      "br": 2511,
      "Ġnetwork": 2512,
      "Ġbound": 2513,
      "Ġdesigned": 2514,
      "ĠIs": 2515,
      "Ġdoing": 2516,
      "Ġhouses": 2517,
      "Ġinternational": 2518,
      "Ġreduced": 2519,
      "Ġcop": 2520,
      "Ġwhy": 2521,
      "Ġdescri": 2522,
      "Ġshop": 2523,
      "Ġagricult": 2524,
      "Ġtransport": 2525,
      "ym": 2526,
      "onse": 2527,
      "Ġbasis": 2528,
      "Ġcame": 2529,
      "Ġmeasures": 2530,
      "Ġoccas": 2531,
      "tle": 2532,
      "urb": 2533,
      "Ġlarger": 2534,
      "dle": 2535,
      "Ġdepend": 2536,
      "Ġprimary": 2537,
      "Ġ12": 2538,
      "Ġtechnical": 2539,
      "Ġconduct": 2540,
      "itect": 2541,
      "oms": 2542,
      "ding": 2543,
      "ieved": 2544,
      "ĠCh": 2545,
      "ipl": 2546,
      "cer": 2547,
      "Ġship": 2548,
      "rative": 2549,
      "Ġfactors": 2550,
      "Ġreflect": 2551,
      "Ġonce": 2552,
      "irst": 2553,
      "Ġopin": 2554,
      "Ġpack": 2555,
      "Ġang": 2556,
      "rought": 2557,
      "Ġtrue": 2558,
      "Ġtaking": 2559,
      "aces": 2560,
      "Ġconsiderable": 2561,
      "Ġrule": 2562,
      "Ġequipment": 2563,
      "lt": 2564,
      "Ġdiscussion": 2565,
      "Ġencoura": 2566,
      "ov": 2567,
      "Ġrates": 2568,
      "ĠOther": 2569,
      "Ġtrack": 2570,
      "Ġcrit": 2571,
      "Ġheld": 2572,
      "Ġfav": 2573,
      "istics": 2574,
      "Ġacqu": 2575,
      "ites": 2576,
      "Ġvehicle": 2577,
      "Ġgas": 2578,
      "Ġrules": 2579,
      "Ġlegis": 2580,
      "Ġtoday": 2581,
      "Ġproced": 2582,
      "Ġserious": 2583,
      "vant": 2584,
      "Ġtechniques": 2585,
      "Ġcentury": 2586,
      "Ġattract": 2587,
      "Ġexisting": 2588,
      "othes": 2589,
      "Ġmethods": 2590,
      "Ġhousing": 2591,
      "Ġtend": 2592,
      "Ġauthority": 2593,
      "equ": 2594,
      "Ġseed": 2595,
      "ĠMy": 2596,
      "pective": 2597,
      "Ġce": 2598,
      "Ġgot": 2599,
      "Ġrob": 2600,
      "Ġscale": 2601,
      "Ġbott": 2602,
      "ones": 2603,
      "Ġmess": 2604,
      "Ġmagn": 2605,
      "Ġsong": 2606,
      "Ġincome": 2607,
      "ĠDuring": 2608,
      "enced": 2609,
      "Ġball": 2610,
      "Ġarchitect": 2611,
      "Ġfigures": 2612,
      "Ġhost": 2613,
      "Ġbehavi": 2614,
      "Ġcivil": 2615,
      "Ġfirm": 2616,
      "Ġeffective": 2617,
      "Ġroof": 2618,
      "urity": 2619,
      "ĠHer": 2620,
      "Ġproperty": 2621,
      "Ġprices": 2622,
      "izing": 2623,
      "Ġseparate": 2624,
      "Ġuseful": 2625,
      "Ġcreated": 2626,
      "Ġstrength": 2627,
      "Ġrat": 2628,
      "Ġbud": 2629,
      "Ġgraph": 2630,
      "Ġimplement": 2631,
      "Ġdecision": 2632,
      "ew": 2633,
      "light": 2634,
      "Ġpubl": 2635,
      "itting": 2636,
      "oses": 2637,
      "Ġhall": 2638,
      "Ġindependent": 2639,
      "Ġoffer": 2640,
      "Ġresponse": 2641,
      "Ġsociety": 2642,
      "rical": 2643,
      "Ġfacilities": 2644,
      "Ġappropriate": 2645,
      "Ġvers": 2646,
      "Ġmount": 2647,
      "Ġresources": 2648,
      "Ġexpress": 2649,
      "resp": 2650,
      "Ġvisual": 2651,
      "Ġmilk": 2652,
      "ĠJ": 2653,
      "erve": 2654,
      "Ġtree": 2655,
      "vision": 2656,
      "Ġbelow": 2657,
      "ental": 2658,
      "time": 2659,
      "Ġdiv": 2660,
      "Ġplaced": 2661,
      "Ġarrange": 2662,
      "ĠCon": 2663,
      "osing": 2664,
      "Ġcaused": 2665,
      "Ġhope": 2666,
      "Ġeth": 2667,
      "Ġchem": 2668,
      "lo": 2669,
      "Ġcateg": 2670,
      "Ġlearning": 2671,
      "eness": 2672,
      "ously": 2673,
      "Ġorganization": 2674,
      "encies": 2675,
      "Ġiron": 2676,
      "ols": 2677,
      "Ġrot": 2678,
      "Ġmaxim": 2679,
      "ique": 2680,
      "Ġtakes": 2681,
      "Ġimage": 2682,
      "Ġban": 2683,
      "Ġ0": 2684,
      "hens": 2685,
      "Ġcode": 2686,
      "Ġprint": 2687,
      "Ġslight": 2688,
      "lled": 2689,
      "vered": 2690,
      "Ġcorrect": 2691,
      "Ġslow": 2692,
      "Ġthroughout": 2693,
      "Ġelse": 2694,
      "mission": 2695,
      "Ġconcerned": 2696,
      "lig": 2697,
      "Ġstor": 2698,
      "Ġoverall": 2699,
      "ties": 2700,
      "Ġdang": 2701,
      "Ġwent": 2702,
      "Ġexact": 2703,
      "Ġdistance": 2704,
      "Ġcred": 2705,
      "Ġbegan": 2706,
      "Ġdemonst": 2707,
      "Ġpredict": 2708,
      "Ġlabor": 2709,
      "Ġspeed": 2710,
      "Ġerr": 2711,
      "Ġcru": 2712,
      "Ġspeak": 2713,
      "iture": 2714,
      "Ġcard": 2715,
      "Ġcontains": 2716,
      "Ġapproxim": 2717,
      "iding": 2718,
      "Ġmom": 2719,
      "Ġnegative": 2720,
      "Ġvalues": 2721,
      "Ġexperi": 2722,
      "Ġformal": 2723,
      "Ġbur": 2724,
      "Ġphil": 2725,
      "Ġprior": 2726,
      "Ġarm": 2727,
      "Ġli": 2728,
      "Ġblock": 2729,
      "itude": 2730,
      "Ġfocus": 2731,
      "set": 2732,
      "Ġscre": 2733,
      "Ġtempor": 2734,
      "Ġitems": 2735,
      "Ġproposed": 2736,
      "Ġallows": 2737,
      "elling": 2738,
      "ĠWhile": 2739,
      "Ġpurpose": 2740,
      "Ġways": 2741,
      "Ġtraffic": 2742,
      "Ġcorpor": 2743,
      "ulate": 2744,
      "Ġdisplay": 2745,
      "Ġple": 2746,
      "Ġtransform": 2747,
      "Ġaim": 2748,
      "Ġder": 2749,
      "Ġunf": 2750,
      "Ġforward": 2751,
      "Ġmachine": 2752,
      "Ġscheme": 2753,
      "back": 2754,
      "Ġelements": 2755,
      "Ġeconomy": 2756,
      "Ġapplied": 2757,
      "Ġdiag": 2758,
      "Ġcovered": 2759,
      "Ġdistinct": 2760,
      "Ġresponsibility": 2761,
      "Ġtrain": 2762,
      "Ġenvironmental": 2763,
      "Ġparents": 2764,
      "ug": 2765,
      "kn": 2766,
      "ares": 2767,
      "Ġprocesses": 2768,
      "Ġcontrast": 2769,
      "Ġclearly": 2770,
      "Ġwritten": 2771,
      "Ġbudget": 2772,
      "Ġsequ": 2773,
      "Ġswe": 2774,
      "Ġmut": 2775,
      "isc": 2776,
      "Ġlost": 2777,
      "Ġdynam": 2778,
      "vere": 2779,
      "oming": 2780,
      "ĠInd": 2781,
      "Ġreact": 2782,
      "Ġinstru": 2783,
      "Ġbring": 2784,
      "come": 2785,
      "Ġmultiple": 2786,
      "Ġlate": 2787,
      "alle": 2788,
      "Ġrelig": 2789,
      "Ġdifferences": 2790,
      "Ġaddress": 2791,
      "Ġep": 2792,
      "Ġlines": 2793,
      "Ġjour": 2794,
      "Ġcro": 2795,
      "Ġinput": 2796,
      "af": 2797,
      "Ġbuildings": 2798,
      "Ġgard": 2799,
      "Ġtrees": 2800,
      "Ġprotection": 2801,
      "Ġfixed": 2802,
      "Ġexpression": 2803,
      "Ġbenefit": 2804,
      "Ġcit": 2805,
      "Ġpressure": 2806,
      "Ġtour": 2807,
      "Ġadvant": 2808,
      "Ġprofessional": 2809,
      "Ġessential": 2810,
      "Ġperf": 2811,
      "Ġrapid": 2812,
      "Ġtransfer": 2813,
      "Ġreduce": 2814,
      "Ġrelatively": 2815,
      "Ġnews": 2816,
      "Ġprep": 2817,
      "ĠTherefore": 2818,
      "Ġdocument": 2819,
      "Ġnothing": 2820,
      "Ġful": 2821,
      "Ġsource": 2822,
      "Ġbalance": 2823,
      "Ġbehind": 2824,
      "ĠFirst": 2825,
      "Ġdifference": 2826,
      "Ġreduction": 2827,
      "Ġdress": 2828,
      "ister": 2829,
      "Ġreference": 2830,
      "Ġmilitary": 2831,
      "ush": 2832,
      "Ġconflic": 2833,
      "Ġcook": 2834,
      "Ġmanag": 2835,
      "Ġinside": 2836,
      "Ġpurch": 2837,
      "Ġadvert": 2838,
      "Ġforest": 2839,
      "Ġpatient": 2840,
      "Ġdate": 2841,
      "Ġvill": 2842,
      "Ġprevious": 2843,
      "Ġbill": 2844,
      "Ġplat": 2845,
      "Ġwhose": 2846,
      "itors": 2847,
      "Ġever": 2848,
      "Ġensure": 2849,
      "iling": 2850,
      "Ġuses": 2851,
      "Ġstreet": 2852,
      "Ġgives": 2853,
      "Ġgradu": 2854,
      "wise": 2855,
      "na": 2856,
      "Ġrise": 2857,
      "Ġpolit": 2858,
      "ĠFurther": 2859,
      "Ġdirectly": 2860,
      "Ġperhaps": 2861,
      "Ġtemperature": 2862,
      "rec": 2863,
      "Ġpen": 2864,
      "Ġtechnique": 2865,
      "phas": 2866,
      "Ġeasily": 2867,
      "Ġasked": 2868,
      "Ġvolume": 2869,
      "Ġled": 2870,
      "aur": 2871,
      "Ġdepart": 2872,
      "Ġphilos": 2873,
      "hood": 2874,
      "respond": 2875,
      "Ġleave": 2876,
      "Ġvariety": 2877,
      "Ġfast": 2878,
      "Ġ15": 2879,
      "Ġdelay": 2880,
      "Ġsurround": 2881,
      "Ġrent": 2882,
      "Ġsym": 2883,
      "Ġdeli": 2884,
      "Ġmovement": 2885,
      "rete": 2886,
      "Ġconstant": 2887,
      "Ġhair": 2888,
      "Ġremains": 2889,
      "ocks": 2890,
      "Ġinn": 2891,
      "Ġpractical": 2892,
      "Ġhyp": 2893,
      "Ġviol": 2894,
      "Ġreve": 2895,
      "Ġcontinue": 2896,
      "ils": 2897,
      "Ġhousehold": 2898,
      "uck": 2899,
      "Ġsample": 2900,
      "Ġstop": 2901,
      "ream": 2902,
      "uge": 2903,
      "rehens": 2904,
      "aced": 2905,
      "Ġreported": 2906,
      "rupt": 2907,
      "Ġconsequ": 2908,
      "isms": 2909,
      "Ġdistrict": 2910,
      "ucle": 2911,
      "Ġestablished": 2912,
      "Ġstorage": 2913,
      "inated": 2914,
      "Ġadult": 2915,
      "Ġcouncil": 2916,
      "Ġclin": 2917,
      "Ġvariable": 2918,
      "Ġbor": 2919,
      "Ġselection": 2920,
      "Ġcomponent": 2921,
      "ales": 2922,
      "Ġfra": 2923,
      "Ġinj": 2924,
      "Ġadop": 2925,
      "Ġdru": 2926,
      "Ġheart": 2927,
      "Ġcorrespond": 2928,
      "Ġdirection": 2929,
      "Ġrights": 2930,
      "Ġchan": 2931,
      "ĠSince": 2932,
      "Ġagent": 2933,
      "Ġobjects": 2934,
      "Ġrepresentation": 2935,
      "Ġopinion": 2936,
      "based": 2937,
      "Ġamb": 2938,
      "idential": 2939,
      "ommod": 2940,
      "Ġactual": 2941,
      "Ġstandards": 2942,
      "Ġdrink": 2943,
      "Ġsatis": 2944,
      "rel": 2945,
      "Ġframework": 2946,
      "Ġvo": 2947,
      "Ġbehavior": 2948,
      "Ġdoub": 2949,
      "Ġaspects": 2950,
      "Ġextent": 2951,
      "Ġsignal": 2952,
      "Ġweight": 2953,
      "Ġplanning": 2954,
      "Ġsoftware": 2955,
      "Ġextremely": 2956,
      "Ġpromot": 2957,
      "Ġfu": 2958,
      "ĠBoth": 2959,
      "Ġsust": 2960,
      "Ġillust": 2961,
      "Ġcontribut": 2962,
      "Ġquickly": 2963,
      "osure": 2964,
      "Ġserved": 2965,
      "ued": 2966,
      "Ġtub": 2967,
      "Ġmajority": 2968,
      "Ġinterf": 2969,
      "Ġsort": 2970,
      "asons": 2971,
      "ession": 2972,
      "Ġuser": 2973,
      "Ġplaces": 2974,
      "Ġcou": 2975,
      "Ġcarried": 2976,
      "Ġinstead": 2977,
      "Ġpresence": 2978,
      "Ġevolution": 2979,
      "Ġtask": 2980,
      "Ġmoment": 2981,
      "iers": 2982,
      "Ġtypically": 2983,
      "Ġquestions": 2984,
      "Ġobserved": 2985,
      "Ġsecurity": 2986,
      "Ġrooms": 2987,
      "Ġsle": 2988,
      "Ġmetal": 2989,
      "Ġmanner": 2990,
      "Ġemphas": 2991,
      "Ġprotect": 2992,
      "Ġobtained": 2993,
      "pro": 2994,
      "Ġspir": 2995,
      "Ġpatterns": 2996,
      "Ġtro": 2997,
      "Ġvariables": 2998,
      "Ġsho": 2999,
      "Ġunderstanding": 3000,
      "Ġbecomes": 3001,
      "ought": 3002,
      "Ġcomes": 3003,
      "oon": 3004,
      "Ġglob": 3005,
      "term": 3006,
      "Ġdark": 3007,
      "Ġsufficient": 3008,
      "Ġvoc": 3009,
      "Ġpresented": 3010,
      "Ġearl": 3011,
      "Ġcircum": 3012,
      "ĠOf": 3013,
      "Ġsuccessful": 3014,
      "Ġtelevision": 3015,
      "Ġaccommod": 3016,
      "10": 3017,
      "Ġsure": 3018,
      "osite": 3019,
      "Ġprobably": 3020,
      "Ġcars": 3021,
      "rit": 3022,
      "Ġcompared": 3023,
      "estic": 3024,
      "Ġconnect": 3025,
      "cell": 3026,
      "Ġbooks": 3027,
      "ĠAnother": 3028,
      "Ġstructures": 3029,
      "Ġscientific": 3030,
      "Ġinteraction": 3031,
      "itment": 3032,
      "ae": 3033,
      "ĠFrom": 3034,
      "Ġrequires": 3035,
      "iciency": 3036,
      "Ġexercise": 3037,
      "Ġinternal": 3038,
      "Ġla": 3039,
      "Ġvot": 3040,
      "Ġrestaur": 3041,
      "rams": 3042,
      "ĠIts": 3043,
      "Ġpow": 3044,
      "Ġcapac": 3045,
      "Ġobjective": 3046,
      "uit": 3047,
      "Ġwrong": 3048,
      "Ġplatform": 3049,
      "Ġgro": 3050,
      "Ġappears": 3051,
      "Ġdouble": 3052,
      "Ġmere": 3053,
      "Ġequal": 3054,
      "Ġbrought": 3055,
      "ffee": 3056,
      "gar": 3057,
      "Ġcash": 3058,
      "be": 3059,
      "Ġfish": 3060,
      "Ġmention": 3061,
      "Ġflight": 3062,
      "Ġolder": 3063,
      "cks": 3064,
      "Ġoccup": 3065,
      "ife": 3066,
      "Ġcenter": 3067,
      "Ġmiddle": 3068,
      "Ġbehaviour": 3069,
      "Ġannual": 3070,
      "where": 3071,
      "ĠEx": 3072,
      "Ġdrive": 3073,
      "Ġstarted": 3074,
      "Ġconsumption": 3075,
      "Ġvirt": 3076,
      "Ġ196": 3077,
      "onom": 3078,
      "Ġpul": 3079,
      "Ġsupply": 3080,
      "pir": 3081,
      "Ġdecor": 3082,
      "Ġsynt": 3083,
      "Ġhospital": 3084,
      "oper": 3085,
      "Ġrock": 3086,
      "Ġscience": 3087,
      "Ġimprovement": 3088,
      "Ġchall": 3089,
      "Ġclean": 3090,
      "mat": 3091,
      "ray": 3092,
      "Ġcogn": 3093,
      "Ġaware": 3094,
      "ipal": 3095,
      "ban": 3096,
      "Ġmedia": 3097,
      "Ġanswer": 3098,
      "Ġsubstantial": 3099,
      "Ġcritical": 3100,
      "Ġcollege": 3101,
      "Ġband": 3102,
      "Ġunc": 3103,
      "Ġselect": 3104,
      "Ġcompl": 3105,
      "Ġpercent": 3106,
      "Ġconsists": 3107,
      "Ġaccording": 3108,
      "ded": 3109,
      "Ġda": 3110,
      "Ġdistribut": 3111,
      "Ġagency": 3112,
      "Ġcompletely": 3113,
      "Ġnarrow": 3114,
      "Ġden": 3115,
      "Ġhol": 3116,
      "Ġax": 3117,
      "hest": 3118,
      "Ġpension": 3119,
      "Ġweather": 3120,
      "ancy": 3121,
      "adem": 3122,
      "Ġsymb": 3123,
      "ashion": 3124,
      "Ġtheore": 3125,
      "racy": 3126,
      "Ġagg": 3127,
      "Ġleaves": 3128,
      "Ġthin": 3129,
      "Ġgreen": 3130,
      "Ġconcent": 3131,
      "Ġanimals": 3132,
      "Ġexch": 3133,
      "Ġec": 3134,
      "Ġexcept": 3135,
      "ecause": 3136,
      "wo": 3137,
      "Ġsmaller": 3138,
      "Ġdivid": 3139,
      "Ġtim": 3140,
      "Ġapplications": 3141,
      "ternal": 3142,
      "Ġgiving": 3143,
      "nal": 3144,
      "uration": 3145,
      "Ġdial": 3146,
      "leg": 3147,
      "Ġupper": 3148,
      "aign": 3149,
      "icians": 3150,
      "head": 3151,
      "Ġfactor": 3152,
      "Ġestate": 3153,
      "Ġparalle": 3154,
      "Ġworked": 3155,
      "Ġenter": 3156,
      "Ġapart": 3157,
      "alled": 3158,
      "Ġsurv": 3159,
      "Ġanimal": 3160,
      "itation": 3161,
      "Ġrunning": 3162,
      "ole": 3163,
      "Ġmoving": 3164,
      "Ġbrid": 3165,
      "Ġgave": 3166,
      "Ġperm": 3167,
      "Ġclosed": 3168,
      "Ġcampaign": 3169,
      "ĠHow": 3170,
      "Ġgrowing": 3171,
      "Ġiniti": 3172,
      "Ġcam": 3173,
      "Ġult": 3174,
      "rs": 3175,
      "Ġfear": 3176,
      "idents": 3177,
      "Ġcontact": 3178,
      "ogen": 3179,
      "Ġcitiz": 3180,
      "Ġanaly": 3181,
      "Ġkept": 3182,
      "ender": 3183,
      "Ġconstra": 3184,
      "Ġconsult": 3185,
      "der": 3186,
      "Ġairc": 3187,
      "Ġsea": 3188,
      "ensity": 3189,
      "Ġfollowed": 3190,
      "Ġcultural": 3191,
      "yl": 3192,
      "Ġrepe": 3193,
      "Ġmemory": 3194,
      "ev": 3195,
      "Ġrelation": 3196,
      "Ġbeaut": 3197,
      "Ġblood": 3198,
      "Ġactive": 3199,
      "Ġprocessing": 3200,
      "Ġhistorical": 3201,
      "Ġheavy": 3202,
      "Ġelectronic": 3203,
      "yond": 3204,
      "Ġstates": 3205,
      "Ġcoffee": 3206,
      "Ġobv": 3207,
      "Ġacadem": 3208,
      "Ġsafety": 3209,
      "Ġdefined": 3210,
      "Ġoptim": 3211,
      "Ġcore": 3212,
      "ĠSec": 3213,
      "Ġaircraft": 3214,
      "Ġtry": 3215,
      "resh": 3216,
      "iles": 3217,
      "gest": 3218,
      "Ġfa": 3219,
      "Ġpicture": 3220,
      "Ġplans": 3221,
      "ĠAd": 3222,
      "Ġcontinued": 3223,
      "Ġeight": 3224,
      "ibly": 3225,
      "Ġclub": 3226,
      "Ġsoon": 3227,
      "Ġurban": 3228,
      "Ġsales": 3229,
      "kes": 3230,
      "Ġlove": 3231,
      "Ġmulti": 3232,
      "Ġmis": 3233,
      "Ġemployment": 3234,
      "Ġdut": 3235,
      "Ġteachers": 3236,
      "Ġanything": 3237,
      "ĠEven": 3238,
      "ĠBecause": 3239,
      "Ġlandsc": 3240,
      "olute": 3241,
      "pe": 3242,
      "order": 3243,
      "Ġtold": 3244,
      "Ġgoes": 3245,
      "Ġinvolve": 3246,
      "cast": 3247,
      "Ġunits": 3248,
      "Ġstream": 3249,
      "ographic": 3250,
      "Ġsum": 3251,
      "Ġsubsequ": 3252,
      "Ġproportion": 3253,
      "Ġproviding": 3254,
      "Ġplayed": 3255,
      "Ġleading": 3256,
      "urance": 3257,
      "Ġbran": 3258,
      "Ġbenefits": 3259,
      "Ġpet": 3260,
      "Ġdecre": 3261,
      "Ġresulting": 3262,
      "Ġcomponents": 3263,
      "Ġdog": 3264,
      "ctor": 3265,
      "Ġ16": 3266,
      "Ġbow": 3267,
      "Ġcomprehens": 3268,
      "Ġfunctions": 3269,
      "Ġ30": 3270,
      "Ġstraight": 3271,
      "Ġforeign": 3272,
      "Ġnucle": 3273,
      "erences": 3274,
      "Ġeasy": 3275,
      "Ġmoral": 3276,
      "Ġlic": 3277,
      "Ġphilosoph": 3278,
      "Ġreceive": 3279,
      "Ġcaus": 3280,
      "itch": 3281,
      "Ġagreement": 3282,
      "ndom": 3283,
      "Ġdemoc": 3284,
      "Ġinterpret": 3285,
      "Ġdrug": 3286,
      "Ġinterests": 3287,
      "Ġbul": 3288,
      "Ġgeneration": 3289,
      "Ġperspective": 3290,
      "Ġadapt": 3291,
      "Ġincor": 3292,
      "Ġminor": 3293,
      "Ġintroduced": 3294,
      "Ġmaterials": 3295,
      "Ġpros": 3296,
      "Ġhom": 3297,
      "Ġestablish": 3298,
      "ma": 3299,
      "Ġprovision": 3300,
      "utional": 3301,
      "Ġappearance": 3302,
      "Ġteacher": 3303,
      "Ġagricultural": 3304,
      "Ġsun": 3305,
      "Ġeffic": 3306,
      "Ġculture": 3307,
      "rable": 3308,
      "Ġfine": 3309,
      "Ġtell": 3310,
      "onal": 3311,
      "ests": 3312,
      "Ġvehicles": 3313,
      "Ġgold": 3314,
      "Ġparam": 3315,
      "inate": 3316,
      "ensions": 3317,
      "Ġefficiency": 3318,
      "Ġexhib": 3319,
      "Ġregional": 3320,
      "Ġshowed": 3321,
      "Ġunique": 3322,
      "Ġcapt": 3323,
      "Ġcheck": 3324,
      "Ġcand": 3325,
      "hemat": 3326,
      "iction": 3327,
      "Ġdry": 3328,
      "Ġapparent": 3329,
      "izes": 3330,
      "Ġoblig": 3331,
      "Ġrespond": 3332,
      "Ġradio": 3333,
      "hy": 3334,
      "Ġperman": 3335,
      "Ġfacility": 3336,
      "Ġflex": 3337,
      "Ġesc": 3338,
      "oman": 3339,
      "vey": 3340,
      "Ġvary": 3341,
      "Ġconserv": 3342,
      "Ġideas": 3343,
      "Ġintended": 3344,
      "off": 3345,
      "Ġconnected": 3346,
      "icit": 3347,
      "'m": 3348,
      "Ġpayment": 3349,
      "Ġdecl": 3350,
      "Ġwire": 3351,
      "Ġmaximum": 3352,
      "Ġunion": 3353,
      "Ġremoved": 3354,
      "ken": 3355,
      "Ġrare": 3356,
      "Ġdeveloping": 3357,
      "Ġrandom": 3358,
      "Ġinterview": 3359,
      "tery": 3360,
      "Ġinstance": 3361,
      "Ġcapacity": 3362,
      "Ġreasons": 3363,
      "Ġphone": 3364,
      "Ġmarg": 3365,
      "Ġ100": 3366,
      "Ġresponsible": 3367,
      "rol": 3368,
      "Ġthick": 3369,
      "Ġchemical": 3370,
      "Ġsolution": 3371,
      "Ġconstitu": 3372,
      "Ġmiss": 3373,
      "umb": 3374,
      "osis": 3375,
      "ptions": 3376,
      "ze": 3377,
      "Ġchoice": 3378,
      "ĠSecond": 3379,
      "Ġprecise": 3380,
      "Ġrecorded": 3381,
      "ressive": 3382,
      "Ġreveal": 3383,
      "Ġfamilies": 3384,
      "bal": 3385,
      "rief": 3386,
      "employ": 3387,
      "Ġadm": 3388,
      "Ġjoint": 3389,
      "Ġoutput": 3390,
      "Ġabsolute": 3391,
      "Ġfully": 3392,
      "Ġdiam": 3393,
      "ography": 3394,
      "Ġdetailed": 3395,
      "Ġtermin": 3396,
      "Ġbeyond": 3397,
      "Ġplayer": 3398,
      "Ġpun": 3399,
      "overy": 3400,
      "Ġpaint": 3401,
      "Ġcompetition": 3402,
      "Ġ50": 3403,
      "Ġmobile": 3404,
      "'ve": 3405,
      "abor": 3406,
      "Ġdomestic": 3407,
      "Ġbag": 3408,
      "Ġliqu": 3409,
      "Ġdiscipl": 3410,
      "Ġcertainly": 3411,
      "Ġimplic": 3412,
      "Ġprogramme": 3413,
      "Ġparallel": 3414,
      "Ġwriting": 3415,
      "aging": 3416,
      "Ġregions": 3417,
      "Ġassistance": 3418,
      "Ġfunda": 3419,
      "Ġlibrary": 3420,
      "Ġfashion": 3421,
      "Ġsevere": 3422,
      "Ġgetting": 3423,
      "Ġdevice": 3424,
      "Ġplants": 3425,
      "Ġlabour": 3426,
      "more": 3427,
      "Ġstar": 3428,
      "Ġinstruct": 3429,
      "Ġstress": 3430,
      "Ġearlier": 3431,
      "aped": 3432,
      "Ġperfect": 3433,
      "rim": 3434,
      "Ġbit": 3435,
      "Ġlocated": 3436,
      "Ġfit": 3437,
      "Ġgames": 3438,
      "Ġspect": 3439,
      "mer": 3440,
      "Ġglobal": 3441,
      "'re": 3442,
      "ox": 3443,
      "apers": 3444,
      "Ġsuppl": 3445,
      "entially": 3446,
      "ays": 3447,
      "Ġcommitt": 3448,
      "Ġvict": 3449,
      "Ġreading": 3450,
      "Ġcircumst": 3451,
      "men": 3452,
      "itc": 3453,
      "elt": 3454,
      "Ġabst": 3455,
      "Ġblue": 3456,
      "Ġsuggests": 3457,
      "Ġenj": 3458,
      "Ġpal": 3459,
      "Ġonline": 3460,
      "Ġreasonable": 3461,
      "Ġthreat": 3462,
      "Ġrelevant": 3463,
      "Ġsources": 3464,
      "ĠMoreover": 3465,
      "Ġgar": 3466,
      "Ġcritic": 3467,
      "Ġhour": 3468,
      "olic": 3469,
      "Ġimproved": 3470,
      "Ġinvestigation": 3471,
      "Ġspread": 3472,
      "ifying": 3473,
      "Ġdetermined": 3474,
      "ift": 3475,
      "Ġemployees": 3476,
      "Ġmental": 3477,
      "Ġexternal": 3478,
      "ixt": 3479,
      "Ġpref": 3480,
      "Ġprefer": 3481,
      "Ġretail": 3482,
      "Ġgarden": 3483,
      "point": 3484,
      "Ġstim": 3485,
      "Ġsugar": 3486,
      "'ll": 3487,
      "arian": 3488,
      "Ġchanging": 3489,
      "Ġwindows": 3490,
      "Ġadvantage": 3491,
      "Ġfurn": 3492,
      "mark": 3493,
      "Ġegg": 3494,
      "Ġmatch": 3495,
      "Ġsearch": 3496,
      "Ġresist": 3497,
      "Ġmathemat": 3498,
      "Ġmeeting": 3499,
      "Ġsafe": 3500,
      "Ġfresh": 3501,
      "Ġfeet": 3502,
      "Ġarticle": 3503,
      "rick": 3504,
      "Ġconsumer": 3505,
      "iar": 3506,
      "ighb": 3507,
      "cular": 3508,
      "Ġtrying": 3509,
      "Ġstru": 3510,
      "\".": 3511,
      "mine": 3512,
      "Ġcab": 3513,
      "Ġhuge": 3514,
      "Ġconcrete": 3515,
      "iable": 3516,
      "ĠTwo": 3517,
      "Ġparties": 3518,
      "Ġattend": 3519,
      "Ġhands": 3520,
      "20": 3521,
      "Ġcarry": 3522,
      "Ġowners": 3523,
      "Ġskills": 3524,
      "oral": 3525,
      "Ġchanged": 3526,
      "Ġnegot": 3527,
      "Ġfemale": 3528,
      "Ġstudent": 3529,
      "Ġroll": 3530,
      "Ġprojects": 3531,
      "Ġtea": 3532,
      "oke": 3533,
      "Ġgrant": 3534,
      "inks": 3535,
      "Ġpoly": 3536,
      "Ġactually": 3537,
      "Ġslightly": 3538,
      "Ġevaluation": 3539,
      "19": 3540,
      "Ġvote": 3541,
      "Ġfing": 3542,
      "Ġweb": 3543,
      "Ġhimself": 3544,
      "Ġnovel": 3545,
      "anged": 3546,
      "Ġearn": 3547,
      "uff": 3548,
      "hetic": 3549,
      "ses": 3550,
      "Ġvac": 3551,
      "Ġmusical": 3552,
      "Ġopportunity": 3553,
      "Ġuns": 3554,
      "Ġsett": 3555,
      "Ġaffected": 3556,
      "board": 3557,
      "ĠHere": 3558,
      "Ġsides": 3559,
      "Ġdecisions": 3560,
      "Ġmatters": 3561,
      "Ġinvolves": 3562,
      "itative": 3563,
      "Ġprem": 3564,
      "Ġincreases": 3565,
      "Ġinteresting": 3566,
      "Ġreligious": 3567,
      "Ġbab": 3568,
      "Ġfunctional": 3569,
      "Ġweak": 3570,
      "ratic": 3571,
      "odes": 3572,
      "Ġmainly": 3573,
      "30": 3574,
      "oud": 3575,
      "Ġheat": 3576,
      "Ġelev": 3577,
      "Ġproperties": 3578,
      "Ġconnection": 3579,
      "Ġneighb": 3580,
      "Ġyield": 3581,
      "ithm": 3582,
      "Ġmicro": 3583,
      "Ġcold": 3584,
      "Ġhyd": 3585,
      "Ġcircumstances": 3586,
      "Ġnurs": 3587,
      "Ġsports": 3588,
      "Ġpublished": 3589,
      "tered": 3590,
      "Ġreserv": 3591,
      "Ġpool": 3592,
      "Ġapply": 3593,
      "Ġcoast": 3594,
      "Ġwooden": 3595,
      "Ġlingu": 3596,
      "Ġimages": 3597,
      "Ġmeat": 3598,
      "Ġdistingu": 3599,
      "Ġemployed": 3600,
      "aper": 3601,
      "Ġphen": 3602,
      "entional": 3603,
      "Ġexpand": 3604,
      "ribute": 3605,
      "Ġminimum": 3606,
      "Ġmer": 3607,
      "otic": 3608,
      "Ġestimated": 3609,
      "Ġconver": 3610,
      "Ġdescribe": 3611,
      "Ġlatter": 3612,
      "Ġcast": 3613,
      "Ġsubjects": 3614,
      "Ġsquare": 3615,
      "Ġbrief": 3616,
      "iments": 3617,
      "Ġrecomm": 3618,
      "Ġachieved": 3619,
      "Ġtouch": 3620,
      "Ġfat": 3621,
      "Ġchain": 3622,
      "Ġsyn": 3623,
      "Ġcounter": 3624,
      "year": 3625,
      "Ġadequ": 3626,
      "Ġoccasion": 3627,
      "Ġformer": 3628,
      "Ġveget": 3629,
      "Ġlives": 3630,
      "Ġsubs": 3631,
      "Ġoperations": 3632,
      "Ġrain": 3633,
      "Ġperformed": 3634,
      "Ġsleep": 3635,
      "Ġhomes": 3636,
      "Ġsitu": 3637,
      "ĠThen": 3638,
      "ĠSo": 3639,
      "Ġmanufacture": 3640,
      "Ġconcl": 3641,
      "Ġsignificance": 3642,
      "road": 3643,
      "Ġdetails": 3644,
      "Ġreach": 3645,
      "Ġcoming": 3646,
      "Ġspent": 3647,
      "Ġprograms": 3648,
      "Ġ17": 3649,
      "ested": 3650,
      "Ġrailway": 3651,
      "Ġdestro": 3652,
      "Ġhon": 3653,
      "Ġrelease": 3654,
      "Ġpick": 3655,
      "iform": 3656,
      "Ġbarri": 3657,
      "Ġvolunt": 3658,
      "overed": 3659,
      "Ġfed": 3660,
      "Ġvia": 3661,
      "Ġeat": 3662,
      "Ġchur": 3663,
      "Ġoffered": 3664,
      "Ġsteel": 3665,
      "Ġdetect": 3666,
      "dden": 3667,
      "Ġreality": 3668,
      "Ġfriend": 3669,
      "itual": 3670,
      "Ġagents": 3671,
      "Ġcurrently": 3672,
      "ums": 3673,
      "Ġweeks": 3674,
      "Ġexchange": 3675,
      "Ġgir": 3676,
      "Ġdescription": 3677,
      "ints": 3678,
      "Ġsolid": 3679,
      "Ġfrequently": 3680,
      "Ġeyes": 3681,
      "Ġreplaced": 3682,
      "Ġdram": 3683,
      "Ġnav": 3684,
      "Ġlegislation": 3685,
      "Ġenorm": 3686,
      "Ġdaily": 3687,
      "rest": 3688,
      "Ġnotice": 3689,
      "Ġtheoretical": 3690,
      "ĠK": 3691,
      "Ġindex": 3692,
      "Ġefficient": 3693,
      "Ġcrop": 3694,
      "Ġidentified": 3695,
      "Ġusers": 3696,
      "Ġlooking": 3697,
      "Ġfruit": 3698,
      "Ġenjoy": 3699,
      "Ġfr": 3700,
      "Ġextended": 3701,
      "Ġcra": 3702,
      "oll": 3703,
      "ung": 3704,
      "Ġformed": 3705,
      "Ġstructural": 3706,
      "Ġwalls": 3707,
      "Ġcognitive": 3708,
      "Ġsummer": 3709,
      "Ġjo": 3710,
      "Ġwear": 3711,
      "ips": 3712,
      "Ġpossibility": 3713,
      "Ġthinking": 3714,
      "Ġstrategy": 3715,
      "Ġsaw": 3716,
      "Ġforces": 3717,
      "Ġcharge": 3718,
      "Ġplaying": 3719,
      "Ġskin": 3720,
      "Ġdoubt": 3721,
      "Ġheard": 3722,
      "Ġadvice": 3723,
      "Ġnation": 3724,
      "Ġmotion": 3725,
      "Ġdust": 3726,
      "Ġappeal": 3727,
      "Ġtast": 3728,
      "othing": 3729,
      "Ġsudden": 3730,
      "ilit": 3731,
      "iveness": 3732,
      "ĠBe": 3733,
      "Ġbeginning": 3734,
      "Ġparticipants": 3735,
      "Ġeye": 3736,
      "ologies": 3737,
      "Ġcollection": 3738,
      "iated": 3739,
      "Ġvertical": 3740,
      "ney": 3741,
      "Ġseven": 3742,
      "Ġcoal": 3743,
      "Ġfuel": 3744,
      "Ġmix": 3745,
      "Ġraised": 3746,
      "Ġcommunication": 3747,
      "ugh": 3748,
      "Ġbond": 3749,
      "Ġgenetic": 3750,
      "Ġsuitable": 3751,
      "Ġspat": 3752,
      "Ġbird": 3753,
      "Ġenh": 3754,
      "Ġconference": 3755,
      "Ġcredit": 3756,
      "Ġcott": 3757,
      "Ġnorth": 3758,
      "Ġconflict": 3759,
      "Ġalloc": 3760,
      "Ġwoman": 3761,
      "ĠSp": 3762,
      "ĠInst": 3763,
      "Ġvent": 3764,
      "riage": 3765,
      "Ġturned": 3766,
      "Ġdecided": 3767,
      "arp": 3768,
      "Ġdelivery": 3769,
      "ha": 3770,
      "zz": 3771,
      "unch": 3772,
      "Ġdifficulty": 3773,
      "ios": 3774,
      "Ġoffers": 3775,
      "Ġpieces": 3776,
      "eth": 3777,
      "Ġrecently": 3778,
      "Ġbottom": 3779,
      "Ġconcerns": 3780,
      "Ġsites": 3781,
      "Ġdestroy": 3782,
      "Ġworth": 3783,
      "Ġpure": 3784,
      "rad": 3785,
      "bed": 3786,
      "Ġrough": 3787,
      "Ġteaching": 3788,
      "Ġload": 3789,
      "Ġremark": 3790,
      "Ġopposite": 3791,
      "Ġproof": 3792,
      "body": 3793,
      "Ġorganiz": 3794,
      "arm": 3795,
      "Ġcontem": 3796,
      "Ġfundamental": 3797,
      "phone": 3798,
      "reed": 3799,
      "Ġregist": 3800,
      "Ġinsurance": 3801,
      "Ġcareer": 3802,
      "Ġsuggested": 3803,
      "Ġjudgment": 3804,
      "Ġproposal": 3805,
      "Ġplate": 3806,
      "Ġrank": 3807,
      "Ġdifficulties": 3808,
      "Ġhappen": 3809,
      "Ġelectricity": 3810,
      "Ġfell": 3811,
      "Ġgall": 3812,
      "Ġrestrict": 3813,
      "Ġrid": 3814,
      "Ġaccur": 3815,
      "Ġdriver": 3816,
      "Ġwon": 3817,
      "resents": 3818,
      "Ġriver": 3819,
      "Ġdro": 3820,
      "iate": 3821,
      "Ġcauses": 3822,
      "ener": 3823,
      "Ġreached": 3824,
      "Ġfriends": 3825,
      "Ġdu": 3826,
      "Ġprison": 3827,
      "Ġeffort": 3828,
      "Ġsecondary": 3829,
      "Ġmale": 3830,
      "Ġshared": 3831,
      "Ġunemploy": 3832,
      "Ġcycle": 3833,
      "Ġadjust": 3834,
      "Ġprote": 3835,
      "Ġfeeling": 3836,
      "Ġvel": 3837,
      "Ġrepresents": 3838,
      "Ġinflation": 3839,
      "ĠFurthermore": 3840,
      "what": 3841,
      "Ġnearly": 3842,
      "Ġpermanent": 3843,
      "iples": 3844,
      "Ġprepared": 3845,
      "rig": 3846,
      "ady": 3847,
      "ley": 3848,
      "Ġtrust": 3849,
      "atically": 3850,
      "Ġonto": 3851,
      "Ġwish": 3852,
      "Ġalone": 3853,
      "Ġgoal": 3854,
      "ĠAny": 3855,
      "Ġfather": 3856,
      "ĠIndeed": 3857,
      "Ġhit": 3858,
      "Ġproceed": 3859,
      "utive": 3860,
      "Ġspot": 3861,
      "Ġexamples": 3862,
      "Ġmap": 3863,
      "Ġcompound": 3864,
      "Ġentirely": 3865,
      "Ġimmediate": 3866,
      "izon": 3867,
      "Ġmedic": 3868,
      "Ġfarmers": 3869,
      "arc": 3870,
      "Ġsoil": 3871,
      "cont": 3872,
      "oring": 3873,
      "Ġlargely": 3874,
      "Ġassessment": 3875,
      "Ġordinary": 3876,
      "Ġexcess": 3877,
      "ourse": 3878,
      "Ġrecip": 3879,
      "Ġrear": 3880,
      "Ġideal": 3881,
      "Ġmeasured": 3882,
      "Ġassemb": 3883,
      "Ġones": 3884,
      "Ġselected": 3885,
      "Ġclinical": 3886,
      "Ġsen": 3887,
      "Ġrig": 3888,
      "Ġserve": 3889,
      "Ġfib": 3890,
      "idity": 3891,
      "Ġrecru": 3892,
      "Ġfight": 3893,
      "ades": 3894,
      "irect": 3895,
      "Ġoccurs": 3896,
      "Ġtun": 3897,
      "Ġminutes": 3898,
      "Ġpeace": 3899,
      "ĠPe": 3900,
      "Ġindeed": 3901,
      "Ġconfig": 3902,
      "Ġestimate": 3903,
      "Ġclasses": 3904,
      "ocol": 3905,
      "Ġcontrolled": 3906,
      "orn": 3907,
      "Ġfactory": 3908,
      "irth": 3909,
      "Ġsand": 3910,
      "Ġassumption": 3911,
      "ĠOver": 3912,
      "Ġdetermine": 3913,
      "Ġvoice": 3914,
      "Ġped": 3915,
      "uth": 3916,
      "odies": 3917,
      "Ġrural": 3918,
      "ellig": 3919,
      "Ġcommitment": 3920,
      "Ġsignificantly": 3921,
      "Ġcombined": 3922,
      "Ġapproximately": 3923,
      "Ġjun": 3924,
      "Ġcompleted": 3925,
      "Ġfrequency": 3926,
      "Ġkitc": 3927,
      "aught": 3928,
      "Ġdisapp": 3929,
      "ĠEvery": 3930,
      "Ġexpert": 3931,
      "Ġquantity": 3932,
      "Ġuniversity": 3933,
      "Ġox": 3934,
      "Ġflo": 3935,
      "Ġexpressed": 3936,
      "Ġextensive": 3937,
      "Ġexplan": 3938,
      "Ġcopy": 3939,
      "Ġran": 3940,
      "Ġnumerous": 3941,
      "Ġsav": 3942,
      "Ġvillage": 3943,
      "bon": 3944,
      "ĠAnd": 3945,
      "Ġplane": 3946,
      "oking": 3947,
      "Ġbrain": 3948,
      "Ġcham": 3949,
      "Ġrational": 3950,
      "Ġassociation": 3951,
      "ked": 3952,
      "Ġpil": 3953,
      "Ġ11": 3954,
      "Ġunderlying": 3955,
      "Ġimmediately": 3956,
      "otyp": 3957,
      "Ġspl": 3958,
      "Ġprinciples": 3959,
      "Ġfelt": 3960,
      "oles": 3961,
      "Ġfields": 3962,
      "Ġliterature": 3963,
      "Ġmoved": 3964,
      "Ġratio": 3965,
      "Ġlocation": 3966,
      "Ġgrand": 3967,
      "Ġbath": 3968,
      "Ġgram": 3969,
      "Ġbread": 3970,
      "Ġsouth": 3971,
      "Ġast": 3972,
      "Ġsto": 3973,
      "Ġmember": 3974,
      "Ġhotel": 3975,
      "ĠâĢĶ": 3976,
      "Ġvalu": 3977,
      "rates": 3978,
      "Ġsets": 3979,
      "Ġwild": 3980,
      "Ġstay": 3981,
      "Ġpolicies": 3982,
      "Ġconstructed": 3983,
      "sec": 3984,
      "ensional": 3985,
      "Ġexplain": 3986,
      "Ġ14": 3987,
      "Ġfailure": 3988,
      "Ġappoint": 3989,
      "Ġrecords": 3990,
      "Ġign": 3991,
      "apes": 3992,
      "Ġentry": 3993,
      "Ġauthors": 3994,
      "force": 3995,
      "Ġwage": 3996,
      "antic": 3997,
      "ĠLet": 3998,
      "enth": 3999,
      "ĠThose": 4000,
      "Ġquar": 4001,
      "Ġtransition": 4002,
      "Ġmerely": 4003,
      "Ġenormous": 4004,
      "ĠFinally": 4005,
      "tes": 4006,
      "Ġnewsp": 4007,
      "Ġmole": 4008,
      "Ġcustomers": 4009,
      "Ġinnov": 4010,
      "Ġreferred": 4011,
      "ructure": 4012,
      "Ġadministrative": 4013,
      "Ġtit": 4014,
      "Ġjudge": 4015,
      "Ġdiagn": 4016,
      "Ġdiss": 4017,
      "anging": 4018,
      "Ġbackground": 4019,
      "Ġelim": 4020,
      "cri": 4021,
      "Ġdiscussed": 4022,
      "Ġleads": 4023,
      "Ġdefinition": 4024,
      "Ġfreed": 4025,
      "Ġcontaining": 4026,
      "Ġhorizon": 4027,
      "Ġchap": 4028,
      "Ġcolon": 4029,
      "Ġconvers": 4030,
      "Ġsustain": 4031,
      "Ġrelating": 4032,
      "Ġlinear": 4033,
      "ĠPro": 4034,
      "Ġsetting": 4035,
      "ĠPer": 4036,
      "inant": 4037,
      "Ġsecret": 4038,
      "Ġacademic": 4039,
      "nder": 4040,
      "Ġcontinuous": 4041,
      "anes": 4042,
      "Ġalg": 4043,
      "Ġdigital": 4044,
      "Ġaccommodation": 4045,
      "Ġwaste": 4046,
      "Ġtreated": 4047,
      "Ġaccepted": 4048,
      "Ġwidely": 4049,
      "uous": 4050,
      "Ġalb": 4051,
      "Ġelectrical": 4052,
      "Ġscreen": 4053,
      "eters": 4054,
      "Ġoperating": 4055,
      "Ġmarkets": 4056,
      "rooms": 4057,
      "Ġarrangements": 4058,
      "cers": 4059,
      "Ġtherap": 4060,
      "icy": 4061,
      "eties": 4062,
      "Ġheight": 4063,
      "Ġnor": 4064,
      "illing": 4065,
      "Ġuniform": 4066,
      "ĠOnly": 4067,
      "Ġsubstit": 4068,
      "Ġevalu": 4069,
      "Ġgain": 4070,
      "ĠSh": 4071,
      "Ġexposure": 4072,
      "unic": 4073,
      "Ġexpans": 4074,
      "Ġsomewhat": 4075,
      "Ġplayers": 4076,
      "Ġexperimental": 4077,
      "Ġapprec": 4078,
      "Ġarg": 4079,
      "Ġinvolving": 4080,
      "Ġexport": 4081,
      "Ġremained": 4082,
      "Ġmentioned": 4083,
      "Ġshell": 4084,
      "Ġmas": 4085,
      "ogue": 4086,
      "Ġice": 4087,
      "Ġsympt": 4088,
      "Ġimposs": 4089,
      "Ġshopping": 4090,
      "Ġinner": 4091,
      "usions": 4092,
      "Ġlandscape": 4093,
      "Ġintellig": 4094,
      "Ġau": 4095,
      "Ġburn": 4096,
      "Ġpractices": 4097,
      "Ġpurposes": 4098,
      "Ġundert": 4099,
      "Ġpoll": 4100,
      "Ġviews": 4101,
      "Ġcharacters": 4102,
      "Ġprocedure": 4103,
      "Ġisol": 4104,
      "Ġwealth": 4105,
      "band": 4106,
      "Ġincl": 4107,
      "Ġinterior": 4108,
      "Ġdesp": 4109,
      "Ġsurpr": 4110,
      "Ġrepresented": 4111,
      "tenance": 4112,
      "Ġcommonly": 4113,
      "rence": 4114,
      "Ġmort": 4115,
      "ctors": 4116,
      "Ġdealing": 4117,
      "Ġpeak": 4118,
      "works": 4119,
      "Ġmixed": 4120,
      "Ġincorpor": 4121,
      "Ġphase": 4122,
      "down": 4123,
      "Ġadvanced": 4124,
      "Ġpowerful": 4125,
      "Ġcharacteristics": 4126,
      "Ġtick": 4127,
      "Ġvast": 4128,
      "luded": 4129,
      "Ġwanted": 4130,
      "Ġphon": 4131,
      "Ġleaders": 4132,
      "Ġbridge": 4133,
      "ipped": 4134,
      "Ġopening": 4135,
      "entions": 4136,
      "Ġmuse": 4137,
      "Ġnoted": 4138,
      "Ġrecovery": 4139,
      "Ġcolor": 4140,
      "Ġphr": 4141,
      "Ġroads": 4142,
      "Ġofficers": 4143,
      "iance": 4144,
      "Ġbusinesses": 4145,
      "Ġinstitutions": 4146,
      "Ġexpend": 4147,
      "Ġclause": 4148,
      "icial": 4149,
      "Ġcircuit": 4150,
      "Ġrelationships": 4151,
      "etary": 4152,
      "Ġdivided": 4153,
      "Ġdatab": 4154,
      "ented": 4155,
      "Ġmedium": 4156,
      "Ġincreasingly": 4157,
      "Ġtheat": 4158,
      "ĠSim": 4159,
      "Ġindicate": 4160,
      "ishes": 4161,
      "Ġded": 4162,
      "Ġexcl": 4163,
      "Ġclothes": 4164,
      "Ġmeant": 4165,
      "Ġfunds": 4166,
      "Ġstations": 4167,
      "Ġusual": 4168,
      "Ġbecoming": 4169,
      "Ġrequirements": 4170,
      "gra": 4171,
      "uted": 4172,
      "Ġshops": 4173,
      "Ġ40": 4174,
      "Ġprepar": 4175,
      "Ġaccident": 4176,
      "Ġhabit": 4177,
      "Ġpotat": 4178,
      "Ġintegration": 4179,
      "cles": 4180,
      "espite": 4181,
      "Ġexistence": 4182,
      "Ġindustries": 4183,
      "Ġliquid": 4184,
      "Ġcommittee": 4185,
      "Ġscene": 4186,
      "tering": 4187,
      "Ġexpensive": 4188,
      "Ġrub": 4189,
      "Ġbrand": 4190,
      "Ġschemes": 4191,
      "Ġdin": 4192,
      "Ġmarked": 4193,
      "Ġago": 4194,
      "Ġ194": 4195,
      "Ġgeomet": 4196,
      "Ġaccomp": 4197,
      "Ġcriter": 4198,
      "hel": 4199,
      "Ġexcell": 4200,
      "Ġspring": 4201,
      "Ġtheme": 4202,
      "Ġmaintenance": 4203,
      "Ġtal": 4204,
      "Ġbelief": 4205,
      "Ġengineering": 4206,
      "Ġabstract": 4207,
      "Ġnecessarily": 4208,
      "mmet": 4209,
      "Ġreplace": 4210,
      "iring": 4211,
      "Ġmov": 4212,
      "Ġdistinction": 4213,
      "Ġcas": 4214,
      "Ġretain": 4215,
      "Ġmassive": 4216,
      "Ġimpossible": 4217,
      "theless": 4218,
      "Ġartific": 4219,
      "ĠDespite": 4220,
      "Ġexperienced": 4221,
      "'d": 4222,
      "com": 4223,
      "Ġactions": 4224,
      "Ġconfir": 4225,
      "undred": 4226,
      "Ġprimarily": 4227,
      "arant": 4228,
      "umn": 4229,
      "Ġring": 4230,
      "Ġphenomen": 4231,
      "bre": 4232,
      "Ġtiss": 4233,
      "Ġexec": 4234,
      "Ġagencies": 4235,
      "Ġentr": 4236,
      "Ġbrown": 4237,
      "Ġcorporate": 4238,
      "Ġemotional": 4239,
      "lind": 4240,
      "Ġexplos": 4241,
      "Ġremaining": 4242,
      "Ġadequate": 4243,
      "Ġwheel": 4244,
      "Ġsubsequent": 4245,
      "ĠPeople": 4246,
      "Ġfluid": 4247,
      "Ġchurch": 4248,
      "Ġdrop": 4249,
      "Ġhypothes": 4250,
      "Ġselling": 4251,
      "Ġdraft": 4252,
      "Ġbias": 4253,
      "Ġlaboratory": 4254,
      "iny": 4255,
      "Ġanc": 4256,
      "Ġalgor": 4257,
      "Ġbirth": 4258,
      "char": 4259,
      "eless": 4260,
      "Ġcourts": 4261,
      "Ġencourage": 4262,
      "ulating": 4263,
      "Ġcorner": 4264,
      "Ġmechanism": 4265,
      "fort": 4266,
      "wing": 4267,
      "Ġcomplic": 4268,
      "Ġkitchen": 4269,
      "igned": 4270,
      "ĠWhy": 4271,
      "Ġelection": 4272,
      "Ġspatial": 4273,
      "Ġaer": 4274,
      "Ġoutd": 4275,
      "Ġtransact": 4276,
      "Ġcitizens": 4277,
      "Ġfile": 4278,
      "aph": 4279,
      "Ġadvoc": 4280,
      "Ġclothing": 4281,
      "Ġ13": 4282,
      "Ġcreating": 4283,
      "Ġorganic": 4284,
      "Ġrestaurant": 4285,
      "oned": 4286,
      "oration": 4287,
      "Ġrich": 4288,
      "ows": 4289,
      "Ġtypical": 4290,
      "Ġaccounts": 4291,
      "Ġachievement": 4292,
      "Ġrace": 4293,
      "Ġamounts": 4294,
      "Ġprincipal": 4295,
      "Ġcart": 4296,
      "Ġfal": 4297,
      "Ġsweet": 4298,
      "Ġcomprehensive": 4299,
      "Ġattached": 4300,
      "Ġfavour": 4301,
      "Ġnut": 4302,
      "Ġcompens": 4303,
      "Ġsusp": 4304,
      "Ġnote": 4305,
      "Ġarri": 4306,
      "Ġ25": 4307,
      "Ġlegit": 4308,
      "engers": 4309,
      "Ġeducational": 4310,
      "Ġparking": 4311,
      "lers": 4312,
      "ceived": 4313,
      "ibilities": 4314,
      "Ġdepends": 4315,
      "Ġouter": 4316,
      "Ġvariation": 4317,
      "Ġerror": 4318,
      "onic": 4319,
      "Ġchannel": 4320,
      "Ġsale": 4321,
      "Ġamend": 4322,
      "Ġshowing": 4323,
      "herent": 4324,
      "ĠAcc": 4325,
      "arth": 4326,
      "Ġsimpl": 4327,
      "Ġexplicit": 4328,
      "lim": 4329,
      "Ġotherwise": 4330,
      "new": 4331,
      "Ġwearing": 4332,
      "Ġpreviously": 4333,
      "ĠUs": 4334,
      "Ġaf": 4335,
      "Ġpreced": 4336,
      "Ġcrim": 4337,
      "known": 4338,
      "coh": 4339,
      "Ġrepeated": 4340,
      "Ġgender": 4341,
      "Ġwebs": 4342,
      "Ġidentity": 4343,
      "ĠInstead": 4344,
      "ĠOnce": 4345,
      "Ġcalls": 4346,
      "Ġsamples": 4347,
      "Ġprofession": 4348,
      "Ġdimension": 4349,
      "ingly": 4350,
      "Ġstores": 4351,
      "Ġoperate": 4352,
      "Ġswim": 4353,
      "Ġinfrast": 4354,
      "Ġpersonnel": 4355,
      "Ġvaluable": 4356,
      "Ġduty": 4357,
      "Ġcere": 4358,
      "Ġidentify": 4359,
      "Ġmountain": 4360,
      "olved": 4361,
      "Ġproposals": 4362,
      "Ġcrops": 4363,
      "Ġseat": 4364,
      "Ġfirms": 4365,
      "Ġremem": 4366,
      "Ġfindings": 4367,
      "iled": 4368,
      "Ġmostly": 4369,
      "Ġprofit": 4370,
      "Ġreports": 4371,
      "Ġplastic": 4372,
      "Ġimpl": 4373,
      "Ġcontinuing": 4374,
      "Ġfootball": 4375,
      "ooth": 4376,
      "Ġstret": 4377,
      "Ġcoord": 4378,
      "sect": 4379,
      "Ġstrugg": 4380,
      "enty": 4381,
      "Ġmonitor": 4382,
      "Ġmanufacturing": 4383,
      "Ġfilled": 4384,
      "ĠNot": 4385,
      "rain": 4386,
      "Ġarticles": 4387,
      "Ġwatch": 4388,
      "Ġtasks": 4389,
      "Ġimper": 4390,
      "Ġap": 4391,
      "Ġstick": 4392,
      "Ġclim": 4393,
      "12": 4394,
      "Ġtriang": 4395,
      "Ġtelephone": 4396,
      "Ġtemporary": 4397,
      "Ġrein": 4398,
      "Ġanyone": 4399,
      "Ġves": 4400,
      "Ġhat": 4401,
      "Ġcollected": 4402,
      "Ġapproaches": 4403,
      "Ġdead": 4404,
      "Ġgenerated": 4405,
      "Ġbaby": 4406,
      "pth": 4407,
      "Ġlayer": 4408,
      "Ġlanguages": 4409,
      "Ġappeared": 4410,
      "mes": 4411,
      "Ġconfidence": 4412,
      "Ġcommunities": 4413,
      "usive": 4414,
      "Ġradi": 4415,
      "Ġletter": 4416,
      "Ġsharp": 4417,
      "rant": 4418,
      "Ġaid": 4419,
      "Ġallowing": 4420,
      "Ġmembership": 4421,
      "gain": 4422,
      "lets": 4423,
      "Ġ24": 4424,
      "Ġeveryone": 4425,
      "Ġarguments": 4426,
      "Ġeventually": 4427,
      "Ġadvertising": 4428,
      "Ġwel": 4429,
      "Ġguarant": 4430,
      "Ġlearn": 4431,
      "Ġmachines": 4432,
      "Ġattribut": 4433,
      "Ġnames": 4434,
      "Ġdrawn": 4435,
      "Ġhighest": 4436,
      "Ġcamer": 4437,
      "Ġbeam": 4438,
      "raction": 4439,
      "ĠNow": 4440,
      "Ġpurs": 4441,
      "Ġsections": 4442,
      "nels": 4443,
      "Ġchocol": 4444,
      "related": 4445,
      "'.": 4446,
      "mar": 4447,
      "Ġguid": 4448,
      "Ġoccurred": 4449,
      "Ġsupported": 4450,
      "Ġinternet": 4451,
      "Ġcatch": 4452,
      "enger": 4453,
      "Ġconsc": 4454,
      "ords": 4455,
      "Ġdangerous": 4456,
      "atever": 4457,
      "Ġclos": 4458,
      "Ġtrad": 4459,
      "Ġinstruction": 4460,
      "Ġinteractions": 4461,
      "inet": 4462,
      "Ġpurchase": 4463,
      "Ġholid": 4464,
      "Ġhundred": 4465,
      "Ġformat": 4466,
      "Ġdriving": 4467,
      "Ġfreedom": 4468,
      "abled": 4469,
      "Ġschol": 4470,
      "gments": 4471,
      "Ġcombination": 4472,
      "going": 4473,
      "Ġmanager": 4474,
      "\",": 4475,
      "Ġtools": 4476,
      "Ġhop": 4477,
      "Ġdivers": 4478,
      "Ġeverything": 4479,
      "Ġmel": 4480,
      "ifically": 4481,
      "Ġmarketing": 4482,
      "Ġopened": 4483,
      "Ġcandid": 4484,
      "ero": 4485,
      "Ġfold": 4486,
      "Ġlake": 4487,
      "Ġmal": 4488,
      "Ġthor": 4489,
      "Ġalter": 4490,
      "Ġnormally": 4491,
      "Ġfalse": 4492,
      "ying": 4493,
      "abil": 4494,
      "Ġunlike": 4495,
      "Ġcolour": 4496,
      "Ġfairly": 4497,
      "osy": 4498,
      "Ġinterested": 4499,
      "Ġcylind": 4500,
      "Ġfailed": 4501,
      "Ġexpenditure": 4502,
      "Ġsurvey": 4503,
      "Ġtalking": 4504,
      "Ġdynamic": 4505,
      "Ġ%": 4506,
      "Ġthous": 4507,
      "Ġchair": 4508,
      "Ġobvious": 4509,
      "house": 4510,
      "Ġstrict": 4511,
      "Ġclaims": 4512,
      "Ġdance": 4513,
      "Ġpolitics": 4514,
      "wide": 4515,
      "Ġsan": 4516,
      "outh": 4517,
      "Ġresidential": 4518,
      "Ġwave": 4519,
      "Ġpup": 4520,
      "osen": 4521,
      "Ġdevices": 4522,
      "Ġchalleng": 4523,
      "rations": 4524,
      "load": 4525,
      "Ġfurniture": 4526,
      "):": 4527,
      "Ġbodies": 4528,
      "Ġalcoh": 4529,
      "anges": 4530,
      "Ġpassed": 4531,
      "Ġhear": 4532,
      "Ġneu": 4533,
      "Ġrecre": 4534,
      "Ġofficer": 4535,
      "Ġdepartment": 4536,
      "Ġcry": 4537,
      "Ġsmooth": 4538,
      "Ġfollows": 4539,
      "Ġversion": 4540,
      "Ġpra": 4541,
      "Ġforced": 4542,
      "Ġmoder": 4543,
      "Ġpayments": 4544,
      "Ġlaws": 4545,
      "Ġcontempor": 4546,
      "Ġleaving": 4547,
      "mal": 4548,
      "Ġcontribution": 4549,
      "Ġnom": 4550,
      "Ġchance": 4551,
      "pling": 4552,
      "Ġefforts": 4553,
      "Ġtried": 4554,
      "Ġartificial": 4555,
      "nic": 4556,
      "urally": 4557,
      "Ġleaf": 4558,
      "Ġcontained": 4559,
      "Ġimplementation": 4560,
      "ket": 4561,
      "Ġpair": 4562,
      "orous": 4563,
      "ĠCl": 4564,
      "Ġdiscourse": 4565,
      "Ġcrime": 4566,
      "Ġedge": 4567,
      "Ġmm": 4568,
      "Ġlit": 4569,
      "Ġarbit": 4570,
      "Ġbroken": 4571,
      "Ġstages": 4572,
      "Ġparticles": 4573,
      "Ġperiods": 4574,
      "Ġvisit": 4575,
      "Ġcircle": 4576,
      "Ġtaste": 4577,
      "Ġfab": 4578,
      "Ġmode": 4579,
      "Ġsurrounding": 4580,
      "Ġmaster": 4581,
      "Ġpron": 4582,
      "Ġtransl": 4583,
      "Ġsatisfact": 4584,
      "Ġaccurate": 4585,
      "Ġrenew": 4586,
      "Ġemployee": 4587,
      "ographical": 4588,
      "Ġlinguistic": 4589,
      "ony": 4590,
      "Ġhus": 4591,
      "ruption": 4592,
      "Ġflood": 4593,
      "ortunately": 4594,
      "Ġexactly": 4595,
      "inations": 4596,
      "Ġnoise": 4597,
      "Ġwinter": 4598,
      "Ġmiles": 4599,
      "Ġshares": 4600,
      "Ġconsistent": 4601,
      "Ġnuclear": 4602,
      "hand": 4603,
      "Ġalt": 4604,
      "Ġmessage": 4605,
      "Ġquarter": 4606,
      "Ġstrongly": 4607,
      ".:": 4608,
      "atively": 4609,
      "Ġstrategies": 4610,
      "Ġinfrastructure": 4611,
      "rep": 4612,
      "ĠWill": 4613,
      "Ġagreed": 4614,
      "Ġcustomer": 4615,
      "iful": 4616,
      "Ġwaiting": 4617,
      "Ġtube": 4618,
      "yal": 4619,
      "Ġlex": 4620,
      "Ġequival": 4621,
      "Ġaudience": 4622,
      "Ġworn": 4623,
      "ĠSever": 4624,
      "Ġconsideration": 4625,
      "Ġpossess": 4626,
      "Ġalbum": 4627,
      "yle": 4628,
      "Ġintention": 4629,
      "ĠDo": 4630,
      "Ġexperiments": 4631,
      "upp": 4632,
      "Ġcorresponding": 4633,
      "Ġdebt": 4634,
      "Ġmorph": 4635,
      "Ġtool": 4636,
      "Ġpassengers": 4637,
      "Ġassets": 4638,
      "rew": 4639,
      "Ġtoward": 4640,
      "Ġearnings": 4641,
      "uls": 4642,
      "inite": 4643,
      "Ġdensity": 4644,
      "ounced": 4645,
      "ny": 4646,
      "Ġtrou": 4647,
      "ĠSeveral": 4648,
      "Ġaxis": 4649,
      "Ġexamined": 4650,
      "Ġanti": 4651,
      "Ġclust": 4652,
      "Ġimpression": 4653,
      "Ġinspect": 4654,
      "Ġgap": 4655,
      "Ġspend": 4656,
      "Ġunp": 4657,
      "Ġcourses": 4658,
      "Ġcrucial": 4659,
      "ault": 4660,
      "Ġobservation": 4661,
      "Ġwelf": 4662,
      "Ġangle": 4663,
      "Ġshut": 4664,
      "Ġroute": 4665,
      "Ġresponses": 4666,
      "elled": 4667,
      "ician": 4668,
      "Ġmechanisms": 4669,
      "Ġsus": 4670,
      "inding": 4671,
      "Ġmaintained": 4672,
      "Ġconventional": 4673,
      "Ġlegisl": 4674,
      "Ġvessel": 4675,
      "Ġwelfare": 4676,
      "stream": 4677,
      "Ġproducing": 4678,
      "Ġregarded": 4679,
      "amed": 4680,
      "Ġpersons": 4681,
      "Ġtests": 4682,
      "Ġopportunities": 4683,
      "Ġbeach": 4684,
      "Ġcool": 4685,
      "Ġwarm": 4686,
      "Ġoperator": 4687,
      "Ġmechanical": 4688,
      "ught": 4689,
      "lder": 4690,
      "apse": 4691,
      "ĠUnder": 4692,
      "Ġdrawing": 4693,
      "Ġhorse": 4694,
      "Ġdish": 4695,
      "Ġobst": 4696,
      "Ġgreatest": 4697,
      "tion": 4698,
      "Ġstanding": 4699,
      "Ġbought": 4700,
      "Ġabsence": 4701,
      "Ġchapter": 4702,
      "Ġtower": 4703,
      "Ġpsychological": 4704,
      "Ġconducted": 4705,
      "fall": 4706,
      "Ġprocedures": 4707,
      "Ġtight": 4708,
      "Ġisland": 4709,
      "ellect": 4710,
      "Ġcarefully": 4711,
      "Ġpainting": 4712,
      "Ġreleased": 4713,
      "Ġveloc": 4714,
      "Ġexists": 4715,
      "Ġstatement": 4716,
      "Ġstatist": 4717,
      "Ġsuit": 4718,
      "kers": 4719,
      "Ġpossibly": 4720,
      "Ġpowers": 4721,
      "iant": 4722,
      "Ġcomposition": 4723,
      "dom": 4724,
      "Ġextract": 4725,
      "asant": 4726,
      "Ġfinished": 4727,
      "Ġspaces": 4728,
      "Ġsolutions": 4729,
      "Ġmist": 4730,
      "oted": 4731,
      "erent": 4732,
      "Ġsteps": 4733,
      "Ġrobot": 4734,
      "Ġreb": 4735,
      "Ġregulations": 4736,
      "Ġtruth": 4737,
      "Ġmorning": 4738,
      "Ġmanip": 4739,
      "Ġseeds": 4740,
      "Ġsymptoms": 4741,
      "Ġpassenger": 4742,
      "Ġsongs": 4743,
      "11": 4744,
      "rid": 4745,
      "Ġsenior": 4746,
      "Ġil": 4747,
      "Ġsession": 4748,
      "Ġdepth": 4749,
      "Ġfeedback": 4750,
      "Ġacquis": 4751,
      "aser": 4752,
      "Ġgest": 4753,
      "place": 4754,
      "Ġafford": 4755,
      "Ġgone": 4756,
      "que": 4757,
      "Ġcircular": 4758,
      "Ġreject": 4759,
      "Ġbranch": 4760,
      "Ġrow": 4761,
      "ails": 4762,
      "Ġremote": 4763,
      "Ġgets": 4764,
      "oured": 4765,
      "Ġplas": 4766,
      "Ġlargest": 4767,
      "Ġcategories": 4768,
      "Ġsole": 4769,
      "Ġ195": 4770,
      "Ġexcellent": 4771,
      "roc": 4772,
      "oked": 4773,
      "Ġpreserv": 4774,
      "Ġchief": 4775,
      "Ġchosen": 4776,
      "Ġunus": 4777,
      "Ġexpansion": 4778,
      "Ġstimul": 4779,
      "..": 4780,
      "miss": 4781,
      "Ġsatisf": 4782,
      "ĠRec": 4783,
      "Ġvisible": 4784,
      "Ġrestric": 4785,
      "Ġhappens": 4786,
      "Ġrecognition": 4787,
      "Ġtrained": 4788,
      "abilities": 4789,
      "Ġformation": 4790,
      "Ġdependent": 4791,
      "Ġtoler": 4792,
      "Ġintellect": 4793,
      "enses": 4794,
      "Ġstarting": 4795,
      "Ġsequence": 4796,
      "Ġfederal": 4797,
      "mp": 4798,
      "Ġreducing": 4799,
      "Ġreven": 4800,
      "ials": 4801,
      "Ġunemployment": 4802,
      "Ġunless": 4803,
      "Ġresearc": 4804,
      "Ġorigin": 4805,
      "Ġmuseum": 4806,
      "Ġpanel": 4807,
      "Ġwalking": 4808,
      "Ġresistance": 4809,
      "Ġconven": 4810,
      "Ġanalyses": 4811,
      "rect": 4812,
      "Ġlooked": 4813,
      "Ġsaying": 4814,
      "Ġhorizontal": 4815,
      "Ġspeaking": 4816,
      "Ġdefence": 4817,
      "Ġphilosophy": 4818,
      "Ġgrass": 4819,
      "Ġtall": 4820,
      "Ġtissue": 4821,
      "ilarly": 4822,
      "Ġcontrols": 4823,
      "tic": 4824,
      "Ġshel": 4825,
      "Ġsnow": 4826,
      "akers": 4827,
      "Ġspending": 4828,
      "Ġunderst": 4829,
      "Ġfinger": 4830,
      "Ġthorough": 4831,
      "icip": 4832,
      "Ġstated": 4833,
      "Ġdespite": 4834,
      "ancing": 4835,
      "Ġresidents": 4836,
      "Ġfacilit": 4837,
      "haust": 4838,
      "Ġremove": 4839,
      "500": 4840,
      "Ġlinked": 4841,
      "Ġinterpretation": 4842,
      "Ġflav": 4843,
      "Ġcurve": 4844,
      "Ġsays": 4845,
      "Ġstable": 4846,
      "Ġempir": 4847,
      "Ġdisturb": 4848,
      "Ġcris": 4849,
      "Ġchocolate": 4850,
      "lands": 4851,
      "umin": 4852,
      "Ġplanned": 4853,
      "Ġtesting": 4854,
      "know": 4855,
      "Ġcod": 4856,
      "Ġsport": 4857,
      "Ġutil": 4858,
      "ĠAccording": 4859,
      "Ġfishing": 4860,
      "Ġdream": 4861,
      "ider": 4862,
      "mentary": 4863,
      "Ġsubsid": 4864,
      "ecess": 4865,
      "Ġvalid": 4866,
      "Ġparas": 4867,
      "Ġintroduction": 4868,
      "Ġdatabase": 4869,
      "Ġstories": 4870,
      "Ġclosely": 4871,
      "Ġther": 4872,
      "Ġperception": 4873,
      "Ġreprodu": 4874,
      "Ġregul": 4875,
      "Ġtrial": 4876,
      "crib": 4877,
      "icated": 4878,
      "Ġearth": 4879,
      "Ġcausing": 4880,
      "ker": 4881,
      "Ġwond": 4882,
      "ctive": 4883,
      "Ġtrading": 4884,
      "iations": 4885,
      "lia": 4886,
      "Ġchart": 4887,
      "Ġescape": 4888,
      "ont": 4889,
      "Ġchron": 4890,
      "Ġcancer": 4891,
      "ĠNever": 4892,
      "Ġruns": 4893,
      "Ġbright": 4894,
      "Ġchoose": 4895,
      "Ġjournal": 4896,
      "Ġilleg": 4897,
      "Ġcarbon": 4898,
      "Ġconcer": 4899,
      "Ġowner": 4900,
      "Ġproperly": 4901,
      "Ġintegrated": 4902,
      "Ġsounds": 4903,
      "Ġresource": 4904,
      "Ġuncertain": 4905,
      "wers": 4906,
      "Ġbicy": 4907,
      "Ġpromin": 4908,
      "Ġunable": 4909,
      "Ġdevelopmental": 4910,
      ".\"": 4911,
      "Ġstro": 4912,
      "Ġadvance": 4913,
      "Ġbars": 4914,
      "uries": 4915,
      "Ġrout": 4916,
      "Ġpercept": 4917,
      "Ġdoors": 4918,
      "Ġregarding": 4919,
      "Ġinstitutional": 4920,
      "Ġautomatic": 4921,
      "right": 4922,
      "rees": 4923,
      "Ġresulted": 4924,
      "Ġdefinite": 4925,
      "Ġcert": 4926,
      "Ġpapers": 4927,
      "umes": 4928,
      "ĠCan": 4929,
      "Ġfinding": 4930,
      "standing": 4931,
      "Ġoriginally": 4932,
      "fl": 4933,
      "water": 4934,
      "Ġtransmission": 4935,
      "Ġconstraints": 4936,
      "Ġho": 4937,
      "Ġproduces": 4938,
      "Ġbanks": 4939,
      "Ġcontemporary": 4940,
      "Ġwhom": 4941,
      "Ġoffices": 4942,
      "irable": 4943,
      "ĠWhere": 4944,
      "Ġguide": 4945,
      "rix": 4946,
      "ushed": 4947,
      "Ġcorrel": 4948,
      "celer": 4949,
      "Ġrelief": 4950,
      "Ġends": 4951,
      "Ġfacts": 4952,
      "Ġexhaust": 4953,
      "Ġcovers": 4954,
      "Ġtrem": 4955,
      "pled": 4956,
      "Ġfilms": 4957,
      "Ġtechnologies": 4958,
      "Ġconsidering": 4959,
      "Ġrice": 4960,
      "Ġcooper": 4961,
      "Ġ1980": 4962,
      "Ġrapidly": 4963,
      "Ġsentence": 4964,
      "Ġcomparison": 4965,
      "ugg": 4966,
      "Ġstem": 4967,
      "Ġproductivity": 4968,
      "Ġhappened": 4969,
      "Ġemergency": 4970,
      "Ġdiameter": 4971,
      "Ġvital": 4972,
      "Ġdiscrim": 4973,
      "Ġhighlight": 4974,
      "Ġoperators": 4975,
      "Ġtransformation": 4976,
      "Ġrect": 4977,
      "Ġyouth": 4978,
      "gent": 4979,
      "urrent": 4980,
      "Ġpret": 4981,
      "Ġbroadcast": 4982,
      "Ġaggreg": 4983,
      "Ġcriminal": 4984,
      "Ġinev": 4985,
      "Ġstudied": 4986,
      "Ġnumer": 4987,
      "Ġmobility": 4988,
      "rating": 4989,
      "Ġneut": 4990,
      "Ġlooks": 4991,
      "Ġindicated": 4992,
      "Ġcomplain": 4993,
      "terior": 4994,
      "Ġaccum": 4995,
      "class": 4996,
      "enge": 4997,
      "aked": 4998,
      "ton": 4999,
      "Ġlimits": 5000,
      "Ġmotiv": 5001,
      "Ġinstrument": 5002,
      "Ġmathematical": 5003,
      "Ġfabric": 5004,
      "ensus": 5005,
      "Ġdiscret": 5006,
      "Ġfocused": 5007,
      "Ġstrike": 5008,
      "ĠPerhaps": 5009,
      "Ġcompos": 5010,
      "Ġplays": 5011,
      "ĠLike": 5012,
      "Ġconsumers": 5013,
      "Ġ60": 5014,
      "Ġletters": 5015,
      "met": 5016,
      "Ġtrail": 5017,
      "Ġreaction": 5018,
      "Ġdecide": 5019,
      "Ġsuffered": 5020,
      "Ġboat": 5021,
      "Ġstreets": 5022,
      "Ġarchitecture": 5023,
      "Ġdidn": 5024,
      "ina": 5025,
      "Ġcareful": 5026,
      "Ġske": 5027,
      "Ġjack": 5028,
      "Ġtrend": 5029,
      "iat": 5030,
      "Ġcalculated": 5031,
      "Ġaband": 5032,
      "Ġmanaged": 5033,
      "Ġborrow": 5034,
      "Ġparameters": 5035,
      ",\"": 5036,
      "Ġclock": 5037,
      "Ġscore": 5038,
      "Ġexpense": 5039,
      "Ġunderground": 5040,
      "ĠPart": 5041,
      "Ġbreed": 5042,
      "Ġestimates": 5043,
      "igration": 5044,
      "Ġraise": 5045,
      "Ġsignals": 5046,
      "Ġverb": 5047,
      "Ġassumed": 5048,
      "ĠNevertheless": 5049,
      "Ġcounty": 5050,
      "Ġbelieved": 5051,
      "ateral": 5052,
      "Ġampl": 5053,
      "Ġdetection": 5054,
      "ĠNew": 5055,
      "Ġbelong": 5056,
      "Ġdistributed": 5057,
      "Ġentrance": 5058,
      "Ġought": 5059,
      "Ġinqu": 5060,
      "Ġindicates": 5061,
      "rown": 5062,
      "ĠDoes": 5063,
      "ians": 5064,
      "Ġthrow": 5065,
      "ocal": 5066,
      "anks": 5067,
      "level": 5068,
      "Ġeffectively": 5069,
      "Ġcontroll": 5070,
      "espread": 5071,
      "Ġdemands": 5072,
      "book": 5073,
      "Ġdocuments": 5074,
      "Ġmagnetic": 5075,
      "Ġchamber": 5076,
      "Ġcorrelation": 5077,
      "Ġerrors": 5078,
      "Ġmatrix": 5079,
      "Ġrecording": 5080,
      "Ġillness": 5081,
      "Ġfrequent": 5082,
      "Ġfamiliar": 5083,
      "Ġpip": 5084,
      "Ġstair": 5085,
      "Ġvoluntary": 5086,
      "Ġdining": 5087,
      "Ġsecure": 5088,
      "Ġderived": 5089,
      "Ġadopted": 5090,
      "Ġparad": 5091,
      "Ġnetworks": 5092,
      "iced": 5093,
      "Ġseats": 5094,
      "Ġproved": 5095,
      "Ġgrav": 5096,
      "Ġexperiences": 5097,
      "Ġcup": 5098,
      "Ġenable": 5099,
      "Ġsituations": 5100,
      "Ġwit": 5101,
      "Ġinstall": 5102,
      "Ġretire": 5103,
      "Ġgrown": 5104,
      "ixture": 5105,
      "dra": 5106,
      "eries": 5107,
      "othe": 5108,
      "aneous": 5109,
      "Ġphotograph": 5110,
      "Ġmunic": 5111,
      "Ġgrade": 5112,
      "Ġholding": 5113,
      "Ġwine": 5114,
      "Ġcommission": 5115,
      "ĠCons": 5116,
      "Ġboys": 5117,
      "Ġorganis": 5118,
      "Ġemotion": 5119,
      "Ġcategory": 5120,
      "Ġalcohol": 5121,
      "Ġanx": 5122,
      "Ġempt": 5123,
      "ĠRes": 5124,
      "Ġremoval": 5125,
      "Ġdimensions": 5126,
      "Ġlam": 5127,
      "Ġflour": 5128,
      "Ġsigns": 5129,
      "Ġreader": 5130,
      "Ġepis": 5131,
      "Ġwebsite": 5132,
      "mitted": 5133,
      "Ġarranged": 5134,
      "Ġdanger": 5135,
      "Ġtables": 5136,
      "Ġstability": 5137,
      "Ġindirect": 5138,
      "Ġwhereas": 5139,
      "Ġdomain": 5140,
      "Ġcomfort": 5141,
      "Ġmodest": 5142,
      "Ġrefers": 5143,
      "Ġteams": 5144,
      "ĠAm": 5145,
      "Ġregister": 5146,
      "Ġdefect": 5147,
      "Ġtested": 5148,
      "Ġhur": 5149,
      "Ġexception": 5150,
      "Ġautonom": 5151,
      "Ġconfiguration": 5152,
      "uing": 5153,
      "Ġwife": 5154,
      "Ġscientists": 5155,
      "Ġvelocity": 5156,
      "Ġfunding": 5157,
      "Ġbiological": 5158,
      "Ġkinds": 5159,
      "Ġ1970": 5160,
      "Ġdiscipline": 5161,
      "Ġparticle": 5162,
      "Ġdepression": 5163,
      "Ġbasket": 5164,
      "Ġseemed": 5165,
      "Ġrevealed": 5166,
      "vest": 5167,
      "Ġelder": 5168,
      "Ġcompr": 5169,
      "Ġfacult": 5170,
      "ĠAlso": 5171,
      "Ġterminal": 5172,
      "Ġwet": 5173,
      "ffect": 5174,
      "Ġprotein": 5175,
      "ament": 5176,
      "uine": 5177,
      "ĠTra": 5178,
      "Ġalle": 5179,
      "scale": 5180,
      "ĠAr": 5181,
      "Ġcarrying": 5182,
      "Ġacknow": 5183,
      "ĠPl": 5184,
      "Ġdepos": 5185,
      "Ġnarrative": 5186,
      "Ġwidespread": 5187,
      "oe": 5188,
      "Ġmarriage": 5189,
      "Ġships": 5190,
      "ror": 5191,
      "Ġtoile": 5192,
      "Ġvision": 5193,
      "Ġjustice": 5194,
      "Ġpainted": 5195,
      "Ġtremend": 5196,
      "Ġtot": 5197,
      "Ġcommand": 5198,
      "vent": 5199,
      "onym": 5200,
      "esh": 5201,
      "oust": 5202,
      "verty": 5203,
      "Ġpoverty": 5204,
      "Ġnavig": 5205,
      "Ġwheat": 5206,
      "Ġdistress": 5207,
      "Ġorders": 5208,
      "Ġallowance": 5209,
      "Ġdepending": 5210,
      "Ġcontinues": 5211,
      "Ġgrounds": 5212,
      "bing": 5213,
      "Ġpace": 5214,
      "Ġoutcome": 5215,
      "Ġapproval": 5216,
      "path": 5217,
      "rans": 5218,
      "Ġnons": 5219,
      "iber": 5220,
      "Ġpositions": 5221,
      "Ġacceler": 5222,
      "Ġcheap": 5223,
      "Ġcriteria": 5224,
      "long": 5225,
      "rium": 5226,
      "Ġtowns": 5227,
      "Ġexecutive": 5228,
      "Ġclimate": 5229,
      "Ġhighway": 5230,
      "Ġflexible": 5231,
      "Ġswimming": 5232,
      "iven": 5233,
      "Ġacid": 5234,
      "Ġzero": 5235,
      "Ġenterpr": 5236,
      "acter": 5237,
      "Ġgreatly": 5238,
      "Ġvisitors": 5239,
      "Ġwants": 5240,
      "Ġconsequences": 5241,
      "Ġ193": 5242,
      "Ġconstituency": 5243,
      "imensional": 5244,
      "Ġcontrovers": 5245,
      "Ġargue": 5246,
      "Ġbillion": 5247,
      "Ġseparated": 5248,
      "Ġmagaz": 5249,
      "Ġvocab": 5250,
      "Ġmetaph": 5251,
      "Ġgrain": 5252,
      "Ġaudio": 5253,
      "Ġinstruments": 5254,
      "Ġplain": 5255,
      "Ġmovements": 5256,
      "spec": 5257,
      "omy": 5258,
      "Ġpartial": 5259,
      "Ġdiverse": 5260,
      "Ġlandl": 5261,
      "Ġvirtual": 5262,
      "Ġbeautiful": 5263,
      "Ġworker": 5264,
      "Ġparticipation": 5265,
      "Ġhusband": 5266,
      "Ġstring": 5267,
      "Ġimprovements": 5268,
      "top": 5269,
      "Ġpage": 5270,
      "Ġwhatever": 5271,
      "gage": 5272,
      "Ġadults": 5273,
      "Ġchannels": 5274,
      "13": 5275,
      "Ġpull": 5276,
      "see": 5277,
      "etal": 5278,
      "pts": 5279,
      "Ġreserve": 5280,
      "Ġhandle": 5281,
      "Ġcollective": 5282,
      "25": 5283,
      "Ġtrop": 5284,
      "Ġremember": 5285,
      "Ġfer": 5286,
      "Ġpresident": 5287,
      "Ġdynamics": 5288,
      "zing": 5289,
      "hedu": 5290,
      "estern": 5291,
      "Ġfert": 5292,
      "imately": 5293,
      "Ġgrad": 5294,
      "Ġcapable": 5295,
      "Ġexpectations": 5296,
      "Ġbarrier": 5297,
      "hedule": 5298,
      "Ġsight": 5299,
      "Ġlies": 5300,
      "Ġcontribute": 5301,
      "Ġassume": 5302,
      "Ġunderstood": 5303,
      "vas": 5304,
      "adequ": 5305,
      "Ġboy": 5306,
      "Ġentertain": 5307,
      "Ġcreation": 5308,
      "Ġfeelings": 5309,
      "aling": 5310,
      "Ġgenuine": 5311,
      "Ġmining": 5312,
      "Ġphrase": 5313,
      "Ġmood": 5314,
      "pected": 5315,
      "Ġ1990": 5316,
      "Ġintervention": 5317,
      "Ġofficials": 5318,
      "Ġoption": 5319,
      "Ġsitting": 5320,
      "Ġcos": 5321,
      "Ġnotion": 5322,
      "acent": 5323,
      "Ġhelped": 5324,
      "Ġsensitive": 5325,
      "Ġing": 5326,
      "Ġengage": 5327,
      "Ġargued": 5328,
      "Ġorganizations": 5329,
      "Ġcm": 5330,
      "Ġwra": 5331,
      "rosc": 5332,
      "Ġinjury": 5333,
      "Ġacquisition": 5334,
      "Ġplasma": 5335,
      "Ġrestricted": 5336,
      "15": 5337,
      "bl": 5338,
      "eenth": 5339,
      "Ġsend": 5340,
      "amm": 5341,
      "Ġpassage": 5342,
      "Ġprofile": 5343,
      "Ġpartners": 5344,
      "Ġmanif": 5345,
      "Ġputting": 5346,
      "Ġready": 5347,
      "Ġeasier": 5348,
      "Ġwider": 5349,
      "Ġaccompan": 5350,
      "roph": 5351,
      "Ġthread": 5352,
      "Ġwrite": 5353,
      "Ġfoundation": 5354,
      "Ġattractive": 5355,
      "Ġsymbol": 5356,
      "mosp": 5357,
      "Ġvaried": 5358,
      "Ġrecei": 5359,
      "Ġownership": 5360,
      "arters": 5361,
      "Ġwelcome": 5362,
      "orph": 5363,
      "Ġmail": 5364,
      "Ġdistort": 5365,
      "pat": 5366,
      "Ġschedule": 5367,
      "Ġkeeping": 5368,
      "care": 5369,
      "itarian": 5370,
      "Ġbreat": 5371,
      "Ġdual": 5372,
      "Ġexamination": 5373,
      "Ġequally": 5374,
      "inem": 5375,
      "Ġarc": 5376,
      "Ġracing": 5377,
      "Ġcharacteristic": 5378,
      "Ġhyper": 5379,
      "Ġcrow": 5380,
      "ester": 5381,
      "Ġorient": 5382,
      "Ġinstant": 5383,
      "Ġseek": 5384,
      "ĠSecondly": 5385,
      "omatic": 5386,
      "Ġinadequ": 5387,
      "wr": 5388,
      "encing": 5389,
      "Ġdoctor": 5390,
      "Ġfarming": 5391,
      "Ġsteam": 5392,
      "Ġtremendous": 5393,
      "Ġcoat": 5394,
      "Ġchallenge": 5395,
      "Ġimplications": 5396,
      "Ġnine": 5397,
      "Ġarrangement": 5398,
      "col": 5399,
      "Ġtur": 5400,
      "inter": 5401,
      "Ġcolumn": 5402,
      "Ġjourney": 5403,
      "Ġvictim": 5404,
      "Ġpin": 5405,
      "Ġhi": 5406,
      "Ġcloth": 5407,
      "Ġperceived": 5408,
      "Ġagriculture": 5409,
      "Ġdialogue": 5410,
      "Ġgirls": 5411,
      "Ġalgorithm": 5412,
      "Ġfif": 5413,
      "Ġatmosp": 5414,
      "ague": 5415,
      "Ġdrivers": 5416,
      "Ġconservation": 5417,
      "Ġdinner": 5418,
      "pers": 5419,
      "ĠRe": 5420,
      "Ġadministration": 5421,
      "Ġdistinctive": 5422,
      "Ġcomplicated": 5423,
      "hab": 5424,
      "Ġlived": 5425,
      "Ġextension": 5426,
      "Ġbeauty": 5427,
      "Ġeggs": 5428,
      "Ġsad": 5429,
      "Ġdied": 5430,
      "Ġlinks": 5431,
      "Ġspecifically": 5432,
      "60": 5433,
      "Ġunn": 5434,
      "Ġprogrammes": 5435,
      "Ġinterpre": 5436,
      "Ġemphasis": 5437,
      "Ġdemocracy": 5438,
      "Ġlaser": 5439,
      "ĠYet": 5440,
      "Ġconclusion": 5441,
      "Ġelabor": 5442,
      "Ġacceptable": 5443,
      "ĠStud": 5444,
      "Ġsynthes": 5445,
      "Ġelderly": 5446,
      "Ġregulation": 5447,
      "Ġacting": 5448,
      "Ġconceptual": 5449,
      "Ġnearby": 5450,
      "Ġcong": 5451,
      "Ġcomposed": 5452,
      "Ġintermedi": 5453,
      "Ġsimult": 5454,
      "Ġtemporal": 5455,
      "Ġarms": 5456,
      "Ġwireless": 5457,
      "Ġaw": 5458,
      "asure": 5459,
      "Ġstrategic": 5460,
      "Ġhospit": 5461,
      "Ġcouple": 5462,
      "Ġconscious": 5463,
      "Ġintellectual": 5464,
      "Ġturb": 5465,
      "Ġcultiv": 5466,
      "Ġsemi": 5467,
      "Ġvarying": 5468,
      "Ġempirical": 5469,
      "Ġlose": 5470,
      "ilib": 5471,
      "Ġsubstance": 5472,
      "Ġheads": 5473,
      "Ġmand": 5474,
      "Ġbear": 5475,
      "Ġrepair": 5476,
      "Ġcooking": 5477,
      "Ġdiscretion": 5478,
      "ula": 5479,
      "Ġexamine": 5480,
      "Ġevening": 5481,
      "Ġpassing": 5482,
      "Ġintroduce": 5483,
      "Ġton": 5484,
      "Ġbrick": 5485,
      "ounce": 5486,
      "Ġunex": 5487,
      "Ġoutc": 5488,
      "ĠFig": 5489,
      "ocy": 5490,
      "Ġequivalent": 5491,
      "Ġstored": 5492,
      "Ġnotes": 5493,
      "Ġresearchers": 5494,
      "Ġx": 5495,
      "Ġcities": 5496,
      "ĠTod": 5497,
      "apters": 5498,
      "Ġrepresentations": 5499,
      "Ġboundary": 5500,
      "Ġrecommend": 5501,
      "Ġbirds": 5502,
      "Ġkm": 5503,
      "Ġdefe": 5504,
      "Ġfill": 5505,
      "ĠIm": 5506,
      "Ġprove": 5507,
      "Ġprinted": 5508,
      "Ġunusual": 5509,
      "erior": 5510,
      "Ġdesired": 5511,
      "Ġdiscovered": 5512,
      "Ġreaders": 5513,
      "Ġinitiative": 5514,
      "norm": 5515,
      "rie": 5516,
      "Ġresid": 5517,
      "arity": 5518,
      "Ġsuc": 5519,
      "Ġacts": 5520,
      "Ġfinally": 5521,
      "Ġbegins": 5522,
      "Ġconsisting": 5523,
      "Ġviolence": 5524,
      "ĠAddition": 5525,
      "Ġexplanation": 5526,
      "ulous": 5527,
      "Ġinject": 5528,
      "idden": 5529,
      "Ġtrip": 5530,
      "Ġtitle": 5531,
      "Ġroles": 5532,
      "lude": 5533,
      "Ġmeasurement": 5534,
      "rum": 5535,
      "aker": 5536,
      "ĠSc": 5537,
      "Ġquad": 5538,
      "Ġtruck": 5539,
      "Ġimmun": 5540,
      "Ġdrugs": 5541,
      "Ġfest": 5542,
      "Ġdestroyed": 5543,
      "Ġmovie": 5544,
      "ĠToday": 5545,
      "Ġgate": 5546,
      "Ġdecline": 5547,
      "Ġemployers": 5548,
      "Ġcomputers": 5549,
      "Ġprogramming": 5550,
      "Ġflowers": 5551,
      "Ġattempts": 5552,
      "Ġrestaurants": 5553,
      "Ġholiday": 5554,
      "ster": 5555,
      "Ġneither": 5556,
      "Ġrising": 5557,
      "Ġsteady": 5558,
      "Ġmutual": 5559,
      "Ġtheatre": 5560,
      "Ġcards": 5561,
      "Ġpointed": 5562,
      "Ġclassical": 5563,
      "Ġlabel": 5564,
      "Ġasset": 5565,
      "Ġcarp": 5566,
      "Ġserves": 5567,
      "Ġartists": 5568,
      "Ġallocation": 5569,
      "ux": 5570,
      "Ġtack": 5571,
      "Ġtank": 5572,
      "Ġod": 5573,
      "Ġgenerate": 5574,
      "Ġholds": 5575,
      "Ġcamera": 5576,
      "Ġbure": 5577,
      "Ġharm": 5578,
      "Ġexceed": 5579,
      "Ġcoach": 5580,
      "Ġattach": 5581,
      "Ġpackage": 5582,
      "Ġassembly": 5583,
      "econom": 5584,
      "Ġfewer": 5585,
      "Ġvocal": 5586,
      "osystem": 5587,
      "icon": 5588,
      "Ġassumptions": 5589,
      "eration": 5590,
      "Ġshoes": 5591,
      "gery": 5592,
      "Ġrequirement": 5593,
      "Ġoptions": 5594,
      "ĠApp": 5595,
      "Ġjump": 5596,
      "Ġstands": 5597,
      "Ġpopulations": 5598,
      "Ġlogic": 5599,
      "Ġinterference": 5600,
      "Ġpit": 5601,
      "Ġquot": 5602,
      "Ġfrust": 5603,
      ".,": 5604,
      "ien": 5605,
      "Ġsymmet": 5606,
      "Ġpromote": 5607,
      "Ġpictures": 5608,
      "Ġdramatic": 5609,
      "Ġnewspaper": 5610,
      "Ġplot": 5611,
      "Ġunre": 5612,
      "Ġentered": 5613,
      "Ġsalt": 5614,
      "Ġcontributions": 5615,
      "Ġoutdoor": 5616,
      "Ġinquir": 5617,
      "making": 5618,
      "Ġcraft": 5619,
      "ading": 5620,
      "Ġtransp": 5621,
      "Ġissued": 5622,
      "Ġconsisted": 5623,
      "Ġheavily": 5624,
      "Ġancient": 5625,
      "Ġcrisis": 5626,
      "ĠThrough": 5627,
      "Ġsuggestion": 5628,
      "Ġsurfaces": 5629,
      "Ġbulk": 5630,
      "Ġmouth": 5631,
      "Ġarise": 5632,
      "Ġinstructions": 5633,
      "Ġresolution": 5634,
      "Ġhelps": 5635,
      "rat": 5636,
      "hips": 5637,
      "Ġpresents": 5638,
      "Ġinitially": 5639,
      "Ġwing": 5640,
      "Ġnoun": 5641,
      "Ġtrains": 5642,
      "Ġinformal": 5643,
      "ĠUnf": 5644,
      "Ġpercentage": 5645,
      "ped": 5646,
      "Ġagend": 5647,
      "Ġlifest": 5648,
      "Ġamendment": 5649,
      "rogen": 5650,
      "ulary": 5651,
      "Ġmanual": 5652,
      "itudes": 5653,
      "meric": 5654,
      "14": 5655,
      "Ġven": 5656,
      "unction": 5657,
      "Ġgoals": 5658,
      "Ġparlia": 5659,
      "Ġadjacent": 5660,
      "Ġdemonstrated": 5661,
      "Ġmargin": 5662,
      "Ġwed": 5663,
      "Ġeast": 5664,
      "ishment": 5665,
      "Ġfeatured": 5666,
      "using": 5667,
      "Ġelectoral": 5668,
      "Ġethical": 5669,
      "Ġneur": 5670,
      "Ġsalary": 5671,
      "Ġwest": 5672,
      "icks": 5673,
      "Ġinfection": 5674,
      "oons": 5675,
      "ifications": 5676,
      "Ġknows": 5677,
      "Ġdemocratic": 5678,
      "Ġath": 5679,
      "formation": 5680,
      "Ġfinish": 5681,
      "Ġmolecular": 5682,
      "Ġaward": 5683,
      "Ġenem": 5684,
      "Ġera": 5685,
      "Ġbureau": 5686,
      "organ": 5687,
      "Ġchapters": 5688,
      "Ġclassic": 5689,
      "Ġfoods": 5690,
      "Ġdeliber": 5691,
      "Ġdamaged": 5692,
      "Ġceiling": 5693,
      "Ġfault": 5694,
      "Ġsupplement": 5695,
      "Ġrepresentative": 5696,
      "Ġopposed": 5697,
      "Ġcollapse": 5698,
      "Ġobligation": 5699,
      "Ġsought": 5700,
      "Ġmixture": 5701,
      "Ġnort": 5702,
      "utory": 5703,
      "Ġcharges": 5704,
      "Ġlect": 5705,
      "Ġju": 5706,
      "ĠNote": 5707,
      "Ġturns": 5708,
      "Ġtang": 5709,
      "Ġvir": 5710,
      "Ġgross": 5711,
      "uled": 5712,
      "Ġincent": 5713,
      "Ġreturned": 5714,
      "Ġmanufacturers": 5715,
      "Ġcotton": 5716,
      "Ġstorm": 5717,
      "Ġvul": 5718,
      "Ġprominent": 5719,
      "Ġnone": 5720,
      "Ġblocks": 5721,
      "Ġlegs": 5722,
      "Ġillegal": 5723,
      "Ġpump": 5724,
      "orter": 5725,
      "ancies": 5726,
      "section": 5727,
      "pes": 5728,
      "Ġsau": 5729,
      "Ġreflected": 5730,
      "Ġdesigns": 5731,
      "Ġminimal": 5732,
      "Ġstatistical": 5733,
      "Ġbone": 5734,
      "istent": 5735,
      "Ġbutter": 5736,
      "Ġskill": 5737,
      "ĠUnfortunately": 5738,
      "uits": 5739,
      "Ġsed": 5740,
      "icular": 5741,
      "Ġneck": 5742,
      "orders": 5743,
      "Ġengaged": 5744,
      "aneously": 5745,
      "Ġprospect": 5746,
      "Ġwonder": 5747,
      "iet": 5748,
      "la": 5749,
      "Ġhunt": 5750,
      "Ġthres": 5751,
      "ouses": 5752,
      "Ġliterary": 5753,
      "Ġexpanded": 5754,
      "80": 5755,
      "Ġmother": 5756,
      "ĠTe": 5757,
      "Ġgam": 5758,
      "chron": 5759,
      "Ġbaseball": 5760,
      "Ġecosystem": 5761,
      "Ġmerch": 5762,
      "Ġarts": 5763,
      "Ġtracks": 5764,
      "Ġsupporting": 5765,
      "Ġhypothesis": 5766,
      "omb": 5767,
      "Ġintr": 5768,
      "asts": 5769,
      "luding": 5770,
      "Ġenth": 5771,
      "Ġconcepts": 5772,
      "ifies": 5773,
      "Ġrealistic": 5774,
      "Ġpotentially": 5775,
      "Ġdestruction": 5776,
      "Ġpilot": 5777,
      "tra": 5778,
      "Ġcable": 5779,
      "Ġacute": 5780,
      "Ġequations": 5781,
      "Ġprofits": 5782,
      "Ġdriven": 5783,
      "Ġfort": 5784,
      "Ġcomment": 5785,
      "Ġritual": 5786,
      "that": 5787,
      "Ġexposed": 5788,
      "Ġgradually": 5789,
      "Ġsupplies": 5790,
      "Ġcoc": 5791,
      "Ġneural": 5792,
      "Ġorganisations": 5793,
      "Ġsucceed": 5794,
      "cut": 5795,
      "case": 5796,
      "Ġcloud": 5797,
      "Ġenforce": 5798,
      "Ġraw": 5799,
      "Ġrarely": 5800,
      "mic": 5801,
      "nis": 5802,
      "actic": 5803,
      "Ġcovering": 5804,
      "Ġadvertise": 5805,
      "Ġrectang": 5806,
      "iological": 5807,
      "Ġcort": 5808,
      "lex": 5809,
      "Ġscope": 5810,
      "Ġremarkable": 5811,
      "Ġsoph": 5812,
      "Ġdesk": 5813,
      "Ġhealthy": 5814,
      "Ġregularly": 5815,
      "Ġpreferred": 5816,
      "lines": 5817,
      "Ġfro": 5818,
      "Ġlane": 5819,
      "Ġbell": 5820,
      "Ġshoulder": 5821,
      "Ġhumans": 5822,
      "brid": 5823,
      "Ġwitness": 5824,
      "Ġvocabulary": 5825,
      "Ġaest": 5826,
      "Ġunions": 5827,
      "Ġcreates": 5828,
      "Ġsensible": 5829,
      "Ġspirit": 5830,
      "Ġson": 5831,
      "ompl": 5832,
      "sts": 5833,
      "Ġexplo": 5834,
      "Ġflows": 5835,
      "Ġliberal": 5836,
      "Ġuniversal": 5837,
      "Ġspok": 5838,
      "Ġentit": 5839,
      "Ġimproving": 5840,
      "Ġreceiving": 5841,
      "Ġstarts": 5842,
      "Ġattacks": 5843,
      "Ġconsequence": 5844,
      "Ġabsolutely": 5845,
      "Ġtheories": 5846,
      "Ġmac": 5847,
      "Ġinstalled": 5848,
      "Ġsuffering": 5849,
      "Ġsave": 5850,
      "Ġequilib": 5851,
      "Ġcreative": 5852,
      "Ġorganized": 5853,
      "Ġneighbour": 5854,
      "Ġunlikely": 5855,
      "Ġthousands": 5856,
      "Ġahead": 5857,
      "Ġutter": 5858,
      "Ġblank": 5859,
      "Ġstruggle": 5860,
      "matic": 5861,
      "Ġspecified": 5862,
      "Ġequity": 5863,
      "Ġcele": 5864,
      "Ġperfectly": 5865,
      "Ġpurely": 5866,
      "omic": 5867,
      "ĠMe": 5868,
      "ologists": 5869,
      "ĠWithin": 5870,
      "Ġdispos": 5871,
      "Ġspiritual": 5872,
      "Ġwaves": 5873,
      "Ġdisorder": 5874,
      "aved": 5875,
      "Ġgene": 5876,
      "Ġmoves": 5877,
      "Ġdrinking": 5878,
      "Ġapartment": 5879,
      "inery": 5880,
      "Ġpound": 5881,
      "Ġperp": 5882,
      "Ġcorn": 5883,
      "Ġfinance": 5884,
      "Ġowned": 5885,
      "Ġgrid": 5886,
      "ĠCont": 5887,
      "ĠInt": 5888,
      "Ġelected": 5889,
      "Ġoccurrence": 5890,
      "Ġobservations": 5891,
      "Ġdistinguished": 5892,
      "Ġlie": 5893,
      "outs": 5894,
      "Ġswitch": 5895,
      "Ġdominant": 5896,
      "Ġfamous": 5897,
      "Ġpotato": 5898,
      "Ġreception": 5899,
      "Ġcompetitive": 5900,
      "Ġtie": 5901,
      "itivity": 5902,
      "ads": 5903,
      "ĠSub": 5904,
      "Ġunknown": 5905,
      "ĠGiven": 5906,
      "dimensional": 5907,
      "li": 5908,
      "zed": 5909,
      "Ġlanes": 5910,
      "elines": 5911,
      "Ġstudio": 5912,
      "Ġdefine": 5913,
      "Ġprotected": 5914,
      "Ġcontainer": 5915,
      "Ġapplies": 5916,
      "Ġphilosophical": 5917,
      "Ġdirected": 5918,
      "Ġsket": 5919,
      "Ġswit": 5920,
      "Ġsuddenly": 5921,
      "Ġtape": 5922,
      "Ġft": 5923,
      "Ġeating": 5924,
      "ĠAb": 5925,
      "Ġwilling": 5926,
      "Ġcentres": 5927,
      "onds": 5928,
      "Ġlosses": 5929,
      "Ġ80": 5930,
      "Ġsustained": 5931,
      "Ġunnecess": 5932,
      "ata": 5933,
      "Ġ1960": 5934,
      "Ġcriticism": 5935,
      "Ġinstances": 5936,
      "Ġsilver": 5937,
      "ĠAmeric": 5938,
      "Ġspin": 5939,
      "ailing": 5940,
      "Ġdeck": 5941,
      "ĠEng": 5942,
      "Ġcharged": 5943,
      "Ġcomplexity": 5944,
      "Ġpanels": 5945,
      "Ġarchitectural": 5946,
      "Ġtroops": 5947,
      "Ġintelligence": 5948,
      "Ġempty": 5949,
      "Ġthreshold": 5950,
      "ether": 5951,
      "Ġsimulation": 5952,
      "Ġautomatically": 5953,
      "Ġcompensation": 5954,
      "Ġrhy": 5955,
      "Ġdismiss": 5956,
      "issions": 5957,
      "Ġfiles": 5958,
      "Ġstatutory": 5959,
      "comm": 5960,
      "Ġsurgery": 5961,
      "Ġoperational": 5962,
      "isher": 5963,
      "Ġimpair": 5964,
      "ĠAre": 5965,
      "Ġrelax": 5966,
      "Ġanalog": 5967,
      "Ġmarried": 5968,
      "Ġsampling": 5969,
      "Ġretirement": 5970,
      "nger": 5971,
      "rible": 5972,
      "Ġassistant": 5973,
      "Ġrotation": 5974,
      "Ġawareness": 5975,
      "Ġfaculty": 5976,
      "Ġdelic": 5977,
      "Ġinformed": 5978,
      "ĠSe": 5979,
      "Ġdiscussions": 5980,
      "Ġclaimed": 5981,
      "Ġapparently": 5982,
      "Ġmedicine": 5983,
      "Ġpig": 5984,
      "agon": 5985,
      "Ġabsor": 5986,
      "Ġ90": 5987,
      "Ġtropical": 5988,
      "ris": 5989,
      "Ġren": 5990,
      "Ġrevers": 5991,
      "Ġlaugh": 5992,
      "eline": 5993,
      "Ġfinite": 5994,
      "Ġelectro": 5995,
      "Ġevolutionary": 5996,
      "Ġconverted": 5997,
      "Ġpock": 5998,
      "Ġvan": 5999,
      "ieving": 6000,
      "Ġemployer": 6001,
      "Ġtennis": 6002,
      "nk": 6003,
      "ĠQ": 6004,
      "Ġcaught": 6005,
      "Ġrecept": 6006,
      "Ġchick": 6007,
      "Ġcurren": 6008,
      "Ġfalls": 6009,
      "Ġwait": 6010,
      "with": 6011,
      "Ġslowly": 6012,
      "Ġdoll": 6013,
      "Ġprime": 6014,
      "Ġterrain": 6015,
      "Ġartist": 6016,
      "Ġviewed": 6017,
      "Ġfourth": 6018,
      "Ġdispute": 6019,
      "Ġmunicipal": 6020,
      "Ġcub": 6021,
      "aly": 6022,
      "Ġpartly": 6023,
      "aled": 6024,
      "Ġgri": 6025,
      "aded": 6026,
      "Ġyounger": 6027,
      "Ġtrig": 6028,
      "Ġapproved": 6029,
      "Ġmembr": 6030,
      "Ġqualified": 6031,
      "Ġobviously": 6032,
      "Ġoptimal": 6033,
      "40": 6034,
      "Ġongoing": 6035,
      "Ġdesire": 6036,
      "eping": 6037,
      "Ġjunior": 6038,
      "Ġmir": 6039,
      "Ġwithdra": 6040,
      "iest": 6041,
      "agn": 6042,
      "Ġclassroom": 6043,
      "Ġassociations": 6044,
      "Ġlegitimate": 6045,
      "Ġoak": 6046,
      "Ġcompact": 6047,
      "Ġcollabor": 6048,
      "Ġtied": 6049,
      "rous": 6050,
      "Ġleather": 6051,
      "Ġencl": 6052,
      "Ġgraphic": 6053,
      "Ġdedicated": 6054,
      "Ġpolar": 6055,
      "Ġpaths": 6056,
      "Ġrubber": 6057,
      "uild": 6058,
      "Ġheating": 6059,
      "Ġreliable": 6060,
      "Ġpenal": 6061,
      "Ġease": 6062,
      "Ġgained": 6063,
      "Ġskilled": 6064,
      "Ġcharacterized": 6065,
      "Ġfol": 6066,
      "Ġequipped": 6067,
      "Ġdistant": 6068,
      "ĠComm": 6069,
      "Ġorganisation": 6070,
      "ierarch": 6071,
      "Ġconstitutional": 6072,
      "Ġinterviews": 6073,
      "Ġvulner": 6074,
      "Ġthemes": 6075,
      "Ġmodified": 6076,
      "ĠComp": 6077,
      "Ġaccompanied": 6078,
      "Ġoutcomes": 6079,
      "200": 6080,
      "Ġshock": 6081,
      "Ġride": 6082,
      "Ġscores": 6083,
      "Ġextend": 6084,
      "Ġcitizen": 6085,
      "ygen": 6086,
      "ili": 6087,
      "sequently": 6088,
      "holders": 6089,
      "Ġconnections": 6090,
      "Ġrevenue": 6091,
      "Ġconcerning": 6092,
      "Ġinsect": 6093,
      "Ġsched": 6094,
      "Ġoverse": 6095,
      "Ġloan": 6096,
      "Ġbuying": 6097,
      "Ġdeliver": 6098,
      "life": 6099,
      "inating": 6100,
      "imal": 6101,
      "Ġunw": 6102,
      "rows": 6103,
      "Ġarchae": 6104,
      "Ġexplosion": 6105,
      "Ġfacing": 6106,
      "itorial": 6107,
      "Ġultimate": 6108,
      "Ġion": 6109,
      "Ġhardly": 6110,
      "Ġlearned": 6111,
      "erted": 6112,
      "itory": 6113,
      "ĠWor": 6114,
      "Ġserving": 6115,
      "Ġdiver": 6116,
      "Ġtexts": 6117,
      "Ġstyl": 6118,
      "Ġprecision": 6119,
      "Ġoccasionally": 6120,
      "Ġlexical": 6121,
      "Ġintermediate": 6122,
      "Ġfaster": 6123,
      "Ġloud": 6124,
      "Ġ192": 6125,
      "Ġdevelopments": 6126,
      "ĠDe": 6127,
      "Ġlicens": 6128,
      "Ġexplained": 6129,
      "Ġadding": 6130,
      "orical": 6131,
      "estri": 6132,
      "Ġdivision": 6133,
      "gn": 6134,
      "ipping": 6135,
      "inity": 6136,
      "Ġfix": 6137,
      "Ġ21": 6138,
      "Ġlights": 6139,
      "Ġcutting": 6140,
      "Ġrespectively": 6141,
      "Ġsurprising": 6142,
      "Ġhidden": 6143,
      "urse": 6144,
      "Ġarrest": 6145,
      "Ġproducers": 6146,
      "Ġpatent": 6147,
      "ulative": 6148,
      "Ġessentially": 6149,
      "Ġsemantic": 6150,
      "Ġroutine": 6151,
      "Ġhospitals": 6152,
      "Ġger": 6153,
      "ude": 6154,
      "Ġscar": 6155,
      "Ġrecognized": 6156,
      "ilateral": 6157,
      "atell": 6158,
      "Ġopposition": 6159,
      "Ġidentification": 6160,
      "Ġfalling": 6161,
      "view": 6162,
      "Ġhole": 6163,
      "Ġaccompl": 6164,
      "ĠUS": 6165,
      "Ġdiversity": 6166,
      "Ġtoilet": 6167,
      "oric": 6168,
      "Ġfitted": 6169,
      "ulpt": 6170,
      "Ġseeking": 6171,
      "uracy": 6172,
      "ĠAgain": 6173,
      "ĠSomet": 6174,
      "ĠThree": 6175,
      "Ġsteep": 6176,
      "Ġverbal": 6177,
      "Ġid": 6178,
      "Ġfly": 6179,
      "Ġoffering": 6180,
      "Ġdivor": 6181,
      "rons": 6182,
      "Ġdirector": 6183,
      "Ġdoesn": 6184,
      "Ġcuts": 6185,
      "Ġmissing": 6186,
      "mit": 6187,
      "oir": 6188,
      "Ġhang": 6189,
      "Ġpropri": 6190,
      "Ġcontexts": 6191,
      "Ġisolated": 6192,
      "Ġlifestyle": 6193,
      "oys": 6194,
      "Ġdecent": 6195,
      "Ġspecialist": 6196,
      "Ġspecialized": 6197,
      "Ġsoldiers": 6198,
      "ĠSpec": 6199,
      "chest": 6200,
      "Ġpill": 6201,
      "Ġbon": 6202,
      "Ġplates": 6203,
      "ogether": 6204,
      "Ġdoctors": 6205,
      "Ġfaced": 6206,
      "economic": 6207,
      "Ġmeal": 6208,
      "Ġhappening": 6209,
      "Ġlogical": 6210,
      "Ġmanagers": 6211,
      "70": 6212,
      "Ġrisks": 6213,
      "Ġreturns": 6214,
      "Ġbarriers": 6215,
      "Ġcontest": 6216,
      "Ġking": 6217,
      "Ġoperated": 6218,
      "cribed": 6219,
      "ĠFigure": 6220,
      "ĠInc": 6221,
      "Ġ2000": 6222,
      "Ġdealt": 6223,
      "Ġtrouble": 6224,
      "Ġlighting": 6225,
      "Ġutility": 6226,
      "Ġencouraged": 6227,
      "Ġinher": 6228,
      "ocial": 6229,
      "Ġdegrees": 6230,
      "usi": 6231,
      "Ġlawy": 6232,
      "Ġportra": 6233,
      "Ġvoting": 6234,
      "',": 6235,
      "pay": 6236,
      "Ġ[": 6237,
      "Ġtherapy": 6238,
      "Ġcylinder": 6239,
      "Ġwore": 6240,
      "Ġworse": 6241,
      "Ġloose": 6242,
      "Ġaccessible": 6243,
      "Ġeaten": 6244,
      "Ġcloser": 6245,
      "Ġregulatory": 6246,
      "Ġhierarch": 6247,
      "Ġregime": 6248,
      "Ġloop": 6249,
      "Ġartistic": 6250,
      "Ġsuccessfully": 6251,
      "Ġpermit": 6252,
      "Ġcreat": 6253,
      "Ġhence": 6254,
      "Ġdisag": 6255,
      "Ġrecall": 6256,
      "Ġqualitative": 6257,
      "Ġlaunch": 6258,
      "ĠBefore": 6259,
      "Ġlad": 6260,
      "Ġdischar": 6261,
      "Ġprelim": 6262,
      "Ġbuck": 6263,
      "Ġhappy": 6264,
      "Ġdiseases": 6265,
      "Ġexcessive": 6266,
      "lar": 6267,
      "Ġtranslation": 6268,
      "Ġobjectives": 6269,
      "Ġasking": 6270,
      "Ġharmon": 6271,
      "ĠUsing": 6272,
      "Ġnonsense": 6273,
      "Ġathlet": 6274,
      "field": 6275,
      "Ġhal": 6276,
      "Ġsculpt": 6277,
      "Ġpropag": 6278,
      "ĠRather": 6279,
      "Ġpupils": 6280,
      "Ġbureauc": 6281,
      "Ġhaz": 6282,
      "Ġchronic": 6283,
      "olve": 6284,
      "Ġattitude": 6285,
      "Ġpersu": 6286,
      "Ġdiscover": 6287,
      "Ġrequest": 6288,
      "Ġdescribes": 6289,
      "Ġsuffer": 6290,
      "isted": 6291,
      "Ġfloors": 6292,
      "Ġprohib": 6293,
      "Ġsegment": 6294,
      "Ġtechnological": 6295,
      "Ġfaces": 6296,
      "Ġvessels": 6297,
      "Ġbicycle": 6298,
      "Ġabandoned": 6299,
      "Ġmine": 6300,
      "rench": 6301,
      "Ġfinds": 6302,
      "Ġenvironments": 6303,
      "Ġduties": 6304,
      "wood": 6305,
      "asp": 6306,
      "Ġreput": 6307,
      "Ġadvis": 6308,
      "Ġenhance": 6309,
      "Ġtrib": 6310,
      "Ġrefere": 6311,
      "Ġavailability": 6312,
      "ĠAmong": 6313,
      "Ġdeals": 6314,
      "ĠSimilarly": 6315,
      "anch": 6316,
      "Ġstere": 6317,
      "Ġsex": 6318,
      "Ġrefused": 6319,
      "Ġsupposed": 6320,
      "Ġcabin": 6321,
      "Ġunnecessary": 6322,
      "Ġwestern": 6323,
      "key": 6324,
      "Ġherself": 6325,
      "Ġguard": 6326,
      "Ġsectors": 6327,
      "Ġzone": 6328,
      "Ġlatest": 6329,
      "Ġscholars": 6330,
      "Ġlux": 6331,
      "Ġdirections": 6332,
      "Ġbrother": 6333,
      "Ġannounced": 6334,
      "Ġprobability": 6335,
      "Ġecological": 6336,
      "Ġdecrease": 6337,
      "Ġmathematics": 6338,
      "Ġpollution": 6339,
      "100": 6340,
      "iety": 6341,
      "Ġdow": 6342,
      "Ġaccuracy": 6343,
      "Ġsheep": 6344,
      "Ġhouseholds": 6345,
      "Ġequilibrium": 6346,
      "reen": 6347,
      "Ġlod": 6348,
      "Ġintensive": 6349,
      "ignment": 6350,
      "Ġtwice": 6351,
      "Ġirre": 6352,
      "shaped": 6353,
      "Ġselective": 6354,
      "Ġcake": 6355,
      "Ġmeetings": 6356,
      "Ġimmense": 6357,
      "Ġacquired": 6358,
      "Ġsustainable": 6359,
      "free": 6360,
      "Ġsubt": 6361,
      "Ġhelpful": 6362,
      "Ġphysics": 6363,
      "Ġinfluenced": 6364,
      "Ġwages": 6365,
      "Ġdisrupt": 6366,
      "Ġtaxes": 6367,
      "Ġannounce": 6368,
      "Ġgeographical": 6369,
      "Ġrecommended": 6370,
      "18": 6371,
      "Ġâ": 6372,
      "isp": 6373,
      "Ġwheels": 6374,
      "Ġrose": 6375,
      "Ġrecognise": 6376,
      "Ġstars": 6377,
      "essions": 6378,
      "Ġconcert": 6379,
      "Ġengineer": 6380,
      "Ġinterface": 6381,
      "Ġvirtually": 6382,
      "zen": 6383,
      "Ġsizes": 6384,
      "Ġinhib": 6385,
      "acc": 6386,
      "ighter": 6387,
      "Ġabnorm": 6388,
      "Ġequation": 6389,
      "Ġpaying": 6390,
      "Ġinvolvement": 6391,
      "Ġnumerical": 6392,
      "night": 6393,
      "Ġtor": 6394,
      "Ġdisput": 6395,
      "Ġcontracts": 6396,
      "Ġnurses": 6397,
      "Ġregistered": 6398,
      "called": 6399,
      "iences": 6400,
      "Ġroyal": 6401,
      "ften": 6402,
      "Ġnaturally": 6403,
      "Ġdemonstrate": 6404,
      "Ġsurrounded": 6405,
      "Ġmonitoring": 6406,
      "een": 6407,
      "Ġov": 6408,
      "Ġdecades": 6409,
      "Ġrepresenting": 6410,
      "Ġdescript": 6411,
      "Ġprecisely": 6412,
      "Ġstopped": 6413,
      "Ġcolonial": 6414,
      "Ġlegislative": 6415,
      "bits": 6416,
      "kin": 6417,
      "Ġpitch": 6418,
      "Ġbike": 6419,
      "Ġbattle": 6420,
      "Ġphotographs": 6421,
      "ky": 6422,
      "ppers": 6423,
      "Ġchat": 6424,
      "Ġchrom": 6425,
      "rust": 6426,
      "Ġquiet": 6427,
      "Ġpharm": 6428,
      "Ġpassive": 6429,
      "Ġspeakers": 6430,
      "Ġgrammar": 6431,
      "Ġspons": 6432,
      "Ġdiffer": 6433,
      "Ġ1950": 6434,
      "Ġexperts": 6435,
      "Ġdipl": 6436,
      "Ġsolve": 6437,
      "Ġstyles": 6438,
      "Ġrailroad": 6439,
      "urely": 6440,
      "Ġdisk": 6441,
      "Ġevident": 6442,
      "ĠMuch": 6443,
      "Ġtenants": 6444,
      "Ġsophistic": 6445,
      "rition": 6446,
      "Ġoce": 6447,
      "Ġbinding": 6448,
      "Ġhors": 6449,
      "irty": 6450,
      "Ġsmoking": 6451,
      "Ġtenant": 6452,
      "Ġpromotion": 6453,
      "Ġaftern": 6454,
      "bles": 6455,
      "Ġshaped": 6456,
      "active": 6457,
      "Ġsystematic": 6458,
      "Ġfilter": 6459,
      "Ġimplemented": 6460,
      "iscal": 6461,
      "Ġoxygen": 6462,
      "Ġsplit": 6463,
      "Ġagenda": 6464,
      "Ġnamed": 6465,
      "Ġgang": 6466,
      "Ġexit": 6467,
      "Ġretrie": 6468,
      "Ġstriking": 6469,
      "Ġembry": 6470,
      "Ġcopies": 6471,
      "Ġsauce": 6472,
      "pass": 6473,
      "Ġtends": 6474,
      "Ġgent": 6475,
      "Ġintense": 6476,
      "Ġadmission": 6477,
      "Ġactors": 6478,
      "Ġ\".": 6479,
      "Ġmarks": 6480,
      "Ġoptical": 6481,
      "Ġenthusi": 6482,
      "Ġlocations": 6483,
      "Ġreferences": 6484,
      "Ġconsiderably": 6485,
      "Ġlateral": 6486,
      "Ġmachinery": 6487,
      "%.": 6488,
      "ulum": 6489,
      "ĠDue": 6490,
      "Ġsymbolic": 6491,
      "Ġpairs": 6492,
      "Ġupd": 6493,
      "Ġblind": 6494,
      "Ġworksh": 6495,
      "Ġmounted": 6496,
      "Ġthereby": 6497,
      "Ġmature": 6498,
      "Ġstatistics": 6499,
      "Ġlayers": 6500,
      "iatric": 6501,
      "Ġcow": 6502,
      "cts": 6503,
      "Ġairport": 6504,
      "Ġ70": 6505,
      "Ġexpressions": 6506,
      "lor": 6507,
      "Ġdie": 6508,
      "Ġcontam": 6509,
      "ieves": 6510,
      "Ġadvent": 6511,
      "Ġportion": 6512,
      "Ġlistening": 6513,
      "Ġmessages": 6514,
      "Ġbonds": 6515,
      "omple": 6516,
      "Ġdesirable": 6517,
      "Ġseriously": 6518,
      "Ġidentical": 6519,
      "ogene": 6520,
      "90": 6521,
      "inates": 6522,
      "Ġinfect": 6523,
      "Ġpossession": 6524,
      "Ġtrials": 6525,
      "Ġradical": 6526,
      "Ġquantitative": 6527,
      "Ġoccasions": 6528,
      "onents": 6529,
      "Ġexpenses": 6530,
      "Ġsmart": 6531,
      "Ġmemor": 6532,
      "Ġmeasurements": 6533,
      "Ġinteractive": 6534,
      "Ġspoken": 6535,
      "Ġoverseas": 6536,
      "state": 6537,
      "ĠCle": 6538,
      "Ġsurve": 6539,
      "Ġartery": 6540,
      "Ġsupports": 6541,
      "flow": 6542,
      "Ġpages": 6543,
      "Ġmaps": 6544,
      "Ġsurvival": 6545,
      "Ġinquiry": 6546,
      "Ġcurrency": 6547,
      "oves": 6548,
      "requ": 6549,
      "ograp": 6550,
      "Ġsheet": 6551,
      "arsh": 6552,
      "Ġtemperatures": 6553,
      "Ġhistoric": 6554,
      "Ġultimately": 6555,
      "Ġtons": 6556,
      "Ġtaught": 6557,
      "Ġpush": 6558,
      "Ġspr": 6559,
      "Ġadvantages": 6560,
      "igen": 6561,
      "Ġtwenty": 6562,
      "Ġboundaries": 6563,
      "acing": 6564,
      "ĠPh": 6565,
      "Ġguess": 6566,
      "Ġimaging": 6567,
      "Ġburden": 6568,
      "Ġtin": 6569,
      "Ġpartner": 6570,
      "Ġvisits": 6571,
      "Ġmuscle": 6572,
      "Ġsequences": 6573,
      "Ġinadequate": 6574,
      "Ġsatell": 6575,
      "Ġrend": 6576,
      "Ġgym": 6577,
      "Ġintensity": 6578,
      "Ġboards": 6579,
      "pleasant": 6580,
      "ĠUnlike": 6581,
      "Ġmagnitude": 6582,
      "Ġaimed": 6583,
      "Ġcooked": 6584,
      "Ġsick": 6585,
      "Ġcinem": 6586,
      "Ġcrash": 6587,
      "Ġwrit": 6588,
      "Ġmonthly": 6589,
      "Ġgranted": 6590,
      "effect": 6591,
      "Ġmild": 6592,
      "Ġaddressed": 6593,
      "Ġgrew": 6594,
      "Ġprivile": 6595,
      "ĠConsequently": 6596,
      "Ġgallery": 6597,
      "Ġpedestri": 6598,
      "Ġbreeding": 6599,
      "Ġafternoon": 6600,
      "itably": 6601,
      "Ġconcess": 6602,
      "Ġabund": 6603,
      "Ġreconst": 6604,
      "Ġstrange": 6605,
      "Ġjoin": 6606,
      "Ġrestrictions": 6607,
      "Ġmoderate": 6608,
      "rog": 6609,
      "Ġlau": 6610,
      "Ġexcluded": 6611,
      "Ġlaun": 6612,
      "Ġplatforms": 6613,
      "Ġsubsequently": 6614,
      "Ġrectangular": 6615,
      "Ġrhyth": 6616,
      "ologically": 6617,
      "ĠEu": 6618,
      "Ġqualities": 6619,
      "Ġsharing": 6620,
      "Ġgenerations": 6621,
      "Ġweekly": 6622,
      "Ġpriority": 6623,
      "Ġhonest": 6624,
      "Ġcryst": 6625,
      "Ġtact": 6626,
      "Ġduration": 6627,
      "Ġunpleasant": 6628,
      "Ġoverw": 6629,
      "Ġrelatives": 6630,
      "Ġended": 6631,
      "Ġobjection": 6632,
      "Ġreflects": 6633,
      "Ġpreparation": 6634,
      "bra": 6635,
      "roll": 6636,
      "aks": 6637,
      "Ġpla": 6638,
      "ĠWould": 6639,
      "Ġinfant": 6640,
      "Ġindicator": 6641,
      "Ġdogs": 6642,
      "otype": 6643,
      "Ġwool": 6644,
      "ionate": 6645,
      "Ġreaching": 6646,
      "Ġbeef": 6647,
      "Ġgovernments": 6648,
      "Ġseparately": 6649,
      "Ġparadig": 6650,
      "gers": 6651,
      "vis": 6652,
      "wed": 6653,
      "Ġbacter": 6654,
      "olf": 6655,
      "Ġparticiple": 6656,
      "Ġcurtain": 6657,
      "rope": 6658,
      "Ġrecruitment": 6659,
      "mall": 6660,
      "istry": 6661,
      "Ġourselves": 6662,
      "Ġenterprise": 6663,
      "Ġpor": 6664,
      "Ġhearing": 6665,
      "Ġchamp": 6666,
      "Ġcommod": 6667,
      "Ġdefault": 6668,
      "Ġyourself": 6669,
      "Ġdetermination": 6670,
      "Ġsavings": 6671,
      "Ġsomewhere": 6672,
      "Ġpregn": 6673,
      "Ġscenes": 6674,
      "Ġbranches": 6675,
      "Ġimplies": 6676,
      "Ġcandidates": 6677,
      "Ġrecreation": 6678,
      "Ġingred": 6679,
      "Ġatmosphere": 6680,
      "rote": 6681,
      "ctu": 6682,
      "well": 6683,
      "Ġgains": 6684,
      "Ġreflection": 6685,
      "eper": 6686,
      "Ġpresentation": 6687,
      "Ġjudicial": 6688,
      "cling": 6689,
      "opy": 6690,
      "thern": 6691,
      "Ġmyth": 6692,
      "Ġsuperior": 6693,
      "Ġdimin": 6694,
      "Ġestablishment": 6695,
      "Ġtransactions": 6696,
      "Ġstroke": 6697,
      "Ġward": 6698,
      "Ġorna": 6699,
      "Ġrhet": 6700,
      "Ġarithm": 6701,
      "Ġredund": 6702,
      "Ġguit": 6703,
      "Ġabsent": 6704,
      "Ġelaborate": 6705,
      "ups": 6706,
      "ino": 6707,
      "Ġdense": 6708,
      "Ġluck": 6709,
      "Ġinterd": 6710,
      "rene": 6711,
      "Ġinsight": 6712,
      "Ġquantities": 6713,
      "Ġbedroom": 6714,
      "Ġvegetables": 6715,
      "Ġaesthetic": 6716,
      "Ġthr": 6717,
      "Ġacoust": 6718,
      "Ġdifferential": 6719,
      "Ġcurved": 6720,
      "Ġenhanced": 6721,
      "gical": 6722,
      "Ġpractition": 6723,
      "Ġrigid": 6724,
      "hern": 6725,
      "Ġsyll": 6726,
      "Ġbox": 6727,
      "Ġterrible": 6728,
      "ĠNe": 6729,
      "Ġdrain": 6730,
      "aired": 6731,
      "rants": 6732,
      "Ġfee": 6733,
      "Ġpole": 6734,
      "Ġindicators": 6735,
      "Ġsatisfactory": 6736,
      "Ġborn": 6737,
      "Ġjacket": 6738,
      "Ġorchest": 6739,
      "Ġteeth": 6740,
      "ĠLater": 6741,
      "Ġfavor": 6742,
      "Ġconcentration": 6743,
      "ds": 6744,
      "Ġtip": 6745,
      "Ġcher": 6746,
      "Ġmerg": 6747,
      "Ġrely": 6748,
      "olar": 6749,
      "Ġprovisions": 6750,
      "Ġhandling": 6751,
      "Ġperforming": 6752,
      "Ġpathways": 6753,
      "ĠWithout": 6754,
      "Ġlibr": 6755,
      "Ġgradual": 6756,
      "Ġnotable": 6757,
      "Ġuncon": 6758,
      "Ġ190": 6759,
      "Ġdesigner": 6760,
      "Ġbreaking": 6761,
      "Ġdecorated": 6762,
      "zy": 6763,
      "Ġfan": 6764,
      "Ġcomments": 6765,
      "Ġturning": 6766,
      "Ġpredom": 6767,
      "Ġcattle": 6768,
      "Ġmeaningful": 6769,
      "Ġuniversities": 6770,
      "Ġpowder": 6771,
      "Ġvictory": 6772,
      "Ġreciproc": 6773,
      "asters": 6774,
      "Ġsocieties": 6775,
      "Ġattendance": 6776,
      "Ġcasual": 6777,
      "Ġgather": 6778,
      "ams": 6779,
      "Ġlob": 6780,
      "Ġserver": 6781,
      "Ġradiation": 6782,
      "Ġbalanced": 6783,
      "Ġtransferred": 6784,
      "Ġticket": 6785,
      "Ġguarantee": 6786,
      "Ġtoll": 6787,
      "Ġstocks": 6788,
      "Ġtopic": 6789,
      "Ġelevated": 6790,
      "Ġsynchron": 6791,
      "Ġtriangle": 6792,
      "Ġguidance": 6793,
      "?\"": 6794,
      "aft": 6795,
      "can": 6796,
      "Ġ35": 6797,
      "Ġdrinks": 6798,
      "Ġfriendly": 6799,
      "Ġrecon": 6800,
      "Ġmeasuring": 6801,
      "Ġcircles": 6802,
      "Ġbanking": 6803,
      "Ġmarginal": 6804,
      "Ġdropped": 6805,
      "Ġundertaken": 6806,
      "Ġdisagree": 6807,
      "olly": 6808,
      "Ġorange": 6809,
      "ailed": 6810,
      "Ġbeds": 6811,
      "Ġconfirm": 6812,
      "Ġinterpreted": 6813,
      "Ġblow": 6814,
      "teries": 6815,
      "umps": 6816,
      "Ġguest": 6817,
      "Ġgrey": 6818,
      "Ġinfluences": 6819,
      "Ġtendency": 6820,
      "Ġdistinguish": 6821,
      "produ": 6822,
      "Ġpy": 6823,
      "chool": 6824,
      "Ġlease": 6825,
      "Ġincident": 6826,
      "Ġgenes": 6827,
      "Ġassigned": 6828,
      "Ġworldwide": 6829,
      "regular": 6830,
      "Ġwaters": 6831,
      "Ġethnic": 6832,
      "Ġpaintings": 6833,
      "ilation": 6834,
      "Ġchest": 6835,
      "Ġrespondents": 6836,
      "Ġmagazine": 6837,
      "Ġdaugh": 6838,
      "Ġreverse": 6839,
      "Ġlin": 6840,
      "Ġhem": 6841,
      "Ġdetected": 6842,
      "Ġbusy": 6843,
      "Ġseeing": 6844,
      "Ġgirl": 6845,
      "Ġimpairment": 6846,
      "Ġvariations": 6847,
      "Ġdepict": 6848,
      "Ġeconomics": 6849,
      "Ġrepresentatives": 6850,
      "Ġanticip": 6851,
      "Ġceremon": 6852,
      "Ġsaving": 6853,
      "ese": 6854,
      "anted": 6855,
      "run": 6856,
      "Ġabroad": 6857,
      "Ġinvestors": 6858,
      "Ġpresum": 6859,
      "Ġsubjective": 6860,
      "Ġengineers": 6861,
      "Ġcleaning": 6862,
      "matical": 6863,
      "Ġnursing": 6864,
      "Ġtotally": 6865,
      "Ġsimultaneously": 6866,
      "Ġlunch": 6867,
      "advant": 6868,
      "ostic": 6869,
      "Ġrestoration": 6870,
      "Ġforests": 6871,
      "Ġuncertainty": 6872,
      "Ġunexpected": 6873,
      "ship": 6874,
      "olving": 6875,
      "Ġconce": 6876,
      "Ġrelates": 6877,
      "Ġdefend": 6878,
      "Ġreadily": 6879,
      "Ġpathway": 6880,
      "Ġbeliefs": 6881,
      "che": 6882,
      "war": 6883,
      "Ġbun": 6884,
      "Ġnurse": 6885,
      "ivered": 6886,
      "Ġsolar": 6887,
      "century": 6888,
      "Ġcontributed": 6889,
      "Ġsurely": 6890,
      "Ġfaith": 6891,
      "Ġborder": 6892,
      "Ġwashing": 6893,
      "adium": 6894,
      "Ġflower": 6895,
      "Ġdried": 6896,
      "Ġnegotiations": 6897,
      "Ġenemy": 6898,
      "och": 6899,
      "ashed": 6900,
      "Ġcoherent": 6901,
      "forced": 6902,
      "Ġsleeping": 6903,
      "Ġocean": 6904,
      "Ġbull": 6905,
      "Ġstack": 6906,
      "Ġelections": 6907,
      "Ġexplore": 6908,
      "Ġextraord": 6909,
      "Ġfighting": 6910,
      "Ġacknowled": 6911,
      "Ġrib": 6912,
      "Ġdict": 6913,
      "Ġminute": 6914,
      "ĠReg": 6915,
      "Ġbelt": 6916,
      "Ġtexture": 6917,
      "Ġassessed": 6918,
      "Ġentertainment": 6919,
      "fast": 6920,
      "Ġtail": 6921,
      "Ġly": 6922,
      "Ġdiet": 6923,
      "Ġbrings": 6924,
      "Ġfarms": 6925,
      "Ġrevised": 6926,
      "Ġrevolution": 6927,
      "Ġconsultation": 6928,
      "oly": 6929,
      "Ġcav": 6930,
      "Ġscat": 6931,
      "ĠBrit": 6932,
      "Ġinfinite": 6933,
      "Ġpine": 6934,
      "isons": 6935,
      "Ġpoison": 6936,
      "Ġpredicted": 6937,
      "Ġparameter": 6938,
      "Ġmolec": 6939,
      "ĠSometimes": 6940,
      "Ġnose": 6941,
      "Ġbadly": 6942,
      "Ġproportions": 6943,
      "Ġphenomenon": 6944,
      "power": 6945,
      "Ġforth": 6946,
      "Ġcontrary": 6947,
      "Ġimposed": 6948,
      "Ġdistances": 6949,
      "Ġknock": 6950,
      "Ġinfected": 6951,
      "Ġpossibilities": 6952,
      "Ġtariff": 6953,
      "Ġadopt": 6954,
      "Ġconstraint": 6955,
      "ĠAdditionally": 6956,
      "Ġtravelling": 6957,
      "Ġcivilian": 6958,
      "Ġelsewhere": 6959,
      "bow": 6960,
      "Ġsessions": 6961,
      "Ġflying": 6962,
      "omed": 6963,
      "Ġlists": 6964,
      "Ġconvey": 6965,
      "Ġforming": 6966,
      "Ġcomputing": 6967,
      "Ġconclusions": 6968,
      "Ġarrived": 6969,
      "Ġmanifest": 6970,
      "Ġtiny": 6971,
      "Ġble": 6972,
      "Ġdisorders": 6973,
      "Ġdisadvant": 6974,
      "Ġcoe": 6975,
      "Ġcurric": 6976,
      "Ġdelivered": 6977,
      "boards": 6978,
      "Ġaffects": 6979,
      "Ġreligion": 6980,
      "Ġleadership": 6981,
      "Ġanxiety": 6982,
      "Ġhorses": 6983,
      "urd": 6984,
      "Ġplus": 6985,
      "Ġdisabled": 6986,
      "Ġcoverage": 6987,
      "Ġterr": 6988,
      "ĠLocal": 6989,
      "Ġsky": 6990,
      "Ġbench": 6991,
      "Ġlik": 6992,
      "Ġstretch": 6993,
      "Ġmembrane": 6994,
      "tage": 6995,
      "Ġsor": 6996,
      "asc": 6997,
      "Ġstabil": 6998,
      "Ġmoist": 6999,
      "Ġtopics": 7000,
      "Ġanswers": 7001,
      "Ġemerged": 7002,
      "Ġversions": 7003,
      "Ġappointed": 7004,
      "Ġnewspapers": 7005,
      "Ġbasketball": 7006,
      "specific": 7007,
      "iating": 7008,
      "ĨĴ": 7009,
      "Ġbark": 7010,
      "Ġment": 7011,
      "ication": 7012,
      "opic": 7013,
      "Ġkids": 7014,
      "Ġcommitted": 7015,
      "Ġovert": 7016,
      "Ġcarri": 7017,
      "Ġproviders": 7018,
      "Ġstronger": 7019,
      "Ġfocuses": 7020,
      "Ġsentences": 7021,
      "Ġvacc": 7022,
      "Ġreservoir": 7023,
      "ĠâĨĴ": 7024,
      "rist": 7025,
      "ricts": 7026,
      "Ġbroke": 7027,
      "Ġembed": 7028,
      "Ġspeaker": 7029,
      "Ġpian": 7030,
      "Ġprosec": 7031,
      "opes": 7032,
      "Ġshapes": 7033,
      "rup": 7034,
      "ipher": 7035,
      "Ġrecover": 7036,
      "Ġconsiderations": 7037,
      "monary": 7038,
      "Ġsouthern": 7039,
      "Ġtargets": 7040,
      "Ġfeeding": 7041,
      "Ġinitiatives": 7042,
      "Ġexhibition": 7043,
      "Ġfitness": 7044,
      "Ġnorthern": 7045,
      "Ġoverwhel": 7046,
      "att": 7047,
      "Ġhill": 7048,
      "istically": 7049,
      "Ġrope": 7050,
      "Ġdisplayed": 7051,
      "ĠOb": 7052,
      "ĠOr": 7053,
      "ĠEm": 7054,
      "Ġretired": 7055,
      "Ġchicken": 7056,
      "ĠEurope": 7057,
      "Ġforg": 7058,
      "Ġdecade": 7059,
      "Ġadministr": 7060,
      "Ġinnovation": 7061,
      "Ġsophisticated": 7062,
      "Ġcomposite": 7063,
      "Ġusage": 7064,
      "Ġjur": 7065,
      "ĠNon": 7066,
      "Ġrequiring": 7067,
      "Ġmyself": 7068,
      "azing": 7069,
      "Ġcompounds": 7070,
      "Ġanch": 7071,
      "Ġfemin": 7072,
      "Ġviolent": 7073,
      "Ġfraud": 7074,
      "market": 7075,
      "riv": 7076,
      "ĠFour": 7077,
      "Ġboats": 7078,
      "Ġdiscount": 7079,
      "Ġfleet": 7080,
      "Ġsubstitute": 7081,
      "Ġchallenges": 7082,
      "Ġrom": 7083,
      "ushing": 7084,
      "ache": 7085,
      "ĠSurely": 7086,
      "Ġclient": 7087,
      "Ġbreast": 7088,
      "linear": 7089,
      "Ġcapture": 7090,
      "Ġpotatoes": 7091,
      "ogical": 7092,
      "Ġentering": 7093,
      "Ġtimber": 7094,
      "Ġfract": 7095,
      "asm": 7096,
      "Ġwears": 7097,
      "ĠThough": 7098,
      "Ġje": 7099,
      "Ġ22": 7100,
      "Ġhelping": 7101,
      "Ġreasoning": 7102,
      "Ġlisten": 7103,
      "Ġholes": 7104,
      "Ġbags": 7105,
      "iac": 7106,
      "Ġnice": 7107,
      "Ġheter": 7108,
      "conn": 7109,
      "Ġrespir": 7110,
      "aws": 7111,
      "Ġconform": 7112,
      "Ġcompuls": 7113,
      "Ġedges": 7114,
      "Ġclassified": 7115,
      "Ġ500": 7116,
      "Ġobser": 7117,
      "Ġhybrid": 7118,
      "Ġpermitted": 7119,
      "Ġpremises": 7120,
      "Ġreserves": 7121,
      "Ġconfirmed": 7122,
      "ait": 7123,
      "Ġpsychology": 7124,
      "Ġflights": 7125,
      "Ġpetrol": 7126,
      "Ġpoet": 7127,
      "Ġdebates": 7128,
      "Ġshallow": 7129,
      "Ġroughly": 7130,
      "graph": 7131,
      "Ġdistricts": 7132,
      "Ġ300": 7133,
      "Ġseparation": 7134,
      "Ġdetermining": 7135,
      "Ġinstitution": 7136,
      "Ġpreliminary": 7137,
      "word": 7138,
      "Ġaqu": 7139,
      "Ġinherent": 7140,
      "Ġgates": 7141,
      "Ġabilities": 7142,
      "Ġproductive": 7143,
      "Ġdecorative": 7144,
      "Ġsupplied": 7145,
      "Ġhundreds": 7146,
      "Ġwis": 7147,
      "ĠFollow": 7148,
      "Ġtaxation": 7149,
      "Ġtanks": 7150,
      "Ġsac": 7151,
      "Ġstatements": 7152,
      "ilingual": 7153,
      "Ġgolden": 7154,
      "16": 7155,
      "Ġol": 7156,
      "Ġpic": 7157,
      "Ġrating": 7158,
      "Ġincidence": 7159,
      "Ġparticipate": 7160,
      "Ġmaintaining": 7161,
      "Ġinnovative": 7162,
      "zes": 7163,
      "Ġaver": 7164,
      "Ġbinary": 7165,
      "Ġcontrad": 7166,
      "eches": 7167,
      "Ġdispers": 7168,
      "Ġmotorcy": 7169,
      "Ġreplacement": 7170,
      "Ġtox": 7171,
      "Ġstadium": 7172,
      "Ġshirt": 7173,
      "Ġquarters": 7174,
      "ildren": 7175,
      "ĠMod": 7176,
      "Ġtrim": 7177,
      "Ġcomputational": 7178,
      "Ġappreciation": 7179,
      "Ġtransaction": 7180,
      "Ġstimulus": 7181,
      "Ġtow": 7182,
      "Ġenables": 7183,
      "ĠOften": 7184,
      "Ġknew": 7185,
      "Ġcorruption": 7186,
      "Ġintegral": 7187,
      "Ġdestination": 7188,
      "Ġpoliticians": 7189,
      "Ġattributes": 7190,
      "ns": 7191,
      "Â·": 7192,
      "uting": 7193,
      "Ġlanding": 7194,
      "Ġreceives": 7195,
      "Ġchoices": 7196,
      "Ġinvestigated": 7197,
      "viously": 7198,
      "Ġbare": 7199,
      "occ": 7200,
      "Ġbringing": 7201,
      "Ġinjured": 7202,
      "Ġcertific": 7203,
      "ĠClearly": 7204,
      "Ġtel": 7205,
      "Ġgau": 7206,
      "ethe": 7207,
      "Ġtransf": 7208,
      "Ġlocally": 7209,
      "Ġeffectiveness": 7210,
      "Ġcountryside": 7211,
      "Ġideological": 7212,
      "Ġcrossing": 7213,
      "Ġcomparative": 7214,
      "Ġconstantly": 7215,
      "Ġaggressive": 7216,
      "Ġcomprehension": 7217,
      "Ġpreferences": 7218,
      "Ġcottage": 7219,
      "Ġtalent": 7220,
      "Ġarithmetic": 7221,
      "bted": 7222,
      "mble": 7223,
      "Ġdock": 7224,
      "iler": 7225,
      "Ġexem": 7226,
      "Ġvow": 7227,
      "Ġcontents": 7228,
      "Ġapple": 7229,
      "Ġinvent": 7230,
      "Ġvit": 7231,
      "Ġ23": 7232,
      "Ġcaf": 7233,
      "forward": 7234,
      "Ġintervals": 7235,
      "enn": 7236,
      "Ġmit": 7237,
      "irts": 7238,
      "Ġambig": 7239,
      "Ġfacilitate": 7240,
      "lish": 7241,
      "Ġgear": 7242,
      "pted": 7243,
      "Ġunst": 7244,
      "Ġlowest": 7245,
      "Ġprinting": 7246,
      "Ġjoined": 7247,
      "ĠQu": 7248,
      "iances": 7249,
      "Ġfisher": 7250,
      "Ġmission": 7251,
      "icity": 7252,
      "Ġnerv": 7253,
      "Ġvaries": 7254,
      "izations": 7255,
      "Ġflag": 7256,
      "Ġexports": 7257,
      "ĠMan": 7258,
      "inking": 7259,
      "Ġprofound": 7260,
      "Ġconstructive": 7261,
      "Ġscenari": 7262,
      "Ġcausal": 7263,
      "nat": 7264,
      "Ġwrote": 7265,
      "Ġpartially": 7266,
      "agger": 7267,
      "Ġengines": 7268,
      "ourable": 7269,
      "Ġmortality": 7270,
      "reprene": 7271,
      "nut": 7272,
      "Ġcomprom": 7273,
      "Ġpoles": 7274,
      "Ġordered": 7275,
      "Ġpasses": 7276,
      "Ġelementary": 7277,
      "Ġdates": 7278,
      "arr": 7279,
      "Ġwash": 7280,
      "Ġroutes": 7281,
      "teen": 7282,
      "Ġfunctioning": 7283,
      "Ġtunnel": 7284,
      "Ġprofessionals": 7285,
      "Ġarbitrary": 7286,
      "Ġalph": 7287,
      "Ġfeas": 7288,
      "Ġbuff": 7289,
      "Ġvector": 7290,
      "Ġencouraging": 7291,
      "Ġtourist": 7292,
      "Ġvolunte": 7293,
      "Ġinhab": 7294,
      "Ġcompression": 7295,
      "Ġtwin": 7296,
      "Ġattitudes": 7297,
      "Ġresemb": 7298,
      "Ġgran": 7299,
      "Ġparental": 7300,
      "Ġexercises": 7301,
      "Ġsees": 7302,
      "Ġsurpl": 7303,
      "Ġinsu": 7304,
      "Ġdiagnosis": 7305,
      "Ġfron": 7306,
      "Ġfilling": 7307,
      "sters": 7308,
      "Ġjudges": 7309,
      "ras": 7310,
      "Ġcler": 7311,
      "Ġimpressive": 7312,
      "Ġscales": 7313,
      "Ġpeer": 7314,
      "Ġremed": 7315,
      "Ġreduces": 7316,
      "Ġeveryday": 7317,
      "Ġcombine": 7318,
      "Ġtransportation": 7319,
      "Ġparliamentary": 7320,
      "Ġsatellite": 7321,
      "Ġintent": 7322,
      "Ġresc": 7323,
      "ĠInter": 7324,
      "Ġkil": 7325,
      "Ġgardens": 7326,
      "Ġsettings": 7327,
      "Ġcluster": 7328,
      "Ġentitled": 7329,
      "yn": 7330,
      "Ġnit": 7331,
      "Ġconj": 7332,
      "Ġloans": 7333,
      "Ġconfined": 7334,
      "Ġaven": 7335,
      "Ġviewpoint": 7336,
      "Ġcolleges": 7337,
      "Ġphoto": 7338,
      "Ġreforms": 7339,
      "Ġirregular": 7340,
      "Ġdecreased": 7341,
      "Ġphonological": 7342,
      "75": 7343,
      "Ġlosing": 7344,
      "Ġexterior": 7345,
      "Ġranging": 7346,
      "Ġuncle": 7347,
      "ĠPar": 7348,
      "Ġdefining": 7349,
      "Ġflexibility": 7350,
      "Ġpretty": 7351,
      "Ġgentle": 7352,
      "Ġsheets": 7353,
      "Ġconfidential": 7354,
      "Ġcorporation": 7355,
      "Ġgrammatical": 7356,
      "otherap": 7357,
      "gence": 7358,
      "typ": 7359,
      "Ġlimitations": 7360,
      "Ġwinning": 7361,
      "Ġemotions": 7362,
      "Ġarmy": 7363,
      "Ġfulf": 7364,
      "uity": 7365,
      "Ġoral": 7366,
      "Ġreson": 7367,
      "Ġfees": 7368,
      "Ġaffairs": 7369,
      "develop": 7370,
      "Ġplease": 7371,
      "Ġclubs": 7372,
      "Ġobstac": 7373,
      "Ġdiscrimination": 7374,
      "Ġintra": 7375,
      "Ġdiscussing": 7376,
      "Ġirrig": 7377,
      "Ġmicrosc": 7378,
      "Ġdescriptions": 7379,
      "Ġinputs": 7380,
      "Ġlicence": 7381,
      "Ġtolerance": 7382,
      "ĠStudents": 7383,
      "mas": 7384,
      "mod": 7385,
      "emic": 7386,
      "Ġdifferentiation": 7387,
      "Ġmonetary": 7388,
      "Ġexisted": 7389,
      "rine": 7390,
      "Ġmig": 7391,
      "Ġstake": 7392,
      "Ġnoble": 7393,
      "Ġtestim": 7394,
      "Ġmarine": 7395,
      "Ġcycl": 7396,
      "Ġguidelines": 7397,
      "ulator": 7398,
      "Ġasc": 7399,
      "Ġshaft": 7400,
      "Ġadverse": 7401,
      "Ġmillions": 7402,
      "box": 7403,
      "Ġopinions": 7404,
      "Ġinstrumental": 7405,
      "Ġneutral": 7406,
      "Ġic": 7407,
      "stairs": 7408,
      "Ġonset": 7409,
      "Ġclients": 7410,
      "Ġentreprene": 7411,
      "etermin": 7412,
      "Ġemerging": 7413,
      "Ġpreference": 7414,
      "Ġconversion": 7415,
      "Ġstaircase": 7416,
      "away": 7417,
      "Ġports": 7418,
      "Ġreward": 7419,
      "Ġvib": 7420,
      "alling": 7421,
      "Ġworst": 7422,
      "Ġindoor": 7423,
      "Ġpreval": 7424,
      "Ġpunishment": 7425,
      "Ġlaund": 7426,
      "Ġneare": 7427,
      "Ġspan": 7428,
      "Ġrelate": 7429,
      "Ġaccord": 7430,
      "Ġ45": 7431,
      "Ġconstituents": 7432,
      "Ġcensus": 7433,
      "Ġepid": 7434,
      "imed": 7435,
      "Ġsensitivity": 7436,
      "onymous": 7437,
      "ah": 7438,
      "coming": 7439,
      "Ġwal": 7440,
      "Ġnest": 7441,
      "Ġorth": 7442,
      "Ġobsc": 7443,
      "Ġwarning": 7444,
      "Ġaims": 7445,
      "Ġconvenient": 7446,
      "Ġepisode": 7447,
      "Ġtomat": 7448,
      "Ġhind": 7449,
      "istence": 7450,
      "Ġboom": 7451,
      "Ġminister": 7452,
      "Ġsuggesting": 7453,
      "Ġatomic": 7454,
      "Ġroot": 7455,
      "Ġarmed": 7456,
      "Ġcarries": 7457,
      "Ġsheer": 7458,
      "Ġrespective": 7459,
      "Ġconstitute": 7460,
      "Ġgeometric": 7461,
      "Ġthermal": 7462,
      "Ġenforcement": 7463,
      "bor": 7464,
      "Ġstood": 7465,
      "Ġtraject": 7466,
      "Ġcombat": 7467,
      "Ġsubstantially": 7468,
      "Ġcoastal": 7469,
      "Ġwisdom": 7470,
      "eut": 7471,
      "uct": 7472,
      "alities": 7473,
      "acular": 7474,
      "ĠPol": 7475,
      "Ġmetres": 7476,
      "Ġlasting": 7477,
      "Ġsensory": 7478,
      "Ġlisted": 7479,
      "Ġinvestigate": 7480,
      "Ġsoul": 7481,
      "Ġcandidate": 7482,
      "ĠEnglish": 7483,
      "Ġdownt": 7484,
      "Ġdiction": 7485,
      "Ġyard": 7486,
      "Ġoperates": 7487,
      "Ġverbs": 7488,
      "Ġarrive": 7489,
      "Ġspeeches": 7490,
      "Ġcampus": 7491,
      "Ġinevitably": 7492,
      "ĠFollowing": 7493,
      "icious": 7494,
      "Ġtooth": 7495,
      "Ġanger": 7496,
      "Ġnewly": 7497,
      "Ġfactories": 7498,
      "Ġfruits": 7499,
      "Ġbattery": 7500,
      "hyd": 7501,
      "Ġtone": 7502,
      "Ġshed": 7503,
      "stone": 7504,
      "ocation": 7505,
      "elve": 7506,
      "ĠUp": 7507,
      "Ġforecast": 7508,
      "Ġrecognised": 7509,
      "Ġimagination": 7510,
      "Ġunfair": 7511,
      "Ġcontroversial": 7512,
      "Ġvulnerable": 7513,
      "Ġlibraries": 7514,
      "Ġfans": 7515,
      "Ġanth": 7516,
      "illa": 7517,
      "Ġspoke": 7518,
      "Ġprofiles": 7519,
      "Ġgrows": 7520,
      "Ġsinging": 7521,
      "Ġcompliance": 7522,
      "Ġimplicit": 7523,
      "Ġluxury": 7524,
      "Ġguitar": 7525,
      "Ġdorm": 7526,
      "Ġalumin": 7527,
      "Ġski": 7528,
      "Ġcabinet": 7529,
      "Ġsynthesis": 7530,
      "Ġi": 7531,
      "Ġslic": 7532,
      "Ġgolf": 7533,
      "Ġstatic": 7534,
      "Ġstairs": 7535,
      "Ġbutton": 7536,
      "Ġspecim": 7537,
      "Ġprotest": 7538,
      "Ġtruly": 7539,
      "Ġstrand": 7540,
      "which": 7541,
      "Ġreputation": 7542,
      "lined": 7543,
      "Ġcum": 7544,
      "Ġdressed": 7545,
      "Ġsmell": 7546,
      "Ġsurgical": 7547,
      "Ġclassrooms": 7548,
      "Ġshortly": 7549,
      "Ġaccounting": 7550,
      "Ġresponsibilities": 7551,
      "Ġintegr": 7552,
      "Ġseasonal": 7553,
      "Ġhomeless": 7554,
      "Ġcurriculum": 7555,
      "then": 7556,
      "Ġdirt": 7557,
      "stage": 7558,
      "ifts": 7559,
      "Ġdesert": 7560,
      "Ġcurves": 7561,
      "Ġpublication": 7562,
      "Ġhardware": 7563,
      "Ġtransformed": 7564,
      "Ġvotes": 7565,
      "whe": 7566,
      "agues": 7567,
      "Ġsubsc": 7568,
      "Ġperformances": 7569,
      "Ġvolumes": 7570,
      "Ġprogressive": 7571,
      "Ġsemant": 7572,
      "Ġaccommodate": 7573,
      "Ġdisappear": 7574,
      "Ġphenomena": 7575,
      "houses": 7576,
      "oa": 7577,
      "Ġthumb": 7578,
      "Ġeu": 7579,
      "Ġflats": 7580,
      "Ġtranscri": 7581,
      "Ġtreatments": 7582,
      "Ġcalculations": 7583,
      "Ġattracted": 7584,
      "Ġsettlement": 7585,
      "Ġattachment": 7586,
      "uilding": 7587,
      "story": 7588,
      "eli": 7589,
      "Ġseconds": 7590,
      "Ġposterior": 7591,
      "bound": 7592,
      "dy": 7593,
      "Ġoutstanding": 7594,
      "Ġscan": 7595,
      "Ġregret": 7596,
      "Ġsmoke": 7597,
      "Ġliber": 7598,
      "Ġindependence": 7599,
      "Ġsilk": 7600,
      "Ġgeometry": 7601,
      "made": 7602,
      "Ġbeer": 7603,
      "olesc": 7604,
      "Ġdeploy": 7605,
      "Ġshorter": 7606,
      "Ġperipher": 7607,
      "Ġraising": 7608,
      "Ġofficially": 7609,
      "Ġearned": 7610,
      "Ġframes": 7611,
      "ourage": 7612,
      "Ġimagine": 7613,
      "Ġgesture": 7614,
      "Ġvictims": 7615,
      "ek": 7616,
      "how": 7617,
      "Ġtum": 7618,
      "Ġinverse": 7619,
      "Ġapplying": 7620,
      "Ġkick": 7621,
      "Ġovercome": 7622,
      "Ġcarriage": 7623,
      "Ġinspir": 7624,
      "Ġ2010": 7625,
      "Ġoccasional": 7626,
      "Ġwings": 7627,
      "Ġwhist": 7628,
      "Ġsoy": 7629,
      "Ġharvest": 7630,
      "Ġretained": 7631,
      "tles": 7632,
      "Ġbub": 7633,
      "Ġaltered": 7634,
      "eren": 7635,
      "Ġmeals": 7636,
      "Ġpropose": 7637,
      "Ġcompeting": 7638,
      "Ġparks": 7639,
      "Ġreviews": 7640,
      "izer": 7641,
      "Ġrecovered": 7642,
      "Ġrounded": 7643,
      "Ġrobust": 7644,
      "ĠJust": 7645,
      "Ġsufficiently": 7646,
      "Ġincorporated": 7647,
      "Ġneuro": 7648,
      "Ġaro": 7649,
      "Ġbay": 7650,
      "ivest": 7651,
      "Ġoverl": 7652,
      "Ġattended": 7653,
      "ĠEn": 7654,
      "Ġdeaths": 7655,
      "Ġdelayed": 7656,
      "Ġoccupied": 7657,
      "ĠExam": 7658,
      "Ġexpertise": 7659,
      "ira": 7660,
      "Ġcord": 7661,
      "Ġninet": 7662,
      "ulus": 7663,
      "aming": 7664,
      "oded": 7665,
      "Ġrecur": 7666,
      "Ġchildhood": 7667,
      "Ġmatching": 7668,
      "Ġdrum": 7669,
      "Ġstrip": 7670,
      "Ġmortgage": 7671,
      "Ġarena": 7672,
      "Ġcompletion": 7673,
      "Ġindication": 7674,
      "Ġachieving": 7675,
      "oids": 7676,
      "Ġ2007": 7677,
      "Ġcomfortable": 7678,
      "etheless": 7679,
      "Ġcock": 7680,
      "Ġleis": 7681,
      "ĠPre": 7682,
      "ĠGener": 7683,
      "Ġremoving": 7684,
      "prof": 7685,
      "Ġsurvive": 7686,
      "Ġnutrition": 7687,
      "Ġembedded": 7688,
      "hent": 7689,
      "Ġinex": 7690,
      "Ġmouse": 7691,
      "Ġsurge": 7692,
      "Ġvariance": 7693,
      "Ġdesigners": 7694,
      "Ġdelight": 7695,
      "Ġgrants": 7696,
      "Ġreporting": 7697,
      "Ġbargain": 7698,
      "Ġmaternal": 7699,
      "Ġexpectation": 7700,
      "Ġvillages": 7701,
      "Ġproteins": 7702,
      "Ġadvocate": 7703,
      "Ġtended": 7704,
      "Ġerect": 7705,
      "Ġcompare": 7706,
      "oks": 7707,
      "ludes": 7708,
      "Ġcream": 7709,
      "Ġdepartments": 7710,
      "Ġspectrum": 7711,
      "Ġgarage": 7712,
      "Ġpredominant": 7713,
      "bered": 7714,
      "Ġdil": 7715,
      "asion": 7716,
      "Ġwholes": 7717,
      "Ġheated": 7718,
      "Ġmainstream": 7719,
      "Ġtrunk": 7720,
      "Ġbowl": 7721,
      "Ġdefeat": 7722,
      "Ġdivorce": 7723,
      "omplete": 7724,
      "west": 7725,
      "hered": 7726,
      "Ġech": 7727,
      "ĠTyp": 7728,
      "olid": 7729,
      "Ġaccidents": 7730,
      "ĠCertain": 7731,
      "Ġlarv": 7732,
      "Ġcouncils": 7733,
      "Ġintelligent": 7734,
      "Ġsatisfied": 7735,
      "Ġcontrolling": 7736,
      "17": 7737,
      "aid": 7738,
      "Ġdrought": 7739,
      "Ġlung": 7740,
      "Ġrepet": 7741,
      "Ġversus": 7742,
      "Ġprisoners": 7743,
      "gl": 7744,
      "Ġabol": 7745,
      "Ġinvari": 7746,
      "Ġcharity": 7747,
      "Ġreasonably": 7748,
      "Ġrecognize": 7749,
      "Ġadmitted": 7750,
      "Ġcrack": 7751,
      "Ġpronoun": 7752,
      "ivestock": 7753,
      "Ġriding": 7754,
      "Ġchains": 7755,
      "asses": 7756,
      "Ġindef": 7757,
      "Ġgenerous": 7758,
      "ependent": 7759,
      "Ġnamely": 7760,
      "Ġjobs": 7761,
      "Ġcommunications": 7762,
      "Ġderiv": 7763,
      "Ġconservative": 7764,
      "Ġbands": 7765,
      "Ġbilingual": 7766,
      "ione": 7767,
      "Ġdump": 7768,
      "Ġster": 7769,
      "usively": 7770,
      "Ġages": 7771,
      "Ġbasin": 7772,
      "ĠUK": 7773,
      "Ġelig": 7774,
      "Ġwidth": 7775,
      "Ġminority": 7776,
      "Ġdisappoint": 7777,
      "Ġconvenience": 7778,
      "Ġcrowd": 7779,
      "rolled": 7780,
      "ashes": 7781,
      "Ġdiscrete": 7782,
      "Ġslide": 7783,
      "shore": 7784,
      "Ġfatig": 7785,
      "Ġastron": 7786,
      "Ġlecture": 7787,
      "Ġsin": 7788,
      "omin": 7789,
      "Ġassert": 7790,
      "ĠPat": 7791,
      "Ġbuses": 7792,
      "Ġspecialists": 7793,
      "Ġfallen": 7794,
      "Ġlegitim": 7795,
      "Ġnavigation": 7796,
      "uling": 7797,
      "Ġration": 7798,
      "Ġclar": 7799,
      "Ġregression": 7800,
      "Ġanalysed": 7801,
      "Ġpulled": 7802,
      "Ġdiagnostic": 7803,
      "Ġorientation": 7804,
      "ĠHigh": 7805,
      "ricular": 7806,
      "Ġaccused": 7807,
      "Ġ2008": 7808,
      "Ġtraditionally": 7809,
      "Ġdiagram": 7810,
      "ran": 7811,
      "step": 7812,
      "uman": 7813,
      "Ġcha": 7814,
      "ĠThird": 7815,
      "Ġanywhere": 7816,
      "Ġpersonality": 7817,
      "Ġkeen": 7818,
      "Ġclassification": 7819,
      "Ġfarmer": 7820,
      "Ġpulmonary": 7821,
      "Ġsymbols": 7822,
      "Ġdialect": 7823,
      "Ġdescriptive": 7824,
      "ey": 7825,
      "nas": 7826,
      "Ġnode": 7827,
      "Ġ28": 7828,
      "Ġterra": 7829,
      "ĠGo": 7830,
      "Ġscreening": 7831,
      "Ġdisplays": 7832,
      "Ġextraordinary": 7833,
      "Ġdishes": 7834,
      "Ġmineral": 7835,
      "Ġdefinitions": 7836,
      "Ġfemales": 7837,
      "Ġaggregate": 7838,
      "ĠAmerican": 7839,
      "Ġosc": 7840,
      "Ġmesh": 7841,
      "Ġnations": 7842,
      "Ġdisruption": 7843,
      "Ġmodes": 7844,
      "Ġ1930": 7845,
      "Ġputs": 7846,
      "Ġdrives": 7847,
      "Ġbiology": 7848,
      "Ġ2006": 7849,
      "Ġpleasure": 7850,
      "Ġsympath": 7851,
      "Ġautonomy": 7852,
      "ĠBl": 7853,
      "Ġvarieties": 7854,
      "Ġcycles": 7855,
      "Ġadaptation": 7856,
      "Ġmales": 7857,
      "Ġstops": 7858,
      "amic": 7859,
      "Ġboots": 7860,
      "Ġstudying": 7861,
      "Ġguests": 7862,
      "itudinal": 7863,
      "Ġurgent": 7864,
      "Ġcritics": 7865,
      "iscipl": 7866,
      "Ġillustration": 7867,
      "Ġexhibit": 7868,
      "Ġburning": 7869,
      "Ġnic": 7870,
      "ĠHaving": 7871,
      "oster": 7872,
      "Ġpermission": 7873,
      "Ġinvis": 7874,
      "Ġlift": 7875,
      "ĠRep": 7876,
      "while": 7877,
      "Ġcorrectly": 7878,
      "Ġpurchased": 7879,
      "Ġrigorous": 7880,
      "atis": 7881,
      "oubted": 7882,
      "Ġresidence": 7883,
      "Ġconsent": 7884,
      "Ġdecimal": 7885,
      "Ġgenerator": 7886,
      "Ġcentr": 7887,
      "Ġslope": 7888,
      "Ġhosts": 7889,
      "Ġvoters": 7890,
      "Ġtiming": 7891,
      "oning": 7892,
      "Ġdies": 7893,
      "Ġreaches": 7894,
      "Ġlands": 7895,
      "Ġcellular": 7896,
      "Ġmanufactured": 7897,
      "plicity": 7898,
      "Ġprag": 7899,
      "Ġpiano": 7900,
      "Ġsurplus": 7901,
      "orient": 7902,
      "Ġfiscal": 7903,
      "Ġdys": 7904,
      "Ġgrave": 7905,
      "Ġfacial": 7906,
      "Ġlesser": 7907,
      "Ġdimensional": 7908,
      "ĠVari": 7909,
      "Ġinjuries": 7910,
      "Ġconcentrated": 7911,
      "Ġpremium": 7912,
      "Ġcited": 7913,
      "arn": 7914,
      "amb": 7915,
      "Ġclosing": 7916,
      "Ġarray": 7917,
      "Ġaged": 7918,
      "Ġserial": 7919,
      "Ġcertainty": 7920,
      "Ġsituated": 7921,
      "Ġnominal": 7922,
      "eutic": 7923,
      "Ġoscill": 7924,
      "pired": 7925,
      "Ġties": 7926,
      "Ġpensions": 7927,
      "Ġlivestock": 7928,
      "oding": 7929,
      "ĠCo": 7930,
      "Ġcounts": 7931,
      "Ġviewing": 7932,
      "Ġdocumentary": 7933,
      "Ġmirror": 7934,
      "fect": 7935,
      "iology": 7936,
      "esides": 7937,
      "Ġloun": 7938,
      "Ġprolong": 7939,
      "Ġyards": 7940,
      "Ġimbal": 7941,
      "Ġconsensus": 7942,
      "Ġemail": 7943,
      "ĠLar": 7944,
      "Ġhabitat": 7945,
      "Ġnutri": 7946,
      "mor": 7947,
      "tically": 7948,
      "weight": 7949,
      "Ġimported": 7950,
      "Ġinvestigations": 7951,
      "Ġrailways": 7952,
      "Ġyields": 7953,
      "Ġenjoyed": 7954,
      "Ġfo": 7955,
      "alls": 7956,
      "Ġreli": 7957,
      "ĠCurrent": 7958,
      "Ġfoundations": 7959,
      "Ġstraw": 7960,
      "Ġquantum": 7961,
      "Ġcommunicate": 7962,
      "osph": 7963,
      "Ġshipping": 7964,
      "orted": 7965,
      "Ġmatches": 7966,
      "Ġalternatives": 7967,
      "Ġcomparable": 7968,
      "Ġstreams": 7969,
      "offs": 7970,
      "Ġingredients": 7971,
      "ymmet": 7972,
      "Ġsending": 7973,
      "agers": 7974,
      "Ġinfants": 7975,
      "Ġplacement": 7976,
      "Ġmanaging": 7977,
      "Ġanalytical": 7978,
      "Ġstraightforward": 7979,
      "Ġmixing": 7980,
      "Ġfertil": 7981,
      "Ġpocket": 7982,
      "arse": 7983,
      "Ġgift": 7984,
      "Ġrab": 7985,
      "Ġleader": 7986,
      "Ġshortage": 7987,
      "Ġcompete": 7988,
      "Ġneighbor": 7989,
      "Ġcomplaints": 7990,
      "Ġperpet": 7991,
      "Ġrenov": 7992,
      "ilst": 7993,
      "enders": 7994,
      "Ġteach": 7995,
      "Ġrecy": 7996,
      "Ġambit": 7997,
      "Ġloyal": 7998,
      "Ġmeters": 7999,
      "Ġimports": 8000,
      "Ġjustified": 8001,
      "ropri": 8002,
      "Ġdevoted": 8003,
      "Ġbreakfast": 8004,
      "Ġfraction": 8005,
      "Ġfingers": 8006,
      "oo": 8007,
      "Ġcodes": 8008,
      "Ġbeans": 8009,
      "Ġforget": 8010,
      "Ġ26": 8011,
      "Ġreductions": 8012,
      "Ġindependently": 8013,
      "Ġsyntactic": 8014,
      "Ġsaved": 8015,
      "Ġbreath": 8016,
      "Ġoverwhelming": 8017,
      "lings": 8018,
      "Ġchairs": 8019,
      "Ġevolved": 8020,
      "Ġformula": 8021,
      "Ġsuspect": 8022,
      "alys": 8023,
      "role": 8024,
      "acco": 8025,
      "Ġperspect": 8026,
      "Ġcenturies": 8027,
      "Ġnecessity": 8028,
      "Ġbrack": 8029,
      "Ġrivers": 8030,
      "Ġprepare": 8031,
      "Ġprotective": 8032,
      "Ġrolling": 8033,
      "Ġhydro": 8034,
      "Ġreceipts": 8035,
      "Ġindefinite": 8036,
      "%)": 8037,
      "ana": 8038,
      "Ġjet": 8039,
      "Ġinvestments": 8040,
      "Ġaffecting": 8041,
      "Ġexceptional": 8042,
      "Ġstruck": 8043,
      "Ġnaval": 8044,
      "Ġtob": 8045,
      "Ġhoc": 8046,
      "Ġemer": 8047,
      "Ġauthent": 8048,
      "Ġmini": 8049,
      "Ġclauses": 8050,
      "Ġappliances": 8051,
      "Ġsells": 8052,
      "Ġdelays": 8053,
      "heres": 8054,
      "Ġcig": 8055,
      "Ġpear": 8056,
      "Ġgiant": 8057,
      "Ġadolesc": 8058,
      "ressions": 8059,
      "Ġcolors": 8060,
      "Ġdecomp": 8061,
      "ĠLe": 8062,
      "Ġrealism": 8063,
      "Ġ2009": 8064,
      "Ġavoided": 8065,
      "contin": 8066,
      "Ġbathroom": 8067,
      "Ġsatisfaction": 8068,
      "Ġsuscept": 8069,
      "Ġcooperation": 8070,
      "Ġdisputes": 8071,
      "Ġdisability": 8072,
      "asted": 8073,
      "Ġscored": 8074,
      "Ġgenerating": 8075,
      "Ġmonu": 8076,
      "Ġtaxi": 8077,
      "Ġattempted": 8078,
      "Ġbitter": 8079,
      "Ġflavour": 8080,
      "ĠInformation": 8081,
      "Ġbooth": 8082,
      "Ġtelegraph": 8083,
      "Ġencount": 8084,
      "Ġangles": 8085,
      "Ġfranch": 8086,
      "Ġwedding": 8087,
      "Ġnineteenth": 8088,
      "but": 8089,
      "eath": 8090,
      "Ġcater": 8091,
      "Ġpione": 8092,
      "Ġthrown": 8093,
      "Ġcarved": 8094,
      "Ġhealthcare": 8095,
      "Ġcontextual": 8096,
      "Ġcollaps": 8097,
      "Ġfibre": 8098,
      "Ġinjection": 8099,
      "Ġhunting": 8100,
      "aments": 8101,
      "host": 8102,
      "mount": 8103,
      "Ġpec": 8104,
      "Ġfusion": 8105,
      "Ġinequ": 8106,
      "Ġvig": 8107,
      "ĠWhe": 8108,
      "Ġproven": 8109,
      "ellow": 8110,
      "Ġsimulations": 8111,
      "neys": 8112,
      "Ġsensor": 8113,
      "Ġpopularity": 8114,
      "Ġpsychiatric": 8115,
      "Ġwatching": 8116,
      "Ġobligations": 8117,
      "Ġpreserved": 8118,
      "books": 8119,
      "Ġconsciousness": 8120,
      "Ġleisure": 8121,
      "Ġmigration": 8122,
      "enti": 8123,
      "Ġprol": 8124,
      "isting": 8125,
      "Ġtwelve": 8126,
      "Ġvisibility": 8127,
      "Ġunemployed": 8128,
      "Ġodd": 8129,
      "abling": 8130,
      "Ġinterval": 8131,
      "Ġexplored": 8132,
      "ĠAltern": 8133,
      "Ġpressed": 8134,
      "Ġ2005": 8135,
      "Ġillustrated": 8136,
      "Ġparadigm": 8137,
      "cher": 8138,
      "lu": 8139,
      "Ġupl": 8140,
      "Ġsubtle": 8141,
      "Ġinduced": 8142,
      "Ġsingular": 8143,
      "Ġidentifying": 8144,
      "Ġdrawings": 8145,
      "Ġpenet": 8146,
      "Ġfragment": 8147,
      "Ġtells": 8148,
      "Ġconversation": 8149,
      "Ġexplicitly": 8150,
      "Ġtelesc": 8151,
      "aic": 8152,
      "Ġinvited": 8153,
      "guard": 8154,
      "Ġ2001": 8155,
      "Ġreveals": 8156,
      "Ġinsufficient": 8157,
      "urations": 8158,
      "ĠDon": 8159,
      "Ġprojected": 8160,
      "Ġdescribing": 8161,
      "imental": 8162,
      "Ġbroader": 8163,
      "Ġinterventions": 8164,
      "Ġweakness": 8165,
      "Ġneurons": 8166,
      "uzz": 8167,
      "Ġtourn": 8168,
      "rais": 8169,
      "Ġaside": 8170,
      "aret": 8171,
      "Ġenabled": 8172,
      "Ġoutlets": 8173,
      "ĠDiff": 8174,
      "Ġgovernor": 8175,
      "Ġstructured": 8176,
      "Ġexciting": 8177,
      "Ġgraphics": 8178,
      "Ġacoustic": 8179,
      "Ġdrainage": 8180,
      "Ġcompulsory": 8181,
      "Ġunclear": 8182,
      "lock": 8183,
      "Ġwound": 8184,
      "icts": 8185,
      "Ġsuits": 8186,
      "odic": 8187,
      "riend": 8188,
      "Ġplug": 8189,
      "ublic": 8190,
      "Ġregards": 8191,
      "Ġobserve": 8192,
      "Ġindicating": 8193,
      "Ġbottle": 8194,
      "Ġdiamond": 8195,
      "Ġcommittees": 8196,
      "Ġevaluated": 8197,
      "Ġrejected": 8198,
      "Ġbills": 8199,
      "ulent": 8200,
      "Ġdiscovery": 8201,
      "Ġbelieves": 8202,
      "Ġlandscapes": 8203,
      "Ġpounds": 8204,
      "Ġwithdraw": 8205,
      "Ġtries": 8206,
      "Ġchips": 8207,
      "Ġtrace": 8208,
      "Ġmetab": 8209,
      "Ġpreserve": 8210,
      "opl": 8211,
      "ĠInit": 8212,
      "Ġclay": 8213,
      "Ġbeneficial": 8214,
      "Ġincorrect": 8215,
      "Ġisolation": 8216,
      "Ġcolumns": 8217,
      "Ġdischarge": 8218,
      "ithms": 8219,
      "isters": 8220,
      "Ġincomplete": 8221,
      "Ġpresidential": 8222,
      "Ġphysically": 8223,
      "Ġconflicts": 8224,
      "being": 8225,
      "Ġrepeatedly": 8226,
      "Ġstimuli": 8227,
      "Ġwriters": 8228,
      "pie": 8229,
      "range": 8230,
      "ĠTable": 8231,
      "Ġshade": 8232,
      "Ġcostly": 8233,
      "Ġsuggestions": 8234,
      "Ġmagic": 8235,
      "Ġtension": 8236,
      "Ġbib": 8237,
      "Ġlip": 8238,
      "Ġinterch": 8239,
      "Ġoverview": 8240,
      "lectric": 8241,
      "Ġ27": 8242,
      "Ġentries": 8243,
      "Ġ',": 8244,
      "Ġfreight": 8245,
      "Ġprecedent": 8246,
      "Ġinevitable": 8247,
      "Ġtackle": 8248,
      "fig": 8249,
      "Ġcens": 8250,
      "Ġsphere": 8251,
      "Ġplural": 8252,
      "ricks": 8253,
      "Ġdirectors": 8254,
      "Ġbehave": 8255,
      "Ġdisposal": 8256,
      "Ġworkshops": 8257,
      "front": 8258,
      "Ġcant": 8259,
      "Ġproxim": 8260,
      "Ġspell": 8261,
      "Ġundoubted": 8262,
      "Ġquestionna": 8263,
      "Ġ2002": 8264,
      "Ġbreaks": 8265,
      "Ġtobacco": 8266,
      "raid": 8267,
      "Ġstuff": 8268,
      "Ġweld": 8269,
      "Ġvice": 8270,
      "Ġcomplement": 8271,
      "Ġlifet": 8272,
      "Ġperiodic": 8273,
      "Ġrealise": 8274,
      "Ġposts": 8275,
      "Ġcolleagues": 8276,
      "Ġcatal": 8277,
      "Ġimmigration": 8278,
      "Ġangular": 8279,
      "roleum": 8280,
      "fol": 8281,
      "ports": 8282,
      "inals": 8283,
      "Ġbol": 8284,
      "otal": 8285,
      "rome": 8286,
      "aping": 8287,
      "ĠDep": 8288,
      "Ġsuppose": 8289,
      "ĠRel": 8290,
      "atories": 8291,
      "Ġcultures": 8292,
      "Ġdomains": 8293,
      "Ġamongst": 8294,
      "Ġantib": 8295,
      "Ġdeeply": 8296,
      "Ġunsu": 8297,
      "Ġune": 8298,
      "Ġpools": 8299,
      "ĠCom": 8300,
      "Ġcargo": 8301,
      "under": 8302,
      "Ġprosper": 8303,
      "Ġorganizational": 8304,
      "esterday": 8305,
      "Ġmolecules": 8306,
      "Ġemerge": 8307,
      "plant": 8308,
      "Ġjury": 8309,
      "Ġcommit": 8310,
      "Ġrefuge": 8311,
      "Ġterrit": 8312,
      "Ġsigned": 8313,
      "Ġmeanings": 8314,
      "Ġadjusted": 8315,
      "ĠObviously": 8316,
      "car": 8317,
      "ik": 8318,
      "Ġcer": 8319,
      "ĠTV": 8320,
      "ieval": 8321,
      "Ġmyst": 8322,
      "Ġdeterior": 8323,
      "Ġvoltage": 8324,
      "Ġsustainability": 8325,
      "Ġauction": 8326,
      "brev": 8327,
      "Ġclusters": 8328,
      "ĠIncre": 8329,
      "ias": 8330,
      "Ġlying": 8331,
      "Ġdecay": 8332,
      "ĠNone": 8333,
      "Ġactivation": 8334,
      "Ġ189": 8335,
      "Ġbegun": 8336,
      "Ġacquire": 8337,
      "Ġconnecting": 8338,
      "Ġlamps": 8339,
      "Ġjuris": 8340,
      "Ġfasc": 8341,
      "Ġdental": 8342,
      "omot": 8343,
      "Ġhero": 8344,
      "Ġclosure": 8345,
      "Ġevil": 8346,
      "Ġboot": 8347,
      "Ġbrush": 8348,
      "Ġpulse": 8349,
      "Ġproceedings": 8350,
      "Ġaccompany": 8351,
      "Ġpractitioners": 8352,
      "atable": 8353,
      "Ġdrew": 8354,
      "Ġvort": 8355,
      "Ġlemon": 8356,
      "Ġthank": 8357,
      "Ġreflex": 8358,
      "Ġequality": 8359,
      "Ġplanes": 8360,
      "Ġmusicians": 8361,
      "Ġregardless": 8362,
      "Ġ1996": 8363,
      "Ġ1997": 8364,
      "Ġprecip": 8365,
      "Ġhazard": 8366,
      "otherapy": 8367,
      "Ġperspectives": 8368,
      "Ġont": 8369,
      "antly": 8370,
      "Ġincons": 8371,
      "agraph": 8372,
      "mination": 8373,
      "Ġpressures": 8374,
      "gener": 8375,
      "otypes": 8376,
      "Ġperceptual": 8377,
      "Ġrecommendations": 8378,
      "Ġdaughter": 8379,
      "gic": 8380,
      "Ġoven": 8381,
      "Ġbid": 8382,
      "orial": 8383,
      "icate": 8384,
      "ashing": 8385,
      "igation": 8386,
      "Ġanat": 8387,
      "Ġhelic": 8388,
      "Ġintu": 8389,
      "ĠSupp": 8390,
      "Ġdisaster": 8391,
      "Ġoffence": 8392,
      "Ġmodelling": 8393,
      "ĠCol": 8394,
      "Ġmapping": 8395,
      "Ġfluctu": 8396,
      "Ġmissed": 8397,
      "Ġelevation": 8398,
      "Ġinclusion": 8399,
      "ĠResear": 8400,
      "comp": 8401,
      "Ġpier": 8402,
      "Ġstamp": 8403,
      "ulates": 8404,
      "izers": 8405,
      "Ġgeneric": 8406,
      "Ġadvances": 8407,
      "ĠWho": 8408,
      "Ġprojection": 8409,
      "Ġdegrad": 8410,
      "Ġdressing": 8411,
      "Ġtroph": 8412,
      "Ġevaluate": 8413,
      "ĠTrans": 8414,
      "Ġcomed": 8415,
      "Ġtrails": 8416,
      "cons": 8417,
      "Ġphones": 8418,
      "Ġ1920": 8419,
      "ĠEv": 8420,
      "Ġconcluded": 8421,
      "obile": 8422,
      "Ġalongside": 8423,
      "Ġ2004": 8424,
      "Ġargues": 8425,
      "Ġalgorithms": 8426,
      "Ġtent": 8427,
      "indu": 8428,
      "Ġbip": 8429,
      "urred": 8430,
      "Ġdece": 8431,
      "Ġrum": 8432,
      "une": 8433,
      "Ġdemol": 8434,
      "Ġfails": 8435,
      "Ġvacu": 8436,
      "Ġconcession": 8437,
      "craft": 8438,
      "Ġlady": 8439,
      "Ġshad": 8440,
      "Ġcoinc": 8441,
      "Ġcopper": 8442,
      "Ġsocio": 8443,
      "Ġturnover": 8444,
      "Ġrises": 8445,
      "Ġsummary": 8446,
      "Ġappreciate": 8447,
      "Ġthousand": 8448,
      "Ġpad": 8449,
      "Ġpink": 8450,
      "owed": 8451,
      "Ġseam": 8452,
      "Ġseating": 8453,
      "Ġadject": 8454,
      "erved": 8455,
      "Ġacres": 8456,
      "Ġtransit": 8457,
      "Ġprocessed": 8458,
      "Ġ32": 8459,
      "Ġsubstances": 8460,
      "Ġeastern": 8461,
      "Ġacceptance": 8462,
      "aze": 8463,
      "Ġliability": 8464,
      "Ġpetroleum": 8465,
      "Ġdeclining": 8466,
      "Ġthreatened": 8467,
      "Ġtickets": 8468,
      "mn": 8469,
      "vol": 8470,
      "onent": 8471,
      "ifiable": 8472,
      "Ġabbrev": 8473,
      "Ġdeficit": 8474,
      "Ġvisiting": 8475,
      "Ġrainfall": 8476,
      "Ġamendments": 8477,
      "Ġtherm": 8478,
      "Ġcelebr": 8479,
      "overs": 8480,
      "uilt": 8481,
      "Ġpushed": 8482,
      "Ġnodes": 8483,
      "ette": 8484,
      "amps": 8485,
      "aint": 8486,
      "Ġscri": 8487,
      "ĠOut": 8488,
      "Ġdesignated": 8489,
      "Ġgloves": 8490,
      "Ġexploration": 8491,
      "Ġactivated": 8492,
      "Ġpainful": 8493,
      "Ġpressing": 8494,
      "Ġestablishing": 8495,
      "Ġagreements": 8496,
      "Ġcalculation": 8497,
      "ĠChrist": 8498,
      "Ġbehavioral": 8499,
      "gradu": 8500,
      "Ġsuspended": 8501,
      "Ġinspection": 8502,
      "Ġshelter": 8503,
      "Ġinstallation": 8504,
      "Ġgradient": 8505,
      "jud": 8506,
      "ationally": 8507,
      "Ġconve": 8508,
      "Ġincomp": 8509,
      "Ġresident": 8510,
      "Ġoccurring": 8511,
      "Ġkeeps": 8512,
      "Ġaudit": 8513,
      "Ġwalked": 8514,
      "Ġdigit": 8515,
      "Ġexpanding": 8516,
      "Ġvegetable": 8517,
      "Ġexclusively": 8518,
      "Ġattributed": 8519,
      "Ġsister": 8520,
      "Ġbaked": 8521,
      "omical": 8522,
      "Ġbearing": 8523,
      "Ġsegments": 8524,
      "roport": 8525,
      "Ġtaxpay": 8526,
      "Ġphilosop": 8527,
      "Ġdisciplines": 8528,
      "Ġfellow": 8529,
      "Ġambitious": 8530,
      "Ġsul": 8531,
      "Ġlav": 8532,
      "Ġlakes": 8533,
      "Ġspont": 8534,
      "Ġimped": 8535,
      "Ġsynd": 8536,
      "Ġflash": 8537,
      "Ġopera": 8538,
      "Ġ2003": 8539,
      "Ġ1999": 8540,
      "ĠIndividual": 8541,
      "Ġallocated": 8542,
      "Ġneighborhood": 8543,
      "my": 8544,
      "Ġ(\"": 8545,
      "Ġpoem": 8546,
      "Ġpolite": 8547,
      "Ġremind": 8548,
      "Ġconstructions": 8549,
      "Ġbigger": 8550,
      "Ġadoption": 8551,
      "Ġpermits": 8552,
      "Ġlaunched": 8553,
      "Ġfount": 8554,
      "Ġhollow": 8555,
      "omal": 8556,
      "Ġdele": 8557,
      "Ġwhenever": 8558,
      "Ġcorners": 8559,
      "Ġjudgments": 8560,
      "Ġharb": 8561,
      "Ġsoup": 8562,
      "Ġethics": 8563,
      "Ġbridges": 8564,
      "Ġenclosed": 8565,
      "Ġcinema": 8566,
      "ĠGenerally": 8567,
      "grou": 8568,
      "rich": 8569,
      "Ġtid": 8570,
      "otted": 8571,
      "Ġconvert": 8572,
      "users": 8573,
      "Ġ150": 8574,
      "Ġenlar": 8575,
      "Ġque": 8576,
      "formed": 8577,
      "Ġvalidity": 8578,
      "Ġwriter": 8579,
      "Ġcapability": 8580,
      "Ġphysiological": 8581,
      "Ġdegener": 8582,
      "Ġignored": 8583,
      "Ġrows": 8584,
      "Ġlicensing": 8585,
      "Ġsorts": 8586,
      "itis": 8587,
      "Ġmes": 8588,
      "Ġnerve": 8589,
      "imp": 8590,
      "Ġkid": 8591,
      "Ġteen": 8592,
      "Ġimpart": 8593,
      "earing": 8594,
      "Ġoutbre": 8595,
      "Ġoverr": 8596,
      "Ġamen": 8597,
      "Ġcouldn": 8598,
      "Ġsimplicity": 8599,
      "Ġcollision": 8600,
      "Ġensuring": 8601,
      "Ġimmig": 8602,
      "Ġreferring": 8603,
      "Ġcardiac": 8604,
      "Ġreactions": 8605,
      "Ġdistributions": 8606,
      "Ġcosm": 8607,
      "Ġincentive": 8608,
      "Ġpoetry": 8609,
      "just": 8610,
      "Ġsod": 8611,
      "Ġwasn": 8612,
      "opath": 8613,
      "osity": 8614,
      "umer": 8615,
      "agonal": 8616,
      "Ġgenre": 8617,
      "ĠCould": 8618,
      "Ġgrains": 8619,
      "Ġprovider": 8620,
      "Ġorganisms": 8621,
      "Ġdominated": 8622,
      "Ġkeyboard": 8623,
      "Ġtourism": 8624,
      "Ġambul": 8625,
      "Ġafraid": 8626,
      "Ġsolely": 8627,
      "Ġlarvae": 8628,
      "ĠBet": 8629,
      "Ġmodules": 8630,
      "Ġgenerators": 8631,
      "Ġgovernance": 8632,
      "Ġdamaging": 8633,
      "Ġstrengthen": 8634,
      "Ġskelet": 8635,
      "Ġoct": 8636,
      "Ġcolours": 8637,
      "Ġcourty": 8638,
      "Ġhelmet": 8639,
      "Ġalternate": 8640,
      "Ġzones": 8641,
      "Ġpleasant": 8642,
      "Ġpromoted": 8643,
      "Ġbaggage": 8644,
      "Ġannouncement": 8645,
      "elihood": 8646,
      "Ġdors": 8647,
      "Ġlag": 8648,
      "Ġalien": 8649,
      "Ġru": 8650,
      "Ġextending": 8651,
      "Ġrefuse": 8652,
      "Ġsignature": 8653,
      "Ġpractically": 8654,
      "Ġcompetence": 8655,
      "Ġminds": 8656,
      "Ġaux": 8657,
      "Ġsurprise": 8658,
      "Ġmodule": 8659,
      "ĠEarly": 8660,
      "Ġdiscl": 8661,
      "Ġmenu": 8662,
      "Ġmask": 8663,
      "Ġpedestrian": 8664,
      "Ġsemantics": 8665,
      "Ġrecurs": 8666,
      "orship": 8667,
      "Ġabsurd": 8668,
      "Ġtargeted": 8669,
      "Ġadapted": 8670,
      "Ġpalm": 8671,
      "vals": 8672,
      "Ġadvised": 8673,
      "Ġmedieval": 8674,
      "Ġweekend": 8675,
      "Ġlacking": 8676,
      "Ġprevented": 8677,
      "Ġrepeat": 8678,
      "Ġsettled": 8679,
      "ĠOverall": 8680,
      "Ġfifth": 8681,
      "Ġdiplomatic": 8682,
      "Ġlifetime": 8683,
      "bled": 8684,
      "sized": 8685,
      "Ġtong": 8686,
      "Ġhung": 8687,
      "Ġbeaches": 8688,
      "Ġwholly": 8689,
      "Ġvariability": 8690,
      "Ġgrace": 8691,
      "Ġprivacy": 8692,
      "Ġbehaviors": 8693,
      "ĠExper": 8694,
      "Ġadjustment": 8695,
      "Ġbeams": 8696,
      "...": 8697,
      "Ġanthrop": 8698,
      "iors": 8699,
      "Ġpou": 8700,
      "Ġmile": 8701,
      "Ġimpose": 8702,
      "Ġbutt": 8703,
      "Ġexamining": 8704,
      "Ġending": 8705,
      "Ġmaize": 8706,
      "Ġapproximation": 8707,
      "Ġcaptured": 8708,
      "Ġtalks": 8709,
      "Ġincentives": 8710,
      "Ġtelling": 8711,
      "Ġware": 8712,
      "lease": 8713,
      "Ġsuite": 8714,
      "ĠApart": 8715,
      "ysical": 8716,
      "Ġcounted": 8717,
      "Ġlongitudinal": 8718,
      "Ġsettle": 8719,
      "Ġverte": 8720,
      "Ġgeographic": 8721,
      "Ġviable": 8722,
      "Ġtransparent": 8723,
      "Ġirrigation": 8724,
      "she": 8725,
      "erts": 8726,
      "Ġlots": 8727,
      "Ġisn": 8728,
      "izz": 8729,
      "Ġobl": 8730,
      "Ġexped": 8731,
      "Ġhanded": 8732,
      "Ġmethodology": 8733,
      "Ġmethodological": 8734,
      "Ġintroducing": 8735,
      "Ġproposition": 8736,
      "Ġautomated": 8737,
      "Ġglasses": 8738,
      "Ġmanufacturer": 8739,
      "Ġcraw": 8740,
      "Ġscarce": 8741,
      "Ġaccomplished": 8742,
      "Ġprolonged": 8743,
      "45": 8744,
      "Ġislands": 8745,
      "Ġgig": 8746,
      "ptic": 8747,
      "Ġincomes": 8748,
      "ropy": 8749,
      "Ġconsumed": 8750,
      "Ġcalm": 8751,
      "Ġannoy": 8752,
      "Ġimagery": 8753,
      "Ġdedu": 8754,
      "Ġtrends": 8755,
      "Ġcertificate": 8756,
      "such": 8757,
      "Ġbind": 8758,
      "gebra": 8759,
      "abet": 8760,
      "Ġchip": 8761,
      "Ġjew": 8762,
      "Ġhumidity": 8763,
      "Ġtemple": 8764,
      "Ġtubes": 8765,
      "Ġmacro": 8766,
      "ĠWhether": 8767,
      "ene": 8768,
      "Ġbones": 8769,
      "inge": 8770,
      "ilty": 8771,
      "Ġspare": 8772,
      "Ġcalling": 8773,
      "Ġsolved": 8774,
      "Ġconsistently": 8775,
      "Ġphotograp": 8776,
      "Ġlobby": 8777,
      "Ġauxili": 8778,
      "awn": 8779,
      "cation": 8780,
      "Ġstain": 8781,
      "ensed": 8782,
      "Ġcoin": 8783,
      "Ġinvention": 8784,
      "Ġactor": 8785,
      "olds": 8786,
      "Ġdevelops": 8787,
      "Ġdescent": 8788,
      "Ġcapabilities": 8789,
      "Ġconvention": 8790,
      "Ġlengthy": 8791,
      "Ġbriefly": 8792,
      "Ġpicked": 8793,
      "Ġaltogether": 8794,
      "Ġalleged": 8795,
      "Ġcocoa": 8796,
      "Ġarchaeological": 8797,
      "eor": 8798,
      "hour": 8799,
      "no": 8800,
      "Ġty": 8801,
      "Ġhip": 8802,
      "Ġreef": 8803,
      "Ġlun": 8804,
      "Ġraises": 8805,
      "rics": 8806,
      "itty": 8807,
      "Ġconclude": 8808,
      "Ġendless": 8809,
      "Ġadds": 8810,
      "Ġcontinuously": 8811,
      "Ġliteracy": 8812,
      "Ġmountains": 8813,
      "Ġrotating": 8814,
      "Ġregistration": 8815,
      "Ġwrapped": 8816,
      "Ġnouns": 8817,
      "Ġawarded": 8818,
      "Ġnearest": 8819,
      "after": 8820,
      "Ġpond": 8821,
      "icing": 8822,
      "Ġharsh": 8823,
      "Ġanterior": 8824,
      "accept": 8825,
      "ĠHave": 8826,
      "Ġjam": 8827,
      "Ġramp": 8828,
      "rices": 8829,
      "Ġformally": 8830,
      "Ġmoon": 8831,
      "Ġprevention": 8832,
      "Ġbeneath": 8833,
      "Ġclearance": 8834,
      "Ġexcav": 8835,
      "Ġbiggest": 8836,
      "Ġaddresses": 8837,
      "Ġinnoc": 8838,
      "Ġguaranteed": 8839,
      "Ġpursue": 8840,
      "Ġjuven": 8841,
      "Ġlikelihood": 8842,
      "Ġundoubtedly": 8843,
      "cul": 8844,
      "pin": 8845,
      "omorph": 8846,
      "ogs": 8847,
      "Ġinterc": 8848,
      "Ġmodification": 8849,
      "ĠNext": 8850,
      "ĠAss": 8851,
      "Ġcommunal": 8852,
      "Ġmuscles": 8853,
      "clock": 8854,
      "Ġspecification": 8855,
      "Ġ1998": 8856,
      "Ġphotography": 8857,
      "Ġcriterion": 8858,
      "Ġstrictly": 8859,
      "Ġmorphology": 8860,
      "ĠTradition": 8861,
      "Ġmetaphor": 8862,
      "Ġvacuum": 8863,
      "sis": 8864,
      "Ġhoney": 8865,
      "Ġforum": 8866,
      "Ġproud": 8867,
      "ushes": 8868,
      "Ġgraphs": 8869,
      "Ġchallenging": 8870,
      "Ġpregnancy": 8871,
      "dri": 8872,
      "Ġwhis": 8873,
      "Ġprescribed": 8874,
      "Ġcheese": 8875,
      "scious": 8876,
      "Ġalteration": 8877,
      "Ġcorrelated": 8878,
      "Ġsexual": 8879,
      "Ġgun": 8880,
      "irm": 8881,
      "Ġunh": 8882,
      "Ġinflamm": 8883,
      "Ġpainter": 8884,
      "Ġfreely": 8885,
      "Ġlatt": 8886,
      "namic": 8887,
      "Ġadaptive": 8888,
      "Ġclimbing": 8889,
      "Ġmerchand": 8890,
      "aud": 8891,
      "pre": 8892,
      "Ġbin": 8893,
      "Ġbrows": 8894,
      "Ġreh": 8895,
      "ĠSu": 8896,
      "Ġgover": 8897,
      "Ġassign": 8898,
      "ĠLast": 8899,
      "Ġnonlinear": 8900,
      "Ġdrag": 8901,
      "Ġelastic": 8902,
      "azz": 8903,
      "Ġillustrate": 8904,
      "Ġtherapeutic": 8905,
      "Ġmistake": 8906,
      "Ġautonomous": 8907,
      "wear": 8908,
      "Ġbases": 8909,
      "Ġfant": 8910,
      "oped": 8911,
      "Ġleague": 8912,
      "Ġplots": 8913,
      "Ġworried": 8914,
      "Ġpert": 8915,
      "Ġcorrid": 8916,
      "Ġhandled": 8917,
      "Ġeconomies": 8918,
      "Ġaffil": 8919,
      "Ġwinds": 8920,
      "Ġcontinuity": 8921,
      "Ġ75": 8922,
      "Ġcalculate": 8923,
      "Ġvoices": 8924,
      "Ġranks": 8925,
      "Ġjurisd": 8926,
      "Ġtag": 8927,
      "Ġcul": 8928,
      "Ġcrick": 8929,
      "Ġwise": 8930,
      "Ġvault": 8931,
      "Ġcomparing": 8932,
      "Ġproducer": 8933,
      "phal": 8934,
      "Ġspecially": 8935,
      "Ġsimilarly": 8936,
      "ĠUnt": 8937,
      "Ġcomputed": 8938,
      "Ġcircuits": 8939,
      "Ġconstitution": 8940,
      "Ġdisproport": 8941,
      "Ġelectronics": 8942,
      "Ġeliminate": 8943,
      "Ġshells": 8944,
      "Ġborrowing": 8945,
      "Ġepisodes": 8946,
      "Ġsediment": 8947,
      "ĠBritish": 8948,
      "Ġfuss": 8949,
      "amil": 8950,
      "Ġranges": 8951,
      "third": 8952,
      "Ġoutline": 8953,
      "Ġservants": 8954,
      "Ġsocietal": 8955,
      "Ġcrown": 8956,
      "Ġburned": 8957,
      "Ġsatisfy": 8958,
      "Ġintrins": 8959,
      "Ġfatigue": 8960,
      "isciplinary": 8961,
      "35": 8962,
      "Ġtorn": 8963,
      "Ġconsec": 8964,
      "umber": 8965,
      "Ġspelling": 8966,
      "resses": 8967,
      "Ġamate": 8968,
      "Ġpatch": 8969,
      "Ġlocked": 8970,
      "text": 8971,
      "Ġmemories": 8972,
      "Ġorganised": 8973,
      "Ġaffection": 8974,
      "Ġlessons": 8975,
      "Ġelbow": 8976,
      "appropri": 8977,
      "Ġemergence": 8978,
      "Ġangry": 8979,
[...]
